t h
r e
i n
th e</w>
a t
e n
e r
c o
i o
a n
u r
s t
a r
e s</w>
a l
io n</w>
o f</w>
d e
o r</w>
i t
re t
s e
t o</w>
c t
in g</w>
o r
i s</w>
ret ur
r o
e r</w>
f i
u n
l e</w>
e d</w>
n s</w>
c h
l e
l i
d e</w>
a s
a m
e n</w>
d i
e c
i n</w>
en t
co n
l o
retur ns</w>
an d</w>
i v
i m
u t
o n
r a
f or</w>
e t
e x
th is</w>
a b
s p
a n</w>
a d
q u
a c
s t</w>
u m
a t</w>
u l
v al
r i
p o
re s
a l</w>
o b
ct ion</w>
en t</w>
p ar
a s</w>
st r
f un
u e</w>
d at
c e</w>
e l
co m
s e</w>
e t</w>
m o
n o
a g
retur n</w>
at ion</w>
ま す</w>
p ro
v er
n e
i f</w>
s i
l a</w>
f or
f ro
at e</w>
m e
w it
ob j
wit h</w>
d o
fro m</w>
s o
i c
i fi
w h
i l
g iv
th at</w>
giv en</w>
in t
am e</w>
m a
c l
re n
c al
fun ction</w>
u t</w>
u s
c e
ec t</w>
i t</w>
p er
t r
t s</w>
s u
sp ec
b y</w>
u n</w>
val ue</w>
str ing</w>
o n</w>
e l</w>
c re
ab le</w>
a p
obj ect</w>
e m
le m
spec ifi
a ct
for m
a r</w>
l y</w>
se t</w>
t i
v e</w>
com p
v i
d s</w>
fi le</w>
c ur
s er
li st</w>
n um
con t
e st
io n
ent s</w>
p t
l es</w>
er s</w>
re p
s s
se d</w>
n ame</w>
st an
s h
c i
k e
th o
al l</w>
io ns</w>
ag e</w>
cl as
b o
u r</w>
f in
ar ra
y p
b e
ar g
i z
co l
at es</w>
b e</w>
e lem
l in
t o
co r
p re
f f
( )</w>
par am
de r</w>
dat a</w>
ar i
re a
u p
i d
lo c
at t
specifi ed</w>
t yp
me tho
s ion</w>
cur ren
t e</w>
s y
param et
arra y</w>
in g
e ct
th er</w>
m at
num b
s c
a v
b u
e st</w>
d ing</w>
p r
val u
de l</w>
ne w</w>
t im
p ut</w>
int er
as e</w>
g e
i s
co de</w>
tr ue</w>
cal l
c t</w>
iv e</w>
an d
o l
at ed</w>
numb er</w>
i g
on e</w>
a in
clas s</w>
m in
返 し</w>
t er
typ e</w>
po s
v ari
ur e</w>
ar e</w>
it s</w>
curren t</w>
ut e</w>
rep res
i st
in de
re s</w>
ex t</w>
res ul
a et</w>
r e</w>
d u
g en
ri b
g et</w>
f a
ex p
metho d</w>
en s
an g
e m</w>
con ver
in to</w>
ar y</w>
ic h</w>
c h</w>
w i
in stan
r it
o ur
qu e</w>
at or</w>
wh ich</w>
e v
l a
t ra
n e</w>
str u
p p
n am
it er
u s</w>
no t</w>
repres ent
in t</w>
l en
ar act
se ts</w>
arg um
al iz
re g
v o
' s</w>
t a
e g
re qu
ch ec
un e</w>
g et
us ing</w>
re d</w>
i d</w>
com m
gen er
im p
p h
ap p
re ad
f e
o ut
de fin
valu es</w>
u sed</w>
u p</w>
c es</w>
k e</w>
s s</w>
v er</w>
p a
fi el
l '
d es</w>
de d</w>
ke y</w>
w rit
re mo
or y</w>
k s</w>
ac e</w>
er r
w or
it ion</w>
tr an
it y</w>
di re
b y
cre ate</w>
pro ce
h o
a ch
su b
it i
un a</w>
c u
instan ce</w>
en ce</w>
er e</w>
ch aract
m et
p l
g ra
i r</w>
re sp
an t</w>
ac h</w>
d on
i a</w>
o p
inde x</w>
t h</w>
u el
p at
for m</w>
se l
wh en</w>
elem ent</w>
u se</w>
p y</w>
con ne
paramet ers</w>
tim e</w>
h e
w e
cont ain
h and
si g
de v
tran s
h ch
ad o</w>
im age</w>
cre ates</w>
a f
st at
ut es</w>
k t
b a
d '
in form
o s</w>
e ach</w>
m i
ret our
pat h</w>
e d
rea d</w>
dire ct
c ion</w>
mo del</w>
ab le
n o</w>
o per
mat ri
ter min
con stru
retour ne</w>
resp on
o pt
col um
se r</w>
in di
ct ion
rea m</w>
st ream</w>
t er</w>
dev uel
a d</w>
h as</w>
in put</w>
t able</w>
ac k</w>
se qu
bu ff
e qu
t ens
i c</w>
in iti
sel f</w>
st ar
devuel ve</w>
en d</w>
s es</w>
u m</w>
or s</w>
d er
dat e</w>
ke y
as so
or t</w>
in e</w>
de sc
de fa
an y</w>
po l
lin e</w>
t es</w>
p y
en d
int eg
ex ec
am p
t w
g ro
ad d
b in
defa ul
vari able</w>
h t
fi r
o ther</w>
call ed</w>
p as
fiel d</w>
s i</w>
me ss
qu er
at ions</w>
asso ci
err or</w>
t ext</w>
ex ce
en i
c k
lo g
se t
matri x</w>
elem ents</w>
c lo
il l</w>
att rib
un d</w>
er o</w>
d an
s q
d o</w>
b le</w>
c um
i l</w>
form at</w>
a ve</w>
c an</w>
or t
m ul
conver t</w>
id ent
out put</w>
as t</w>
指 定</w>
sh o
po int</w>
ac k
re e</w>
fir st</w>
b ase</w>
st o
p i
wh e
le n</w>
o ut</w>
w ill</w>
b loc
im ag
li st
a u
li c
e s
f on
al ly</w>
fi l
ver sion</w>
defaul t</w>
obj ect
m ent</w>
whe ther</w>
sequ ence</w>
po int
charact er</w>
n on
e ur</w>
w a
r as
exp res
st ate</w>
tw o</w>
pos ition</w>
フ ァ
get s</w>
represent ation</w>
h as
me m
k o
ad a</w>
un i
resul t</w>
r y</w>
se e</w>
ad d</w>
or e</w>
r an
n ing</w>
pt ion</w>
p t</w>
buff er</w>
sy st
m l</w>
le v
de n</w>
ut ion</w>
す る</w>
ex t
c ul
ing s</w>
do cum
par a</w>
comm and</w>
p ut
ファ イ
th e
conne ction</w>
w s</w>
t ing</w>
ul d</w>
fe ren
ser i
ent e</w>
sig n
di sp
t e
t est</w>
i r
fi ch
no de</w>
integ er</w>
d ur
sy m
si z
ser ver</w>
li ke</w>
or i
wi se</w>
d u</w>
b ut</w>
v es</w>
re l
con fi
t up
en co
s ch
argum ent</w>
imp lem
i li
ch ang
p er</w>
fun kt
p u
vo z
s o</w>
chec k</w>
ma p</w>
initi aliz
n y
c ach
ab les</w>
on ly</w>
l {
di e</w>
l s</w>
inform ation</w>
ras hch
py th
mess age</w>
m an
co n</w>
voz v
mul ti
ar ch
vozv rashch
f o
di st
so ck
desc ri
iter ator</w>
comp ute</w>
r u
ct ions</w>
cl u
ac ce
di ction
か ら</w>
vozvrashch aet</w>
at ive</w>
ar d</w>
w in
cor respon
ion al</w>
or d
de termin
m e</w>
by tes</w>
f al
contain ing</w>
len g
la y
cal cul
syst em</w>
s ame</w>
argum ents</w>
n a</w>
direct ory</w>
su pp
i b
no m
fi le
e c</w>
re cor
fun cion</w>
e i
inter n
u al</w>
object s</w>
pro vi
s ing
v ect
quer y</w>
ファイ ル</w>
ジ ェ
o u</w>
dat ab
f lo
em ent</w>
so l
s im
pro du
lo s</w>
c at
p or</w>
in i</w>
pyth on</w>
resul t
po ur</w>
t est
m ar
c a
proce ss</w>
add res
ident ifi
siz e</w>
r ame</w>
ex ist
writ e</w>
tens or</w>
fi len
b et
lo w
it e</w>
en e</w>
lo o
dan s</w>
ク ト</w>
or der</w>
f l
colum n</w>
co un
se le
b ack</w>
read s</w>
gro up</w>
ブ ジェ
ut ili
u ser</w>
datab ase</w>
オ ブジェ
expres sion</w>
オブジェ クト</w>
c an
leng th</w>
i f
sho uld</w>
mo du
associ ated</w>
: class</w>
u g
ac ion</w>
a u</w>
a der</w>
chec ks</w>
l ab
o th
h ave</w>
b ir</w>
c {
: :
ma x
l er</w>
h t</w>
so ur
er t</w>
m on
ul l</w>
specifi c
mo de</w>
ad ds</w>
f act
関 数</w>
h el
be li
r un
non -
hand le</w>
ret ri
i p</w>
de le
d a</w>
bloc k</w>
p e
col le
s um
lo n
u st</w>
st ro
rep l
confi g
w id
im e</w>
ic al</w>
beli r
i er</w>
ent ry</w>
取 得</w>
wh ere</w>
filen ame</w>
remo ve</w>
o ver</w>
sym bo
re feren
lo ad</w>
pol y
y ing</w>
sq l</w>
sock et</w>
r un</w>
paramet er</w>
j o
t ed</w>
設 定</w>
p ar</w>
dist rib
c li
a m</w>
k es</w>
こ の</w>
comp utes</w>
ba sed</w>
tup le</w>
mat ch
z h
o ver
addres s</w>
win do
se con
fal se</w>
oth er
conver ts</w>
reg ist
constru ct
we en</w>
ord in
bet ween</w>
nam es</w>
cal l</w>
sing le</w>
n one</w>
fon ction</w>
fe at
o ff
em p
comp le
pro per
n or
diction ary</w>
ev ent</w>
al s</w>
i p
belir ti
modu le</w>
w e</w>
k ing</w>
d a
th read</w>
at ing</w>
e f
belirti len</w>
af ter</w>
requ est</w>
m as
ge b
i re</w>
re cu
co py</w>
a ut
di s
be en</w>
現 在</w>
ser v
do c</w>
g o</w>
est a</w>
arra y
recu per
pre di
v y
s cal
nom b
so n</w>
pos it
i u</w>
i le</w>
bu il
st e
l ast</w>
has h</w>
el s</w>
attrib ute</w>
star t</w>
en c
si ble</w>
sp ace</w>
he ader</w>
qu e
nam ed</w>
k i</w>
constru ct</w>
t ic
ー タ</w>
w n</w>
p h</w>
th ro
al i
x ml</w>
ma in</w>
in ser
l i</w>
v e
intern al</w>
bo o
et te</w>
_ _
nam e
other wise</w>
ct ed</w>
mo di
funkt si
di z
文 字</w>
remo ves</w>
e valu
di ff
correspon ding</w>
el y</w>
ー ド</w>
fi les</w>
i e</w>
don ne
ur l</w>
up date</w>
lin e
en to</w>
vect or</w>
test s</w>
sour ce</w>
don dur
di m
t p</w>
no mi
n ext</w>
it em</w>
exce ption</w>
d ra
cur s
de p
s amp
l ed</w>
e in
defin ed</w>
ul ar</w>
o t</w>
im um</w>
de g
pr int
par se</w>
se ss
poly nomi
ti ene</w>
stan d
vari ables</w>
op en
ma pp
cont ext</w>
gra ph</w>
w as</w>
stru ct
key s</w>
e ren
ne w
cach e</w>
par am</w>
est im
col or</w>
loc al</w>
t ree</w>
co ordin
it em
en ds</w>
dondur ur</w>
ri g
p ack
multi p
pa th
est able
charact ers</w>
ifi c
docum ent</w>
wor d</w>
us hch
t y</w>
lo ad
ent ation</w>
t able
n il</w>
in clu
ス ト</w>
u c
in f
att er
diff eren
m ore</w>
lin k</w>
li g
av ec</w>
w ra
s in
co ur
hel per</w>
no t
n ed</w>
lo g</w>
e specific
al g
vi ce</w>
d _
a y
u ch
b ack
a z
av a
act ual</w>
r am
p atter
o d</w>
fin d</w>
e _
pr iv
li b
in put
do m</w>
res our
distrib ution</w>
nor m
nomb re</w>
el l</w>
ro w</w>
iv al
vi e
l an
et e</w>
donne es</w>
recor d</w>
pro p
off set</w>
th an</w>
str ings</w>
st r</w>
ro n
b as
to k
k h</w>
ava il
ap e</w>
si st
r ang
lev el</w>
windo w</w>
sim il
p s</w>
m it</w>
l as</w>
repl ac
recuper e</w>
gener ate</w>
la y</w>
lo cal
g e</w>
descri pt
re ce
il ity</w>
ch il
o t
equ ival
e -
con n
pro b
con d
li t</w>
f t</w>
do es</w>
イ ン
val or</w>
s imp
cont ents</w>
avail able</w>
wi th
st ra
sp ar
oper ation</w>
form s</w>
c er
writ es</w>
fich ier</w>
画 像</w>
ッ ト</w>
st ack</w>
and o</w>
colle ction</w>
represent ing</w>
ex tra
a x
n i
a ction</w>
en vi
n ach
ma ke</w>
f ace</w>
s k
pre v
elem ent
pr int</w>
inf o</w>
ge o
f ra
by te</w>
de c
colum ns</w>
ch an
imag en</w>
aut o
ph p</w>
ne l</w>
f er
di ct</w>
dat et
respon se</w>
modi fi
initializ e</w>
seri aliz
num ero</w>
at ion
proce ss
o se</w>
su r</w>
resul ts</w>
p res
g o
an ce</w>
stand ard</w>
so me</w>
i o</w>
exec ut
a res</w>
lo b
com par
chang e</w>
up dat
estable ce</w>
ッ ド</w>
n u
f rame</w>
c le
que ue</w>
o c
e e</w>
t en</w>
p ort</w>
mat ch</w>
e ff
t arg
qu i</w>
fiel ds</w>
an other</w>
c ette</w>
al lo
val id</w>
sy n
pas sed</w>
l u
f ol
th en</w>
sess ion</w>
se ction</w>
polynomi al</w>
obj et</w>
ob tiene</w>
pro to
v al</w>
num er
fun ctions</w>
patter n</w>
f et
c ase</w>
rang e</w>
l ying</w>
coun t</w>
ch ain
av li
seri es</w>
g ib
attrib utes</w>
ョ ン</w>
li a</w>
ab out</w>
a k</w>
w ar
ー ス</w>
い る</w>
val i
ri es</w>
pr im
n ull</w>
inde x
be g
g m
en sion</w>
m ust</w>
enco ding</w>
call s</w>
字 列</w>
tim e
retur ned</w>
ori th
di g
alg orith
dat a
comp on
priv ate</w>
over ri
ma y</w>
ver se</w>
m y
k l
c aract
act iv
wi tho
witho ut</w>
n ec
m ut
item s</w>
ン ト</w>
th ere</w>
pi x
pa ren
lin es</w>
k ed</w>
im al</w>
文 字列</w>
provi ded</w>
m s</w>
indi c
obj e
app ly</w>
point s</w>
ex ion</w>
et s</w>
th em</w>
indi ces</w>
hand ler</w>
b it</w>
re f
for e</w>
メ ソ
ser ver
prev io
d' un</w>
curren t
メソ ッド</w>
ta kes</w>
li c</w>
e ve</w>
bin ary</w>
us es</w>
ran dom</w>
d as</w>
cont ro
am p</w>
vie w</w>
ht tp</w>
e ss
be fore</w>
b i
a re
z ero</w>
sq l
s av
eni e</w>
d b
z ur
sch em
pas s
n et
n a
i al</w>
gib t</w>
c ent
simil ar</w>
form at
fi ci
arg s</w>
- ></w>
we ig
trans form</w>
iv o</w>
config ur
an te</w>
si a</w>
li ed</w>
dat af
d en
calcul ate</w>
chain e</w>
wor k</w>
t a</w>
pro x
metho de</w>
' t</w>
st ri
p o</w>
mo de
ho st</w>
bo x</w>
ac cor
t ur
de s
ug h</w>
ur s</w>
sc ri
me di
fi x</w>
eni ia</w>
with in</w>
requ est
par t</w>
symbo l</w>
sh ape</w>
o p</w>
mem ory</w>
l l
e ine</w>
f u
al loc
z a
wh ose</w>
opt ions</w>
ex amp
equival ent</w>
en ding</w>
e ()</w>
un der
retri ev
で す</w>
t as
ei ther</w>
ci a</w>
ro ot</w>
referen ce</w>
po st
le t
do main</w>
comp ut
at ch</w>
s a</w>
identifi er</w>
d' une</w>
d lia</w>
call back</w>
ba se
proper ty</w>
ort ed</w>
o f
l er
descript or</w>
ag es</w>
em pt
dat os</w>
ct s</w>
uc k</w>
pos sible</w>
mo d
equ al</w>
cor e</w>
contain s</w>
ad os</w>
fi x
b ig
act ive</w>
uni code</w>
prob ab
opt ion</w>
max imum</w>
in st
co l</w>
zur uck</w>
s on
requ i
p lo
loc k</w>
do s</w>
pl ace</w>
obje to</w>
h ol
form att
dataf rame</w>
com o</w>
clas ses</w>
accor ding</w>
or y
exce pt</w>
作 成</w>
ー ジ</w>
u st
ro ws</w>
op en</w>
feat u
ad or</w>
table au</w>
ra i
disp lay</w>
struct ure</w>
gener ates</w>
enc y</w>
ef fici
ar g</w>
un d
o v
m it
ic ally</w>
el le</w>
dim ens
tra in
the ir</w>
s qu
r o</w>
is lev
ic k</w>
h er
current ly</w>
プ ロ
rece iv
v ar
u b
t ext
retri eve</w>
con stan
o k
geo met
envi ron
boo le
s ent
re m
di vi
st ore</w>
out put
i st</w>
b it
an s</w>
z ad
wid get</w>
retur ning</w>
lon g</w>
ei ch
wra pp
per form</w>
en en</w>
ar ch</w>
th ing</w>
resour ce</w>
rel ation</w>
exec ute</w>
algorith m</w>
ur i</w>
man ag
do sy
stat ement</w>
specifi c</w>
par ser</w>
no m</w>
metho ds</w>
e ver
secon ds</w>
read y</w>
dep end
at or
under lying</w>
targ et</w>
stat us</w>
point er</w>
mapp ing</w>
g u
sp ac
par ses</w>
k er
ig n
z nach
tra ce</w>
thro ugh</w>
se arch</w>
inter face</w>
ho st
ge geb
デ ータ</w>
シ ョン</w>
v aet</w>
trans form
or ts</w>
mod ul
g lob
flo at</w>
exist s</w>
val eur</w>
s end</w>
fa il
au th
us er
st y
re al</w>
i m</w>
f y</w>
empt y</w>
determin e</w>
desc rib
or ig
ht ml</w>
app lic
a in</w>
no des</w>
cont en
str ing
fi t</w>
feat ure</w>
di stan
con v
pa ir
p age</w>
le ft</w>
implem entation</w>
funktsi ia</w>
ect ed</w>
disp lay
cor re
cli ent</w>
a red</w>
[ x
requ ete</w>
r at
comp res
c ion
array s</w>
ver ifi
fich ero</w>
att r</w>
ag s</w>
typ es</w>
ra di
pu is</w>
k on
e i</w>
d type</w>
d ado</w>
chil d</w>
* *
m a</w>
do m
ax is</w>
込 み</w>
te k
si de</w>
ne g
mo st</w>
l o</w>
configur ation</w>
mi ss
id o</w>
a use</w>
@ param</w>
ret or
prop ri
k no
gra di
fo und</w>
er a</w>
clas si
ス ト
t emp
t ab
retriev es</w>
re curs
o m</w>
met o
funkt ion</w>
cond ition</w>
boole an</w>
r y
par tic
ob j</w>
nec ess
h y
dele te</w>
フ ォ
ic k
y s</w>
su ch</w>
rig ht</w>
ny i</w>
est e</w>
要 素</w>
エ ン
t em
t an
ne e
n er</w>
loc ation</w>
in vo
gra ph
f ac
en a</w>
e res</w>
d y</w>
y ou</w>
le ss</w>
in a</w>
し て</w>
re es</w>
wor ds</w>
un ti
unti l</w>
star ting</w>
res ol
e k
dec imal</w>
cont ent</w>
c ap
beg in
ー ル</w>
v on</w>
re n</w>
名 前</w>
m ac
e sc
de puis</w>
se par
iti es</w>
environ ment</w>
コ ード</w>
paren t</w>
il i</w>
gro up
datet ime</w>
ッ ク</w>
s co
pair s</w>
mem b
k li
exec ution</w>
e j
co effici
ang le</w>
[x ]</w>
ta g</w>
represent ed</w>
r d
loo p</w>
f ull</w>
de cor
cre e</w>
s ions</w>
per forms</w>
match es</w>
lab el</w>
fil ter</w>
e red</w>
cl us
デ ィ
ら れ</w>
u k
s at
proto col</w>
he ad
arch ivo</w>
場 合</w>
ー タ
u v
o ur</w>
ma in
fact ory</w>
cat eg
れ る</w>
y i
p ret
ob t
necess ary</w>
ab sol
_ name</w>
uni que</w>
un g</w>
m l
lab els</w>
j av
pu b
lo b</w>
j ust</w>
gra m</w>
col =
caract eres</w>
yi el
a k
" ,</w>
wid th</w>
match ing</w>
load s</w>
cer t
be ing</w>
ag ain
a p</w>
ト リ</w>
vari ance</w>
oper ator</w>
num py</w>
di r</w>
al ready</w>
あ る</w>
fi c
ap i</w>
an al
ー ル
t al</w>
exist ing</w>
at ch
again st</w>
サ ー
と して</w>
met ri
fol low
especific ado</w>
結 果</w>
p d
cre ated</w>
coordin ate</w>
z er
wa it
un it</w>
t ri
su m</w>
et a</w>
ent ed</w>
da y</w>
cal end
b its</w>
配 列</w>
samp les</w>
quer y
p ort
meto do</w>
lay er</w>
j e
ever y</w>
descri ption</w>
chec k
使 用</w>
tens ors</w>
sp l
produ ct</w>
k u</w>
ge m</w>
ent ra
comp ares</w>
ch ar
ta il
et sia</w>
al ity</w>
lon g
input s</w>
し い</w>
su c
secon d</w>
samp le</w>
s cre
qu o
ob ra
l at
inser t</w>
in verse</w>
fet ch
determin es</w>
buil d</w>
ser vice</w>
re c
proce d
on g</w>
li ke
ext ension</w>
d um
al ph
z eich
tim est
temp or
retor na</w>
regist er</w>
reg res
proced ure</w>
iv ely</w>
fun c</w>
coordin ates</w>
construct or</w>
calcul ates</w>
デ ータ
serv eur</w>
s ave</w>
p e</w>
multip le</w>
cour ant</w>
y -
w n
pres ent</w>
l' image</w>
ー ト</w>
ッ ク
ス タ
z ip</w>
s _
l ing</w>
instan ces</w>
in in</w>
defin it</w>
de vice</w>
chang es</w>
chan nel</w>
ン ス</w>
train ing</w>
tek ushch
tas k</w>
st or
no go</w>
m er
re du
p rep
g ram
ev ents</w>
dra w</w>
curs or</w>
co de
clo se</w>
a kt
読 み
t ex
s ing</w>
s ()</w>
paramet re</w>
mo n</w>
mess ages</w>
der iv
call ing</w>
c s
バ イ
ク エ
vi a</w>
uk az
o k</w>
log g
list s</w>
li es</w>
inst al
in al</w>
us ly</w>
suc ce
nu ev
i ble</w>
gener ator</w>
conn exion</w>
comp at
absol ute</w>
wrapp er</w>
sty le</w>
si b
r ary</w>
me an</w>
line ar</w>
it u
implem ents</w>
f ul
eff ect
e urs</w>
de cl
そ の</w>
zad an
vi d
le g
ko t
c as
b atch</w>
at a</w>
arch ive</w>
tens or
par ti
p un
islev i</w>
inform acion</w>
ent ries</w>
e in</w>
de li
de bu
cre a</w>
ari o</w>
ap propri
the y</w>
t am
s m
po s</w>
li ef
i i</w>
t _
lief ert</w>
indi ce</w>
en s</w>
construct s</w>
clo ses</w>
c ed</w>
vali dat
supp lied</w>
sum m
pre c
m p
like li
likeli ho
l arg
g re
bo th</w>
b ri
ar ak</w>
al ong</w>
acce ss</w>
: doc</w>
新 しい</w>
us h
per io
ny kh</w>
g est
g _
en ces</w>
ch o
c am
v ed</w>
sp ec</w>
s ul
r a</w>
j son</w>
im iz
ig ht</w>
has h
bo und</w>
at ors</w>
y i</w>
ra w</w>
o ci
net work</w>
i str
i sp
i es</w>
co di
wa y</w>
v ar</w>
v a</w>
scri pt</w>
compon ent</w>
c ar
- like</w>
調 べ</w>
メ ッ
メッ セ
セ ット</w>
tem pl
r f
plo t</w>
o l</w>
jav a</w>
i z</w>
glob al</w>
geomet ry</w>
as ci
実 行</w>
呼 び
呼び 出
ク ラ
z u
termin al</w>
ter n
sign al</w>
re d
per sist
k up</w>
it e
if y</w>
i ushch
ev ent
cert ific
データ ベ
ver i
trans l
tok en</w>
t it
st er</w>
o m
ma il
la z
hy per
cu sto
ch e</w>
an a
a us
reg istr
pa ir</w>
overri de</w>
opt ion
likeliho od</w>
f requ
リ スト</w>
u x</w>
ti es</w>
run ning</w>
result at</w>
pre fix</w>
opt ional</w>
in cre
g res
extra ct</w>
eg o</w>
contro l</w>
co ok
applic ation</w>
al low
s ur
print s</w>
pl ac
in her
ch un
act u
z u</w>
tr y</w>
th reads</w>
sign ed</w>
repl ace</w>
min imum</w>
initi al</w>
in ste
ig h
c le</w>
) ,</w>
追 加</w>
情 報</w>
wa it</w>
re le
po si
inste ad</w>
bo dy</w>
au f</w>
an gegeb
al so</w>
フ ィ
z ip
y a</w>
wait ing</w>
s ine</w>
ma kes</w>
initializ es</w>
i er
fin ds</w>
f -
exp ected</w>
enco ded</w>
do wn</w>
des de</w>
defin es</w>
de m</w>
se g
partic ular</w>
op s</w>
m u
get _
de prec
clus ive</w>
c el
app e
s ends</w>
ro ut
pol uch
po w
param s</w>
nee ded</w>
k er</w>
j ect</w>
gradi ent</w>
flo at
f re
di e
変 換</w>
ー ム</w>
に 対
z ov
vid or</w>
supp ort</w>
sto p</w>
s -
pix el</w>
o us</w>
norm al</w>
inter val</w>
distan ce</w>
constan t</w>
calend ar</w>
z one</w>
ser vidor</w>
n et</w>
n 't</w>
le x
isp ol
bin d
argum ent
ali as</w>
ag g
_ _</w>
メッセ ージ</w>
y e
p -
i ds</w>
ent i
di sc
data set</w>
d ro
co pi
an o</w>
ad ded</w>
接 続</w>
メ ント</w>
u d
sto red</w>
r t
le ast</w>
inher it
en ded</w>
de red</w>
c ro
c ad
appropri ate</w>
verifi e</w>
t -
manag er</w>
h av
decor ator</w>
a st
ン ド
wa ys</w>
repres ents</w>
pr io
orig inal</w>
no i</w>
neg ative</w>
m i</w>
kno wn</w>
kli uch
examp le</w>
er re
e b
differen t</w>
cour ante</w>
ch is
an not
: return</w>
ー ジ
バ ー</w>
w ard</w>
tup les</w>
spar se</w>
sign at
sele cted</w>
r up
m y</w>
fon t</w>
an t
か ど</w>
p ag
gener ated</w>
er geb
defin e</w>
con stra
com mon</w>
asci i</w>
acce pt
timest amp</w>
sp lit</w>
se arch
scal e</w>
s u</w>
prox y</w>
numb ers</w>
local e</w>
iz ed</w>
f n</w>
f d</w>
et re</w>
conne ct
comp il
as sum
イ テ
ro t
proper ties</w>
mar k</w>
lem ent</w>
fun ction
direct ori
di r
u stan
specifi es</w>
sh ch
remo te</w>
pl at
oc curren
my sql</w>
lo a
fo re
allo w</w>
データベ ース</w>
wi de</w>
ti po</w>
s v
reg ion</w>
previo us</w>
path name</w>
m s
ll am
ho ok</w>
follow ing</w>
contain ed</w>
w ing</w>
ta ke</w>
s en
recor ds</w>
pr ime</w>
evalu ate</w>
ej ec
conn ect</w>
con j
c s</w>
anal y
ab stra
a etsia</w>
> ></w>
scre en</w>
scal ar</w>
ref le
previo usly</w>
l _
iz e</w>
h ist
con sul
c ate</w>
ag ra
キ ー</w>
w o
st re
spec ial</w>
s li
no uv
loa ded</w>
ker nel</w>
f our
e li
chang ed</w>
to tal</w>
ste p</w>
sh if
pack et</w>
name space</w>
inclu ding</w>
fact or</w>
ein en</w>
cu bri
ab led</w>
定 義</w>
simp le</w>
rai se</w>
per miss
li mit</w>
h al
begin ning</w>
削 除</w>
sin ce</w>
sele ct</w>
se u
produ ce</w>
opt imiz
j o</w>
inser ts</w>
id a</w>
config ure</w>
buff er
ad as</w>
utili s
posit ive</w>
pe re
ny e</w>
k ul
evalu ates</w>
cad ena</w>
c ell</w>
u se
ter ms</w>
s core</w>
pub lic</w>
no de
m in</w>
ent ic
znach enie</w>
z t</w>
summ ary</w>
s lo
receiv ed</w>
non- nil</w>
met ad
it y
i ri
formatt ed</w>
exec utes</w>
d -
clo j
as es</w>
: py</w>
updat es</w>
u z
tr u
stat ist
pre ci
o der</w>
norm aliz
lin k
kul lan
is es</w>
ip v
deprec ated</w>
de l
ch ar</w>
alloc ated</w>
al ign
u le
sto res</w>
si an</w>
inform ations</w>
fa il</w>
fa i
d ada</w>
cont in
coeffici ents</w>
cloj ure</w>
サー バー</w>
um er
symbo ls</w>
spar se
so z
run s</w>
requi red</w>
k [x]</w>
im e
ic s</w>
err ors</w>
en er</w>
die se</w>
出 力</w>
y e</w>
stor age</w>
specific ation</w>
kl as
k ar
fl ags</w>
custo m</w>
chil d
c a</w>
auth entic
変 更</w>
処 理</w>
る い</w>
な い</w>
あ るい</w>
t ion</w>
s or
regres sion</w>
reg ular</w>
oper ations</w>
o mi
n d
implem ent</w>
differen ce</w>
dele tes</w>
defin ition</w>
: param</w>
v ol
u ble</w>
tr a</w>
t ar
syst em
s ure</w>
predi cate</w>
ma x</w>
li b</w>
l ang
h ts</w>
fu l</w>
emp ts</w>
do uble</w>
com bin
att empts</w>
al ways</w>
ac t</w>
キ ュ
に よ
た め</w>
v an
the se</w>
stre am
sig n</w>
schem a</w>
read ing</w>
re act
pow er</w>
l' objet</w>
inherit doc</w>
frequ ency</w>
d y
comple x</w>
cl ause</w>
as oci
an ds</w>
am ente</w>
位 置</w>
tran sp
templ ate</w>
t ers</w>
sele ct
schem e</w>
rd d</w>
po ol</w>
ob serv
memb er</w>
ic in</w>
do wn
de fer
co ule
cach ed</w>
at ely</w>
as ser
v ing</w>
u res</w>
s l
mas k</w>
k in
ent ity</w>
conne cted</w>
cond it
con sist
b ro
a j
> >></w>
z y
ta in</w>
set ting</w>
request ed</w>
n g</w>
fro m
expres sions</w>
en cia</w>
d l</w>
cor p
comple te</w>
au x</w>
a _
全 て</w>
z e
utili see</w>
trans action</w>
s it
pass word</w>
o res</w>
mul t
ma ps</w>
jo ute</w>
gre at
format s</w>
e )</w>
dur ing</w>
dosy a</w>
comm ent</w>
bo und
allo ws</w>
a joute</w>
ファイ ル
ス テ
vi rt
stro ku</w>
s af
pro veri
pro gram</w>
numer ic</w>
modul es</w>
li ch
lab el
l am
it ive</w>
he ad</w>
fin al</w>
diz ge
distrib ut
c _
よ び</w>
よ う</w>
writ er</w>
wo uld</w>
weig hts</w>
s ion
ra l</w>
r d</w>
p cion</w>
ma ch
loo kup</w>
ho w</w>
featu res</w>
en abled</w>
e re
de t</w>
cum ul
certific ate</w>
at iv
ar s</w>
読み 込み</w>
引 数</w>
属 性</w>
レ ク
クラ ス</w>
エ ラ
お よび</w>
vect ors</w>
tho se</w>
specifi e</w>
pu e
output s</w>
or iz
mo ves</w>
estim ate</w>
erre ur</w>
ens ure</w>
ad ding</w>
ま た</w>
to us</w>
ter m</w>
t re
s ort</w>
port ion</w>
per mut
per m
pack age</w>
la g</w>
fet ch</w>
f ree</w>
eli min
de st
comput ation</w>
auto mat
at s</w>
at e
app lies</w>
ラ メ
パ ラメ
ul tim
su it
st ed</w>
replac es</w>
probab ility</w>
po p
io s</w>
i so
err or
equ ality</w>
compat ible</w>
bo un
ac qu
ッ シ
オ ー
x _
w er
vari ant</w>
su s</w>
sho w</w>
rel ated</w>
of f</w>
lig ne</w>
iter ator
ific ation</w>
ex p</w>
estim ator</w>
dimens ional</w>
con exion</w>
与 え</w>
セ ス</w>
to dos</w>
s orted</w>
result ado</w>
provi de</w>
m as</w>
key word</w>
f ut
examp les</w>
dim ension</w>
confi g</w>
compon ents</w>
call able</w>
bo t
am i
allow ed</w>
uni x</w>
se q</w>
s a
q l</w>
proveri aet</w>
metad ata</w>
m ag
k h
is le
im medi
do es
den o
d aet</w>
to p</w>
t ries</w>
signat ure</w>
process ing</w>
pro t
ol d</w>
num $</w>
lic it
imag ick</w>
ev en
en g
em ents</w>
describ ed</w>
de co
datet ime
clas s
c ing</w>
at si
a us</w>
- wise</w>
$ num$</w>
z ap
wh ile</w>
un t</w>
u re
set t
s ent</w>
re stri
ra ises</w>
r doc</w>
o d
in it
h ay
g g
g er
f ram
f lag</w>
- 1</w>
レ ータ</w>
ut a</w>
sequ ences</w>
pp ed</w>
o pre
mail box</w>
m en
il y</w>
i ia</w>
i avli
head ers</w>
f t
deriv ative</w>
dat ei</w>
0 0
( self</w>
可 能</w>
ー カ
フィ ール
valu e
tim es</w>
supp orted</w>
sco pe</w>
recurs ively</w>
re ct
re ch
pas s</w>
ol arak</w>
ny m</w>
n _
mode ls</w>
en ci
cion es</w>
can v
un der</w>
u iu</w>
star ts</w>
sp y</w>
pre par
ph ar</w>
path s</w>
m ime</w>
lo w</w>
lib rary</w>
l -
jo in</w>
i res</w>
funktsi i</w>
entra da</w>
em pt</w>
der ing</w>
de que</w>
clo se
' ,</w>
形 式</w>
ukaz an
to _
t el
se cur
s ob
or dered</w>
o z
m ents</w>
is i</w>
i ch
e po
cook ie</w>
consul ta</w>
compar e</w>
col= "
co variance</w>
att empt</w>
at eur</w>
バ ッ
sym py</w>
ru le</w>
re sets</w>
pue de</w>
persist ent</w>
paramet ro</w>
p ts</w>
le e</w>
iter able</w>
imp ort</w>
i que</w>
g es</w>
ex ist</w>
elem ento</w>
dimens ions</w>
corre ct</w>
conv eni
con cat
child ren</w>
c er</w>
b rea
angegeb enen</w>
ad j
utilis ant</w>
typ e
suit able</w>
ss l</w>
regist ered</w>
qu ant
o g
log -
le ar
d r
corp us</w>
cle ar</w>
akt uel
a ver
イン スタ
us u
su per
sett ings</w>
se l</w>
rel ative</w>
on ce</w>
mon it
k al
ion es</w>
does n't</w>
de t
cubri d_
contin u
comm e</w>
classi fi
c d</w>
2 -
インスタ ンス</w>
to utes</w>
tail le</w>
s h</w>
rout ine</w>
res id
re set</w>
lo ss</w>
list e</w>
i sh
eb a</w>
direct ory
dest in
coun ts</w>
conj un
c y
b an
avli vaet</w>
ari th
パ ス</w>
エン トリ</w>
ye ar</w>
un u</w>
u li
squ are</w>
rf c</w>
prio rit
o id</w>
mach ine</w>
log ical</w>
hay stack</w>
g em
four n
b u</w>
al _
6 4</w>
st it
shif t</w>
s '</w>
re cur
pre feren
pos sib
ob ek
in ci
i son</w>
group s</w>
fil l</w>
exp r</w>
exce pt
el se</w>
b ec
am i</w>
al mac
ソ ース</w>
yiel ds</w>
tempor ary</w>
s )</w>
ru eba</w>
probab il
pre diction
posi cion</w>
poluch aet</w>
pl us</w>
par sing</w>
on to</w>
nu iu</w>
iter ation</w>
f it
ex tra</w>
en umer
e k</w>
decl ar
copi es</w>
comp rueba</w>
b ut
ar d
al e</w>
書 き
フィール ド</w>
x ml
vali date</w>
ust ur
ush es</w>
ul es</w>
syn ta
su p
stro ki</w>
ro o
rece ive</w>
read able</w>
o und</w>
me as
jo b</w>
iv ari
in d
he ight</w>
hand les</w>
h a</w>
for ward</w>
f tp</w>
divi sion</w>
concat en
cat ing</w>
c ada</w>
b en
att ach
app lied</w>
am o
_ identifier</w>
コ ール</w>
v o</w>
u red</w>
s al
resp ect</w>
post gres
polynomi als</w>
p la
open s</w>
metri c</w>
ko m
j a</w>
ivari ate</w>
io r</w>
inter pret
hol d</w>
f f</w>
do c
can di
bec ause</w>
be hav
align ment</w>
ユ ー
プ ル</w>
イテ レータ</w>
sock et
ro s</w>
pro gram
no thing</w>
mas s
m is</w>
k ho
flo w</w>
ent ree</w>
en vo
cont ain</w>
ch ro
categ ory</w>
b er
abstra ct</w>
a ire</w>
* *</w>
# t</w>
生 成</w>
リ ン
コ ン
こ と</w>
ut ility</w>
time out</w>
se ed</w>
s n
preci sion</w>
pass ing</w>
or ac
no te</w>
n es</w>
le d
lang u
h igh
esc ap
equ ation</w>
cu le</w>
c rit
c amp
camp o</w>
c al</w>
b or
app ends</w>
スト リ
writ ten</w>
ustan avlivaet</w>
th read
sh ared</w>
sent ence</w>
se c
ro un
re z
re main
ra z
option ally</w>
oc cur
nuev o</w>
lu a</w>
l ar
iter ates</w>
hyper bo
deg ist
compar ison</w>
col or
bas ic</w>
ar ound</w>
ポ イン
テ キ
ッシ ュ</w>
ック ス</w>
za pro
virt ual</w>
ul t
tr un
sc an
ro ll
ran k</w>
postgres ql</w>
par t
p ick
oper and</w>
o ct
je u</w>
ispol zu
inclu de</w>
imag es</w>
iavli aetsia</w>
i ert</w>
exp an
est ab
don 't</w>
cu ando</w>
ch i
u es</w>
t ables</w>
succe ss
soz daet</w>
so der
serv ic
se q
replac ement</w>
quer ies</w>
pre ce
obt ain
obra zh
new ly</w>
ne ed</w>
m p</w>
it 's</w>
instan ti
great er</w>
fic ation</w>
conveni ence</w>
b lo
同 じ</w>
プロ セス</w>
パラメ ータ</w>
ディ レク
z a</w>
w ert</w>
vy pol
ve ya</w>
val ores</w>
su f
sp e
roo ts</w>
resour ces</w>
remo ved</w>
r p
m ente</w>
iter ate</w>
isle v</w>
inter val
ing -
gener ic</w>
ful ly</w>
f ur</w>
d d
ca o</w>
ami ento</w>
_ id</w>
ー プ</w>
リ クエ
イ ズ</w>
} ,</w>
writ ing</w>
wh at</w>
weig ht
tra ce
th res
star t
spec i
set zt</w>
se ver
ro w
resul ting</w>
r yp
n t</w>
mode l
mo ve</w>
ma de</w>
m ent
i si
fut ure</w>
fiel d
fai la</w>
element -wise</w>
docum ento</w>
d b</w>
coule ur</w>
clu ster</w>
an ch
呼び出 さ</w>
ノ ード</w>
テ ー
w ere</w>
utili se</w>
ut f-
ur a</w>
u id</w>
spac es</w>
s /
ri d</w>
qu '
proce s
p seu
p al
occurren ce</w>
o v</w>
mo d</w>
kot ory
in -
ev er</w>
de code</w>
com position</w>
clas se</w>
cer tain</w>
can on
amo unt</w>
ド キュ
つ い
つい て</w>
war ning</w>
un its</w>
un g
simp li
s or</w>
request s</w>
prox im
posit ional</w>
pix els</w>
ne sted</w>
n um</w>
i qu
g cd</w>
exp on
ex act</w>
e es</w>
describ ing</w>
ci r
c ut</w>
c ation</w>
aliz a</w>
al le
リ ソース</w>
us h</w>
t ags</w>
sub set</w>
stat ic</w>
re -
predi ct</w>
posit ions</w>
po t
po lic
po d
ph y
orac le</w>
ma p
loo ks</w>
k ette</w>
fil ter
conver sion</w>
conten ant</w>
ch em
big integer</w>
バイ ト</w>
sub class</w>
se m
s r
r ules</w>
pt h</w>
per form
k a</w>
iv e
int s</w>
directori es</w>
depend ency</w>
con sum
codi fic
cli ent
cl ave</w>
ana de</w>
agg reg
ad ing</w>
に ついて</w>
u i
tok ens</w>
tok en
tex to</w>
supp orts</w>
sob re</w>
sli ce</w>
sh ell</w>
s ens
rez ult
referen ces</w>
re vi
rai sed</w>
possib ly</w>
p id</w>
m o</w>
le ct
kot or
ko d
iz obrazh
indi cating</w>
especific ada</w>
ent ire</w>
em be
docum entation</w>
d up
c p
are a</w>
ー ト
ク リ
zeich en
windo ws</w>
us ando</w>
tur n</w>
t ro
st er
sim vo
sh ort</w>
rele ase</w>
pseu do
polic y</w>
po n</w>
ob spy</w>
no e</w>
mon th</w>
matri ces</w>
larg e</w>
in side</w>
in ic
h um
fix ed</w>
fin ish
et es</w>
en i</w>
en code</w>
directory iterator</w>
der ni
de pth</w>
dat e
contain er</w>
clo sed</w>
ci ph
bloc king</w>
ag ick</w>
= =</w>
閉 じ</w>
ti ent</w>
tan im
tam ano</w>
synta x</w>
sp at
sel f
ri pt
o g</w>
ne ur
le -
ke e
iv a</w>
host name</w>
gro und</w>
g n
et c</w>
derni ere</w>
conv ol
compres sed</w>
ca st
buil ds</w>
app end</w>
a ia</w>
] ,</w>
# f</w>
ハ ンド
y az
wor ks</w>
w ur
sor ti
seg ment</w>
s p</w>
ra v
r t</w>
pro per</w>
prepar e</w>
io us</w>
indic ate</w>
in fo
immedi ately</w>
ifi ed</w>
f er</w>
ex tern
ex clusive</w>
enci es</w>
ein er</w>
diz ge</w>
direct ly</w>
di c</w>
de f</w>
classi fication</w>
ch t</w>
ce ption</w>
canv as</w>
bloc ks</w>
avli aet</w>
= none</w>
1 -
シ ステ
クエ リ</w>
yp e</w>
vari able
ub ergeb
transform ation</w>
thro ws</w>
si v</w>
sav es</w>
result ats</w>
r ate</w>
plat form</w>
p as</w>
l{ i
loo k</w>
l ar</w>
k -
in de</w>
er 's</w>
e }</w>
dire ct</w>
deg er
clas e</w>
chun k</w>
by te
ar bit
- -</w>
整 数</w>
含 む</w>
ドキュ メント</w>
オ プ
ど う</w>
wor king</w>
ver ti
saf e</w>
s am
ry pt
rig ht
regist ers</w>
r ation</w>
probabil ities</w>
predi ctions</w>
par ts</w>
on al</w>
o w
o b</w>
mas siv</w>
ma il</w>
key -
k um
if ying</w>
ent re</w>
e ig
display s</w>
de vi
d ens
cre ating</w>
codi go</w>
ca uses</w>
bin ding</w>
big decimal</w>
b il
at om
amp s</w>
add it
リクエ スト</w>
フォ ル
wh ite
w atch
val eurs</w>
s ort
rea der</w>
ran dom
r g
ph ase</w>
obek t</w>
ne ed
n -
m ens
log arith
lo ader</w>
le ading</w>
langu age</w>
identifi ant</w>
fact ors</w>
elimin a</w>
ein em</w>
du g
di t</w>
dep ending</w>
conjun to</w>
ch amp</w>
actu ally</w>
表 現</w>
ディレク トリ</w>
タ プル</w>
オプ ション</w>
す べ</w>
ver s</w>
um a</w>
trans forms</w>
tra ba
t ar</w>
pr u
pd f</w>
par sed</w>
ol s</w>
nuev a</w>
nouv elle</w>
min i
met od</w>
met h</w>
mer ge</w>
k t</w>
i ss
gener al</w>
g i</w>
g ec
fra g
fac es</w>
ex it</w>
ex act
e kt
dis k</w>
descri pcion</w>
d f</w>
comm it</w>
comm ands</w>
col l
coeffici ent</w>
b und
ap proxim
ac ks</w>
2 d</w>
終 了</w>
直 近</w>
変 数</w>
マ ッ
y on
wor k
ustur ur</w>
use ful</w>
us a</w>
ur l
sim ul
search es</w>
ren der</w>
provi des</w>
n '
modifi ed</w>
mem cach
m any</w>
iri r</w>
instal led</w>
implem ented</w>
hyperbo lic</w>
enco d
en able</w>
el li
ed _
e u
dig its</w>
cor relation</w>
com pos
aliz ed</w>
ac ro
. .
symbo lic</w>
sub ject</w>
serializ ed</w>
repres ent</w>
rat ional</w>
permut ation</w>
nd array</w>
list a</w>
k w
i python</w>
ht t
h ar
fail ure</w>
execut ed</w>
estab li
dy nam
dra wing</w>
don er</w>
destin ation</w>
den se</w>
debu g</w>
de len
d ence</w>
back end</w>
b us
ヘ ッ
テキ スト</w>
に 関
wi rd</w>
w en
val id
user -
t rig
t f</w>
sup prime</w>
sub classes</w>
sh ap
set _
rep e
re verse</w>
re f</w>
radi us</w>
process es</w>
prim ary</w>
p ng</w>
open ()</w>
need le</w>
na ire</w>
laz y</w>
in clusive</w>
h ere</w>
h dl</w>
exist e</w>
ent ly</w>
ed in
e x</w>
dum p</w>
degist ir
de tail
dat en
bas is</w>
authentic ation</w>
alph a</w>
ali se</w>
al tern
al an
ag ent</w>
addit ional</w>
ー ス
も の</w>
な る</w>
y thing</w>
y _
wra p</w>
vi du
sy s</w>
stru ct</w>
st at</w>
spec ify</w>
sist em
sat is
ryp t</w>
result ados</w>
re al
priorit y</w>
modi fy</w>
lu a_
la st
indi vidu
ig n</w>
i se</w>
gest ion
fl u
en um</w>
ein es</w>
ect s</w>
di ag
deg rees</w>
d ent
cur l</w>
cs v</w>
but t
aver age</w>
as sig
agra m</w>
acro ss</w>
ac cumul
3 2</w>
関 連</w>
書き 込み</w>
ポ ート</w>
ストリ ーム</w>
zeichen kette</w>
yiel d</w>
us age</w>
un ion</w>
tw ist
tekushch ego</w>
tan it
tanit ic
su res</w>
spl file
se gm
sch l
rel ation
print ing</w>
p end
multip ly</w>
mo le
m is
line ar
ko di
it self</w>
integ ers</w>
indic ates</w>
h ex
g aus
form e</w>
featu res
em ac
dan nykh</w>
co er
ch ain</w>
ar c</w>
a -
: func</w>
- type</w>
送 信</w>
ージ ョン</w>
モ ード</w>
ヘッ ダ</w>
バ ージョン</w>
weig ht</w>
vy i</w>
ver tic
updat ed</w>
un less</w>
t ang
statist ics</w>
star ted</w>
so le
server s</w>
rep ort</w>
react or</w>
r ing</w>
pun to</w>
pa y
obt ener</w>
o ve</w>
not ification</w>
modul o</w>
memcach ed
memcached ::
low er</w>
li m
jo in
iz ation</w>
ist ic</w>
inter rup
ig no
evalu ated</w>
equ ations</w>
de cre
cont ent
ch es</w>
beg in</w>
ax es</w>
at rib
act ions</w>
acce s
acce pt</w>
a ff
: meth</w>
ジ ュ
za h
white space</w>
vi su
to p
to das</w>
ta king</w>
t ag
sub tra
sub string</w>
sol ve</w>
so ap
sch e
s wit
s w
ru by</w>
re co
ra pp
pyth on
p ri
p ack</w>
omi al</w>
no n</w>
n ul
multi -
mens aj
mapp ings</w>
logg ing</w>
logg er</w>
inter ce
in fin
ident ity</w>
hist ory</w>
hand ling</w>
ge ar
g l
fra ction</w>
f its</w>
dup lic
disp on
dis able</w>
com po
co s</w>
classifi er</w>
b ran
b lob</w>
b lan
as s</w>
an im
alph ab
_ key</w>
付 け</w>
テー ブ
エラ ー</w>
そ れ</w>
ver ify</w>
ul ar
ug t</w>
so me
so edin
re ment</w>
o s
n an</w>
mac ro</w>
m an</w>
iv es</w>
initializ ation</w>
in sp
ident ical</w>
g am
fun cao</w>
f an
ext ended</w>
es li</w>
end o</w>
d stream</w>
conne ctions</w>
comp ile</w>
co m</w>
c ast</w>
be st</w>
ari es</w>
app lying</w>
annot ation</w>
al og</w>
acce pts</w>
a qui</w>
/ or</w>
プ ン</w>
シ ー
サ イズ</w>
オー プン</w>
と き</w>
x ception</w>
w ant</w>
u ve
u b</w>
specifi ee</w>
sh ip</w>
serializ e</w>
schl us
s ite</w>
s ay
ob ekt
licit ly</w>
k en</w>
itu de</w>
fetch es</w>
extra cts</w>
eng ine</w>
end _
en zy
en di
el l
deli mit
cont ra
c cion</w>
bu ck
b b
as c
arbit rary</w>
and /or</w>
ad o
= 0</w>
ラ ム</w>
モ ジュ
war n
var ious</w>
u et</w>
t rees</w>
sh ort
s si
ro l
rapp el</w>
pop ul
poly g
po z
or it
obtain ed</w>
ob sole
mess ag
me mo
m er</w>
load ing</w>
lin ks</w>
j ob
implem ent
ic o</w>
has k
en ables</w>
docum ent
defin i</w>
defer red</w>
dat es</w>
comm and
colum n
b atch
adj ust
a stro
__ init
/ o</w>
返 す</w>
内 容</w>
保 存</w>
ロ ック</w>
ラ イ
フ ァ</w>
twist ed</w>
tra in</w>
tex te</w>
sub stit
su iv
s le
s in</w>
s d
recuper a</w>
pseudo -
pl an
pe ut</w>
parti al</w>
p ur
ot v
or dering</w>
o -
n at
mass iva</w>
l iter
inst all</w>
imp ort
except ions</w>
en -
emac s</w>
dire ction</w>
deg ree</w>
debu gg
de sp
corre ct
cont ex
col= none</w>
ca de
b ar</w>
b ag
ang ular</w>
almac en
al mente</w>
af _
acce ss
a i
ーカ イ
ピ ー</w>
コ ピー</w>
ア ーカイ
z i
vi sit
vi de</w>
um e</w>
thres hold</w>
so us</w>
sig ui
sele ction</w>
ri c</w>
qu al
max im
ma th
list en
l' e
iter ateur</w>
ib l
hask ell</w>
execut ing</w>
do main
disp atch</w>
daten ban
d ob
cro ss
crit er
bloc k
al es</w>
add r</w>
a ren
@ type</w>
1 0</w>
呼び出 し</w>
取 り
ペ ージ</w>
バッ ファ</w>
タ イ
ソ ケ
キ ャ
に対 し</w>
zer os</w>
watch er</w>
st do
sql _
sour ces</w>
rp c</w>
res source</w>
re win
permiss ions</w>
pe g</w>
on se</w>
o sh
n ative</w>
mo zh
miss ing</w>
ma y
klas sa</w>
iterator ::
is m</w>
inter pol
in it</w>
in feren
if f</w>
ibl io
g rid</w>
frag ment</w>
err a</w>
ent es</w>
en sures</w>
defaul ts</w>
de composition</w>
d one</w>
co sine</w>
co loc
ch a
automat ically</w>
atom ically</w>
argum ento</w>
開 始</w>
テ ィ</w>
ver bind
ut c</w>
tra il
tit le</w>
sk ript
separ ated</w>
se n</w>
registr y</w>
pag ina</w>
otv et
oct ets</w>
ma j
m ig
loc k
li k</w>
le _
l ors</w>
l it
k op
im i</w>
identifi c
h i
fl att
en o
dens ity</w>
comput ed</w>
col l</w>
c ut
bu f</w>
b iblio
associ e</w>
associ ative</w>
an ti
alg orit
al le</w>
aktuel len</w>
af fich
^ 2</w>
= ></w>
3 d</w>
番 号</w>
内 部</w>
ポイン タ</w>
ま で</w>
y ap
wor ker</w>
w s
utili z
to ge
t y
t ls</w>
stand ar
socket _
so otvet
sootvet st
so k
run time</w>
rem en
referen ced</w>
predi ction</w>
pre mi
permiss ion</w>
par tit
ne ss</w>
n ext
n el
mut able</w>
mul tic
mi x
mar ks</w>
llam ada</w>
kin d</w>
initializ ed</w>
inde ki</w>
inde k
im ap</w>
gec er
fore ign</w>
fetch _
er te</w>
ent ial</w>
differen ti
d n</w>
cl es</w>
ci erra</w>
chem in</w>
attrib ut</w>
astro py</w>
an ce
al geb
acqu ire</w>
4 -
使 っ</w>
ユー ザ
テーブ ル</w>
イ ベ
we b</w>
utili sat
up per</w>
u y
ta b</w>
son t</w>
s }</w>
s un
ret e</w>
refle ction
pro pi
plo t
plac es</w>
pl u
part ition</w>
or ph
optimiz er</w>
on e-
of -
ne s
multip lic
manag ed</w>
long s</w>
le m</w>
j uli
intern et</w>
inter section</w>
ic a</w>
exact ly</w>
ejec ut
do t</w>
del ta</w>
d ns</w>
conten ido</w>
conne ction
con tr
con tiene</w>
con si
caract er</w>
canon ical</w>
butt on</w>
bo l
b el
1 9
( ),</w>
表 示</w>
行 い</w>
存 在</w>
参 照</w>
モジュ ール</w>
システ ム</w>
y our</w>
w el
vie w
usu ario</w>
tur t
tur ns</w>
trace back</w>
th ree</w>
su sp
sp eich
se -
s '
ri bu
pro m
pret ty</w>
pr i</w>
po st</w>
phy si
perio d</w>
pay load</w>
parti r</w>
paramet res</w>
p ushes</w>
p ending</w>
p an
or ia</w>
n n</w>
metri cs</w>
mapp ed</w>
low er
list _
li e
li aet</w>
key words</w>
ipv 6</w>
invo ked</w>
inter faces</w>
individu al</w>
index ed</w>
inclu ded</w>
i ers</w>
gestion naire</w>
fi g
f _
diz i</w>
dig est</w>
dent ro</w>
conver ted</w>
conten u</w>
constra int</w>
chec king</w>
cha que</w>
bund le</w>
at om</w>
as y
ab ove</w>
0 0</w>
移 動</w>
タ ー
シー ケ
ま せ</w>
べ て</w>
す べて</w>
z er</w>
x -
weight ed</w>
up per
toge ther</w>
te red</w>
tas ks</w>
stat ements</w>
slo t</w>
serializ able</w>
pru ft</w>
pro gres
prim itive</w>
prep ares</w>
oriz on
nouv el</w>
no ti
nee ds</w>
mon ad</w>
metho d
memb ers</w>
iter ador</w>
inter ne</w>
instan cia</w>
gradi ents</w>
gam ma</w>
file -like</w>
enti ally</w>
ed ges</w>
e 's</w>
directori o</w>
cle ars</w>
ch to</w>
be low</w>
base _
au f
argument s
ach e</w>
a f</w>
= "
ス クリ
war ds</w>
v se</w>
ultim a</w>
sub -
s orts</w>
rg b</w>
remain der</w>
re ci
pp ing</w>
pos led
pl ug
opre delen
oper ating</w>
obekt a</w>
n t
m arg
l ag
key- value</w>
k ay
i kh</w>
i /o</w>
i -
gecer li</w>
formatt ing</w>
format o</w>
form ul
flo ating</w>
fiel d_
ex tens
elli p
dug um
doc string</w>
dele ted</w>
de si
de f
comple ted</w>
ch amps</w>
cat alog</w>
c ar</w>
c ab
buff ered</w>
b l
asser t</w>
ap p</w>
al l
ab ility</w>
ル ープ</w>
シーケ ンス</w>
ア ク
z e</w>
v en
v a
text ure</w>
t agg
sum mar
suf fix</w>
st e</w>
si eurs</w>
sess ion
sent ences</w>
s mo
ru et</w>
r uta</w>
pro to</w>
plu sieurs</w>
pere dan
par se
ol usturur</w>
non e)</w>
me ans</w>
me an
ler i</w>
ig nor
identific ador</w>
id ad</w>
ic ion</w>
h orizon
gu ar
ex clu
embe d
do ssi
distribut ions</w>
deno min
declar ation</w>
de ci
da y
comple tion</w>
cam pos</w>
c m
av es</w>
as ini</w>
ar row</w>
an ts</w>
2 .
** arguments
登 録</w>
ン ト
け る</w>
zah l</w>
y af_
verifi es</w>
validat ion</w>
v 2</w>
tel ls</w>
tab la</w>
se ur</w>
se ed
s d</w>
replac ing</w>
redu ce</w>
receiv er</w>
provi der</w>
proto col
pro p</w>
pro file</w>
pre d</w>
pr inci
polyg on</w>
point ed</w>
pi p
pi la</w>
paramet ros</w>
overri des</w>
or a</w>
new _
mult ivariate</w>
mo do</w>
logarith m</w>
log ic</w>
le f
lat er</w>
kw args</w>
k en
is mi</w>
ing- point</w>
inferen ce</w>
in valid</w>
in o
im ia</w>
il ha</w>
hel p</w>
h an
gem s</w>
g rup
funktsi iu</w>
fra gm
formatt er</w>
float ing-point</w>
fer me</w>
ex it
even ement</w>
ergeb n
effect s</w>
effect ive</w>
eff ect</w>
dro p</w>
di o</w>
d ar
cont ext
ch ron
candi date</w>
c as</w>
**arguments **</w>
対 応</w>
ン グ</w>
ッ ト
な ら</w>
と い
wor d
wer den</w>
utilisat eur</w>
syn chron
su b</w>
so s</w>
s ini</w>
re ver
ra ther</w>
point eur</w>
pla in</w>
param s
p k
p and
open ed</w>
occurren ces</w>
ne igh
m ic
liter al</w>
lic it</w>
instan ce
initi alise</w>
inde n</w>
in da</w>
hol ds</w>
g l</w>
fin d
fail ed</w>
extern al</w>
establi sh
ed ge</w>
dossi er</w>
disc ar
depend encies</w>
d' erreur</w>
co py
categ or
can not</w>
c ard</w>
buff ers</w>
bro ad
ar b
ac y</w>
3 -
最 初</w>
フ ラ
ソケ ット</w>
znach eniia</w>
wur de</w>
validat es</w>
u iushch
u cion</w>
time zone</w>
tang ent</w>
stdo ut</w>
sql ite</w>
sh ut
ser a</w>
sav ed</w>
ru pt
radi ans</w>
prop ag
poz it
po li
per im
numer ical</w>
nam en</w>
mon go
mo use</w>
met at
maj or</w>
li mit
let ter</w>
l' element</w>
ispol zov
inde pend
im mutable</w>
ic i</w>
ib ility</w>
i e
fl ush</w>
fi la</w>
et o
eni i</w>
element a</w>
dra ws</w>
di al
de skript
de lay</w>
coloc a</w>
co p
charact er
c y</w>
behav ior</w>
be longs</w>
attrib ut
atsi iu</w>
at e()</w>
ab il
@ return</w>
: :</w>
有 効</w>
数 値</w>
出 し</w>
チ ェ
ウ ィ
イ ア
とい う</w>
z -
vo m</w>
utili ser</w>
trun c
transp ort</w>
trail ing</w>
ta il</w>
stro ke</w>
sem ble</w>
sele cts</w>
scri be</w>
s ci
ri r</w>
recur so</w>
rect angle</w>
re posit
predi cted</w>
patter ns</w>
par agra
p et
p _
obsole te</w>
non- negative</w>
nom u</w>
n ut
n els</w>
mo ment</w>
medi ante</w>
mar sh
lig nes</w>
li que</w>
li e</w>
k ry
j ect
integ ral</w>
i ro
i le
hex a
g r
fl ux</w>
file system</w>
fi n</w>
execut able</w>
eig en
dum my</w>
do kum
cur ve</w>
constan ts</w>
confi dence</w>
condit ion
compres sion</w>
comm ents</w>
co lon
cle an
can cel
c k</w>
bin d</w>
__init __
] )</w>
5 0
述 子</w>
入 力</w>
ロ ー
ユーザ ー</w>
フォ ー
コ ー
イン デ
アーカイ ブ</w>
に関 する</w>
によ り</w>
z has
zhas hch
w ell</w>
vypol n
ver t
ver ific
ultim o</w>
spac e
soder zhashch
sever al</w>
separ ate</w>
sal ida</w>
resid u
requ ire</w>
replac ed</w>
re as
rat io</w>
quo tient</w>
po ol
pick le</w>
physi cal</w>
per cent
pe remen
overri d
or cion
on es</w>
oc c
o le</w>
no eu
modifi e</w>
mic ro
mas ked</w>
l or
j ar</w>
interce pt</w>
incre ment</w>
in place</w>
g ate</w>
fix e</w>
finish ed</w>
filen am
f el
ex perim
esc ape</w>
e ar
don ne</w>
do st
diag onal</w>
di ff</w>
detail s</w>
d st
constru it</w>
constra ints</w>
connect ()</w>
compat ibility</w>
com e</w>
boun ds</w>
base 64</w>
b zip
ab b
- of-
( i</w>
ベ ル</w>
デ フォル
y am
v rem
ur al</w>
u ch</w>
transl ation</w>
to -
succe ss</w>
sol ves</w>
simp le
sigui ente</w>
relation ship</w>
rec ent</w>
rea ch
re store</w>
qu ad
pand as</w>
object 's</w>
no do</w>
mem oria</w>
m orph
j a
gener ators</w>
fu h
fe h
f li
ent a</w>
eni em</w>
em it</w>
element os</w>
docum ents</w>
dob avliaet</w>
defer red
de m
correspon d
cle an</w>
cam b
c f
ba k
b acks</w>
aut h</w>
ana ht
ad res
ac count</w>
" )</w>
記 述子</w>
複 数</w>
検 索</w>
リン ク</w>
パ ー
テ ィ
サ ブ
ク ション</w>
エラ ー
ウィ ンド
ア ド
y er
w al
vertic es</w>
ver bo
var s</w>
ubergeb enen</w>
transform ed</w>
thro w
test ing</w>
t res</w>
stat s</w>
spl its</w>
so ap</w>
resp ect
rec up
prop orcion
pas ses</w>
p i</w>
nomb res</w>
n th</w>
mole cule</w>
modifi cation</w>
mo t
ma is</w>
m il
line a</w>
lig ht</w>
lib era</w>
leg t</w>
le t</w>
is ini</w>
inter rupt
hist o
hand l
for nec
fon ctions</w>
fin aliz
exp ort</w>
evalu ation</w>
er che</w>
epo ch</w>
envo ie</w>
envi a</w>
enco der</w>
dr iv
dist in
dan nye</w>
cu al
convol ution</w>
co uld</w>
ch e
ch arg
c r
boo l</w>
bo x
b ul
attach ed</w>
ar ity</w>
) )</w>
状 態</w>
最 大</w>
レ ー
メ モ
エン コード</w>
zap isi</w>
y le</w>
xml -
x path</w>
wrapp ed</w>
wen n</w>
we ek</w>
warn ings</w>
v or
us ada</w>
ti emp
tiemp o</w>
termin ated</w>
termin ate</w>
spl it
sh e
serializ ation</w>
secur ity</w>
sco res</w>
rot ation</w>
re _
quant ity</w>
produ ces</w>
print able</w>
p s_
p lay
p ic
p g_
p ad
overrid den</w>
osh ib
occur red</w>
multic ast</w>
mensaj e</w>
ma r</w>
m es</w>
log- likelihood</w>
lim its</w>
is kliuch
in ner</w>
imag ick
i {
gegeb enen</w>
for ce</w>
extens ions</w>
exp and</w>
est ado</w>
es /
er }</w>
el a</w>
e p
donne e</w>
docum ented</w>
disp atch
deg is
conver ting</w>
conver t
construct ed</w>
compos ite</w>
check point</w>
cent er</w>
ce l</w>
cap ac
c o</w>
buil der</w>
boun ding</w>
av len
atsi i</w>
asy n
as signed</w>
ar a</w>
ap res</w>
ap ache</w>
al t</w>
ad ap
: type</w>
部 分</w>
辞 書</w>
表 す</w>
レ コード</w>
プ リ
ネ ル</w>
ウィンド ウ</w>
z am
y et</w>
utf- 8</w>
u ff
sub sequ
spat ial</w>
si iu</w>
set up</w>
sch ed
residu als</w>
res h
represent ant</w>
re st</w>
query set</w>
propi ed
per man
m c
li ve</w>
lev els</w>
le st
lam b
kullan il
is su
ip s</w>
ing _
in ver
hy po
ht ml
h du</w>
gaus sian</w>
ful l
fro nt</w>
fre e
fram es</w>
fin ger
fil ters</w>
fig ure</w>
et ic</w>
enc y
em it
e spac
e /
do it</w>
datenban k</w>
d n
d ad</w>
cre ation</w>
continu ous</w>
conne cts</w>
co z
co des</w>
at ribu
a iushch
1 2</w>
- -
描 画</w>
ボ ックス</w>
プロ パ
プロパ ティ</w>
チ ャ
タ グ</w>
に対 する</w>
お ける</w>
wh en
ver i</w>
v _
us ado</w>
st m</w>
spec ifying</w>
si i</w>
sent encia</w>
sc ene</w>
resol ve</w>
resol ution</w>
rep onse</w>
recurs ive</w>
re r</w>
prom pt</w>
progres s</w>
process or</w>
proces sus</w>
proce so</w>
pro fil
plac e
p ilha</w>
oriz ation</w>
nom s</w>
name space
n iv
mut able
min im
m et</w>
lib ere</w>
lem ent
lear ning</w>
l s
kotor o
kon verti
kod lam
k il
k a
izobrazh eniia</w>
instanti ates</w>
host s</w>
hav ing</w>
fun ciones</w>
fu ente</w>
fil ls</w>
fich iers</w>
f ast</w>
f ar
f am
expan sion</w>
et ot</w>
equival ente</w>
en ce
ed it
e ds</w>
dur ch</w>
do ct
display ed</w>
di n</w>
de ss
cp u</w>
compil ed</w>
com b
col ors</w>
coer ce</w>
cl a
chis lo</w>
categor ical</w>
can cel</w>
c p</w>
bran ch</w>
assig ns</w>
as k</w>
array 1</w>
ar ily</w>
an in</w>
ad es</w>
a b</w>
- level</w>
フォ ント</w>
スクリ プ
イベ ント</w>
z o
wra ps</w>
windo w
when ever</w>
w are</w>
ub er</w>
u i</w>
transl ate</w>
to ols</w>
to m</w>
t il
t em</w>
t as</w>
sto c
specifi que</w>
some thing</w>
sn mp</w>
sam pl
s an
read -
produ cer</w>
po p</w>
o u
no vyi</w>
no uve
ms g_
match ed</w>
m d
loc ations</w>
link _identifier</w>
lich est
l' identifiant</w>
ko lichest
kar ak
karak ter
job s</w>
je ction</w>
iqu es</w>
input _
indic ated</w>
im en
hexa decimal</w>
her m
giv es</w>
gear man
fourn i</w>
form a</w>
fail s</w>
et c
especific a</w>
er ze
e p</w>
e ,</w>
differenti al</w>
di feren
di ct
denomin ator</w>
debugg ing</w>
dat um</w>
da p</w>
cumul ative</w>
cual qu
co or
clu ster
cli ente</w>
c c
bzip 2</w>
b lob
au dio</w>
ation en</w>
alloc ate</w>
[ 1
3 2
1 6</w>
( :class</w>
最 後</w>
で き
でき る</w>
こ れ</w>
zeich en</w>
y eni</w>
vy zy
visu al</w>
v uiushch
us _
trans ition</w>
th s</w>
tensor flow</w>
targ et
syn ap
swit ch</w>
sign als</w>
sign al
set ter</w>
rele ases</w>
reco gn
pre -
posit ion
pol zov
pat ch</w>
par te</w>
ori es</w>
nouve au</w>
ne are
namespace uri</w>
n p</w>
n ier</w>
my sq
monit or</w>
mil li
mag n
le y
lat est</w>
l' iterateur</w>
l u</w>
l dap</w>
kh ran
ir b</w>
interval s</w>
intern ally</w>
inter no</w>
inform ationen</w>
imag e
ign ore</w>
i h
handl ers</w>
follow ed</w>
estim ates</w>
es is</w>
es cal
ent er</w>
ed -
du iushch
dra wn</w>
di bu
dev ol
determin ed</w>
desi red</w>
der nier</w>
d t</w>
coz um
correct ly</w>
cop ia</w>
con vi
clo ne</w>
ciph er</w>
cap t
cade ia</w>
ca use</w>
buffer -
ben ut
b ar
atribu to</w>
a dic</w>
[ i
: see</w>
/ /
指 す</w>
例 外</w>
ン ダ
マ ット</w>
カ ラム</w>
zapro sa</w>
x 50
ver sion
v ent
ustan ov
upper case</w>
un signed</w>
t es
suiv ant</w>
struct ures</w>
str um
sp ect
set params
setparams (self</w>
server _key</w>
separ ator</w>
scal ing</w>
s =
rf c
resour ce
remo ving</w>
reg ular
reg exp</w>
prim er</w>
pre dst
our s</w>
ord en
opre deli
not ation</w>
normaliz ed</w>
noeu d</w>
n b
mu l</w>
ms g</w>
me shch
mar kup</w>
m t</w>
lo c</w>
interrupt ed</w>
inclu des</w>
in strum
ier arch
identifi k
h ierarch
g id</w>
g ab
fe ch
f o</w>
erze ugt</w>
err no</w>
ere r</w>
er _
display able</w>
desp ues</w>
depend ency
dat en</w>
dat agram</w>
cre d
convert it</w>
con so
chro no
c ag
bound ary</w>
ativ es</w>
at tr
assum ing</w>
as set</w>
as i</w>
ap s</w>
angegeb ene</w>
and er
an sible</w>
addres ses</w>
add ition</w>
acqu ires</w>
ab re</w>
__init__ (self</w>
- free</w>
( e</w>
比 較</w>
拡 張</w>
フォー マット</w>
デフォル ト</w>
サー バ</w>
コ マ
x 2</w>
wa its</w>
verbind ung</w>
v se
u pon</w>
traba jo</w>
tim er</w>
tekushch ii</w>
tam pon</w>
t y-
sur face</w>
st ates</w>
sour ce
sol r
sh a
servic es</w>
server a</w>
sens itive</w>
segm ents</w>
sc ans</w>
sc an</w>
s ending</w>
res ize</w>
ren am
rem ents</w>
quo ted</w>
put s</w>
print ed</w>
posled ne
par ser
par alle
open ssl</w>
n' est</w>
n ite
n an
met a</w>
loc $</w>
lig ht
let ters</w>
kry vaet</w>
isi m</w>
ipv 4</w>
invo kes</w>
indi que</w>
i v</w>
hol der</w>
he s
hand ler
hal t</w>
h ast
h and</w>
gram mar</w>
fin ite</w>
f rees</w>
exce p
escap es</w>
enzy me</w>
ent ro
ent ren
ellip se</w>
eff ace</w>
e ss</w>
e ous</w>
dynam ic</w>
du le</w>
devi ation</w>
defin ie</w>
d r</w>
d ers</w>
cross -
contro l
consist ing</w>
com ing</w>
colle ct</w>
check sum</w>
ch en</w>
call backs</w>
cal cule</w>
c arg
av e
at o
at ed
at e_
associ ation</w>
as h
ar i</w>
app el</w>
$ loc$</w>
特 定</w>
更 新</w>
基 づ
フ レ
ッ ション</w>
キャ ッシュ</w>
~ astropy</w>
z um</w>
y an
v 1</w>
un specified</w>
un o</w>
u er
tri angle</w>
ter o</w>
subsequ ent</w>
str at
stat ut</w>
squ ares</w>
squ are
soder zh
shut down</w>
se cu
sav ing</w>
s is</w>
rech erche</w>
read line</w>
react or
pun tero</w>
pt r</w>
princi p
preferen ce</w>
per son
pas se</w>
oz nite
out er</w>
or _
oper ators</w>
on _
n ing
mini buffer</w>
mem cached</w>
matri z</w>
mag ic</w>
m u</w>
l{ deferred
k ur
iss ue</w>
ir uet</w>
independ ent</w>
imag em
il s</w>
ig h</w>
horizon tal</w>
h ub</w>
fornec ido</w>
f ying</w>
f ur
estable ci
ent sp
enco un
differen ces</w>
deriv ed</w>
cualqu ier</w>
ct or</w>
cro ss</w>
cred enti
cl s</w>
cel ls</w>
capac ity</w>
calcul a</w>
by tes
bo ard</w>
bind ings</w>
bak ar</w>
ba y
b ra
as sign
al ler</w>
ac iones</w>
空 間</w>
持 つ</w>
圧 縮</w>
取 り</w>
レ ベル</w>
マッ チ</w>
フレ ーム</w>
フラ グ</w>
によ っ</w>
で き</w>
だ け</w>
yam l</w>
x x</w>
x **
vypol ni
verific a</w>
ver sions</w>
v nut
updat ing</w>
u zer
tr o</w>
ta k
sy s
squ ared</w>
smo oth
sm alle
smalle st</w>
sk i
sin in</w>
si e</w>
set ()</w>
s itu
roun ding</w>
ro v
rep r</w>
query ()</w>
proper ly</w>
pres er
po mo
pomo shch
plan e</w>
pack ets</w>
orig in</w>
occur s</w>
noti fy</w>
new line</w>
neigh b
neare st</w>
mo ving</w>
meas ure</w>
me chan
mar ker</w>
magn itude</w>
ma king</w>
lu al_
list ing</w>
li r</w>
lamb da</w>
kolichest vo</w>
ko i</w>
klas s</w>
iz er</w>
is o</w>
i sol
i de
hast a</w>
gra d</w>
giv e</w>
g f</w>
g arb
garb age</w>
fur ther</w>
fix es</w>
fil as</w>
fa st
f b
exp licitly</w>
ev en</w>
er -
ent ities</w>
en th
ejec ucion</w>
effect ue</w>
e mail</w>
distin ct</w>
dir ()</w>
decl ared</w>
de stro
de st</w>
co lo
b ir
av o
appe lee</w>
af fin
a )</w>
_ path</w>
= 1</w>
' )</w>
ハンド ラ</w>
チェ ック</w>
サ ポート</w>
インデ ックス</w>
イ ン</w>
に対 応</w>
z ei
we '
tw o-
trans fer</w>
the ano</w>
t ec
system s</w>
sub graph</w>
st ill</w>
sr c</w>
sh allow</w>
sched ul
s au
ri t</w>
res um
recurs ive
recup erer</w>
re load</w>
random ly</w>
r rd</w>
r ase</w>
po se</w>
path }</w>
or ter</w>
or -
min or</w>
mat h</w>
mar k
ma ke
m _
lower case</w>
lin ux</w>
li er</w>
let z
kotory i</w>
k an
ispolzu ia</w>
input col=none</w>
in s</w>
imagem agick</w>
i red</w>
hel d</w>
form ed</w>
fon ction
fo o</w>
fl ushes</w>
fl at</w>
fir st
fer red</w>
end point</w>
en- t
e ren</w>
duplic ate</w>
down load</w>
disc rete</w>
dig it</w>
di st</w>
dep th
de ux</w>
datetime immutable</w>
correspon ds</w>
convi erte</w>
contro ls</w>
construct ()</w>
consist ent</w>
condit ional</w>
compil er</w>
close ()</w>
chan nels</w>
cas o</w>
brea k</w>
bi g</w>
b -
at el
asoci ado</w>
ar ma</w>
an -
ali ases</w>
= true</w>
8 8
2 2</w>
利 用</w>
メ ール
ブ ラ
イン ター
ぶ し</w>
つ ぶし</w>
z ag
vol ume</w>
un known</w>
transform er</w>
tra ver
targ ets</w>
tanitic isi</w>
t k
system e</w>
st im
square -free</w>
sorti e</w>
sort ing</w>
so ft
se sion</w>
se ma
se _
schlus sel
sche dule</w>
sch re
ru by
ro und</w>
res min</w>
res im</w>
re aliz
qu ick
qu anti
pro jection</w>
pro iz
pre obra
po sed</w>
pix el
pip el
perm ite</w>
p rav
obra bot
o uv
o db
nul l
nor m</w>
mit tel
mem cache</w>
lig ini</w>
lic a</w>
ler ini</w>
lect ure</w>
le gen
l ace</w>
kotory e</w>
it ions</w>
ing res</w>
index es</w>
g ore</w>
formul a</w>
flu jo</w>
fit ted</w>
fa it</w>
f s</w>
exp licit</w>
execut e()</w>
exce pcion</w>
ever ything</w>
er mittel
ens at
eni aet</w>
driv er</w>
determin a</w>
defin ing</w>
defa ut</w>
de place</w>
d ()</w>
credenti als</w>
comple t
code _
co inci
close st</w>
char set</w>
brea ks</w>
bit wise</w>
as sign</w>
as h</w>
appe ar</w>
anch o</w>
ance st
al e
activ ation</w>
activ a</w>
accept _
a kh</w>
__ construct()</w>
2 0
1 0
( '
実 装</w>
使 う</w>
ン プ
レ ート</w>
メール ボックス</w>
バイ ナ
バ ック</w>
テ スト</w>
セ ル</w>
ス レ
カ ー
な り</w>
し ます</w>
x p</w>
x 1</w>
vy zov
vo dit</w>
vi sible</w>
ud ali
udali aet</w>
turt le</w>
trig g
tra cing</w>
text ual</w>
t k</w>
t ()</w>
st din</w>
sk ip</w>
simpli fy</w>
simp lex
seq record</w>
se p</w>
sci py</w>
ri ch
result ant</w>
reposit ory</w>
rel len
r h
quad rat
produ cing</w>
prediction col="
prediction ",</w>
pot entially</w>
p adding</w>
nat ural</w>
na ia</w>
n up
model 's</w>
min utes</w>
min imal</w>
mer ges</w>
md 5</w>
mar ked</w>
ma int
list ener</w>
lay out</w>
iso -
insp ect</w>
in stru
ignor ing</w>
he ap</w>
g i
float s</w>
file ()</w>
fan n_
fac et
f ar</w>
expon ent</w>
estim ated</w>
entren amiento</w>
entra in
en ed</w>
ejec uta</w>
e val
e of</w>
distribut ed</w>
dis ables</w>
deco des</w>
da ki</w>
ct ing</w>
cs r</w>
criter ion</w>
con ti
co ver
cast s</w>
boo st</w>
bag lan
back ground</w>
b ic
att ach</w>
am a</w>
altern ative</w>
al -
ac i
ac e
a o</w>
2 5
2 00
適 用</w>
標 準</w>
作 り</w>
ン ド</w>
ロ ーカ
ブ ロック</w>
ソ ル</w>
カー ソル</w>
イ ル</w>
か どう</w>
z ur</w>
y m</w>
w w
vnut ren
ver sh
valu ed</w>
ut h</w>
us ar</w>
un do</w>
um b
ukaz at
u ck
tra ces</w>
to l
th esis</w>
th em
te sian</w>
t we
t t
supp ort
subtra ct</w>
sub process</w>
strat eg
sto i
st ell
sootvetst vuiushch
sol r</w>
sle duiushch
sistem a</w>
sho ws</w>
sav e
s al</w>
ru zh
ro ute</w>
right -
res _
represent acion</w>
represent a</w>
ren ame</w>
remo te
rem p
re st
r i</w>
qual ified</w>
qu ot
prep are
pre vi
poli ce</w>
pan el</w>
ouv re</w>
or te</w>
or g
optimiz ation</w>
on t</w>
ob shch
ny mi</w>
multiplic ation</w>
multi byte</w>
mozh et</w>
men u</w>
memo ire</w>
mapp er</w>
ma c</w>
m id
li k
lay ers</w>
kee p</w>
k ak</w>
itu d</w>
it a</w>
is chen</w>
inser ted</w>
inform atsiiu</w>
ili r</w>
identifi ed</w>
hes sian</w>
he x</w>
h igh</w>
gener e</w>
g s</w>
g el
fourn ie</w>
fil led</w>
fai lo
even ements</w>
etc /
el ap
domain s</w>
dispon ible</w>
dial ect</w>
deskript or</w>
descript ors</w>
degistir ge
defin ida</w>
de mon
d t
d ru
cu al</w>
cre ate()</w>
conj ug
comb ine</w>
cl c</w>
ci kt
categ ories</w>
calcul ated</w>
blan k</w>
be re
auto -
att ente</w>
at ional</w>
analy se</w>
an ything</w>
ali st</w>
al ig
ad van
accept able</w>
ab ier
[ 0</w>
:: get
88 5
2 _
2 8
1 d</w>
/ etc/
( a</w>
操 作</w>
レ ス
ユー ザ</w>
メモ リ</w>
ア ル
ア イテ
た り</w>
yon tem</w>
x s</w>
vrem ia</w>
vert ical</w>
ve lo
vali de</w>
usu ally</w>
un it
uc le</w>
tr e</w>
to s</w>
tab lit
tab elle</w>
t um</w>
su rec
star t_
st ack
speich er</w>
spec s</w>
spar k</w>
sk ips</w>
simpli fi
sh uff
secu encia</w>
saf ely</w>
rypt ed</w>
resol ver</w>
res er
requ etes</w>
ren dering</w>
ra w
ra bot
provi ding</w>
princip al</w>
perform ed</w>
per si
paramet er
p iv
opredeli aet</w>
on -
non- zero</w>
ni i</w>
mu ch</w>
mo des</w>
ma ster</w>
ma k</w>
local name</w>
l' index</w>
kar akt
k ut
is _
inter active</w>
int ro
initializ er</w>
in _
imen em</w>
imag en
ib les</w>
hum an</w>
histo gram</w>
h ac
gm agick</w>
geomet ric</w>
g reg
g a
funkt ion
fro nt
f n
f df</w>
expres sed</w>
equ als</w>
entro py</w>
encoun tered</w>
ec rit</w>
e q
dost up
don t</w>
do ub
do ing</w>
dis connect</w>
depend ent</w>
curren cy</w>
cubri d</w>
ct u
coule urs</w>
comput ing</w>
co ding</w>
cm d</w>
cat ch</w>
c lock</w>
bo ucle</w>
bin ds</w>
bi as</w>
be z
base -
av oid</w>
atrib ut
annot ations</w>
ang les</w>
an zahl</w>
an tes</w>
aktuel le</w>
affich e</w>
ace pt
ac cion</w>
ab fra
:: set
機 能</w>
ハンド ル</w>
セ ッション</w>
コマ ンド</w>
グ ループ</w>
アイテ ム</w>
そ う</w>
yp es</w>
ve red</w>
value error</w>
uy g
user name</w>
uni code
ung en</w>
un un</w>
ti ble</w>
tagg ed</w>
standar diz
ss l
siz ed</w>
sho wing</w>
shap es</w>
sh ar
secur ity
schre ib
s amp</w>
s "</w>
roll back</w>
rol l</w>
ro le</w>
revi sion</w>
ren '
ra bo
r nn</w>
r ation
que u
pret ty-
po is
plug in</w>
pi ec
ph ore</w>
pack ed</w>
or ing</w>
oci _
occ ur</w>
ob tain</w>
not ific
nes ne
name ()</w>
n ach</w>
min ute</w>
max _
l{deferred }</w>
l{ _
long er</w>
log likelihood</w>
log in</w>
li est</w>
karakt er</w>
kar si
k im
k at
jo int</w>
iter ations</w>
iso- 885
is h</w>
io _
inter medi
int ended</w>
instal ls</w>
in coming</w>
im ap
il er
igno red</w>
identifik ator</w>
ident ique</w>
hypo thesis</w>
hol ding</w>
h id
h ace</w>
greg ori
graph ic
g zip</w>
g -
fin der</w>
file _
fil ling</w>
fam ily</w>
exclu ding</w>
ermittel t</w>
er ing</w>
entrain ement</w>
en regist
elem an
ed a</w>
e sp
e scribe</w>
divi sor</w>
distan ces</w>
da ys</w>
com es</w>
clo b</w>
cho ose</w>
charg e</w>
cag ri
bin omial</w>
b r
associ ates</w>
as ing</w>
as _
applic able</w>
ap un
anch or</w>
an aliz
ain si</w>
acces sible</w>
a ware</w>
ペ ア</w>
フォ ーム</w>
フ ェ
クラ イア
エン コー
zad aet</w>
wid gets</w>
vi g
ve loc
v m</w>
ukazat el</w>
to go</w>
ti g
ti dy</w>
tempor arily</w>
t si
t m</w>
t ell</w>
stri p</w>
sto pped</w>
st ab
ss y
se es</w>
sc ast
scast exception</w>
restri cted</w>
requi rements</w>
requi rement</w>
ren' py</w>
red shift</w>
recur sos</w>
read ()</w>
reach ed</w>
re aliza</w>
quo tes</w>
pun ctu
punctu ation</w>
produ ced</w>
probab ly</w>
prio r</w>
premi er</w>
preferen ces</w>
pr s</w>
partit ions</w>
paren ts</w>
obj et
ob server</w>
o wn</w>
o auth</w>
normaliz e</w>
no st
n it
mu eve</w>
modu le
min i</w>
metat ab
mem ory
mechan ism</w>
main loop</w>
m peg</w>
log istic</w>
log _
lo op
lo kal
lie β
leg acy</w>
l y
k ap
ja co
infin ity</w>
in- place</w>
imagick pixel</w>
imagen es</w>
i let
i con</w>
hum an-
htt p
h du
graph ics</w>
gener ic
gener ating</w>
for war
file -
f get
event _
esc rit
enco des</w>
en velo
en er
en do
effici ently</w>
e ag
dispon ibles</w>
di c
determin ant</w>
demon str
defaul t
conso le</w>
condit ions</w>
compar ing</w>
comp lement</w>
cli ents</w>
clas scastexception</w>
cl i</w>
chang ing</w>
ch o</w>
cas es</w>
call back
c m</w>
bytes }</w>
boo k</w>
begin s</w>
bas es</w>
b _
asoci ada</w>
array object</w>
arch iv
an on
an de</w>
algeb ra
add _
ac cur
a sed</w>
_ operand</w>
> =</w>
= =
: attr</w>
- port</w>
挿 入</w>
必 要</w>
基づ い</w>
リ ー</w>
ディ ング</w>
さ い</w>
ze ig
yap ar</w>
writ e
win 32
wh ole</w>
wer te</w>
vyzov a</w>
uz un
un ic
ukazan nogo</w>
ub er
u esta</w>
trunc ated</w>
tra verse</w>
time ()</w>
termin ates</w>
tanim li</w>
ta che</w>
t ifi
sun uc
success ful</w>
stor ing</w>
st ops</w>
ss h</w>
sp iso
spiso k</w>
sp an</w>
son u
sol ution</w>
sm all</w>
sk y</w>
sing ular</w>
sho t</w>
serializ es</w>
scal ed</w>
s y</w>
s end_
roun ded</w>
rot ate</w>
rezult ata</w>
re q</w>
ra c
pro c</w>
pos es</w>
plot lib</w>
pic kl
pet icion</w>
pd f
over l
op ciones</w>
n l
mc rypt</w>
max imal</w>
mat plotlib</w>
loo k
lo st</w>
lo n</w>
lib mcrypt</w>
larg est</w>
lar i</w>
l' entree</w>
interrup t</w>
index er</w>
in ary</w>
imag inary</w>
ier ten</w>
ic indeki</w>
ic es</w>
head er
gm t</w>
gm p</w>
gest or</w>
g ran
g le
g ir
ft p-
from _
fo ur</w>
filter ing</w>
file ids</w>
fech a</w>
fal ls</w>
excep to</w>
estable cer</w>
espac io</w>
es ()</w>
enumer ation</w>
delimit er</w>
de ber
dat ensat
d ue</w>
d st</w>
coun ter</w>
correspond ant</w>
correspon d</w>
config ured</w>
con stit
comp r
comm it
codific acion</w>
co -
clo sing</w>
check point
char s</w>
c i</w>
by t</w>
bus ca</w>
buil t</w>
bro w
bin ar
back ward</w>
auf ru
ari a</w>
approxim ate</w>
appe le</w>
algebra ic</w>
ad just</w>
activ ate</w>
0 )</w>
長 さ</w>
返 さ</w>
読み 込
端 末</w>
格 納</w>
共 有</w>
レ メント</w>
リン グ</w>
プロ グ
フィ ル
ピ ク
スレ ッド</w>
ス ク</w>
エ レメント</w>
あ り</w>
x sl
we' re</w>
vse kh</w>
vo go</w>
verbo se</w>
ver y</w>
veloc ity</w>
v ent</w>
user data</w>
us cul
un ter</w>
transl ates</w>
trans f
to ol
thro w</w>
table _name</w>
ta re
t z
synap ses</w>
sym metric</w>
sub sequence</w>
su ite</w>
stoi an
st der
stder r</w>
so m</w>
so licit
sm aller</w>
sing let
sin us</w>
simil arity</w>
simil aire</w>
select or</w>
secon d
schlus sel</w>
s ushch
s [
ro van
ret ry</w>
res sources</w>
res h</w>
requi res</w>
re zh
py 's</w>
prop ort
proce du
procedu res</w>
pro ject</w>
print er</w>
previ amente</w>
permut ations</w>
perm et</w>
perio dic</w>
p or
p em</w>
ow ner</w>
org an
oper acion</w>
on e
omi c</w>
observ ation</w>
ob o
no w</w>
no tes</w>
nan o
n ung</w>
mig ration</w>
maxim o</w>
m no
l{ bytes}</w>
li _
l'e space</w>
l' execution</w>
l ug
konverti ert</w>
jo ur</w>
item __</w>
ip _
in vent
igno res</w>
i iu</w>
i ed</w>
herm ite</w>
h il
graph ic</w>
go ing</w>
filenam es</w>
f en</w>
et ype</w>
error _
ergebn is
er ro
enth alt</w>
ent ry
enco de
dosy ay
don de</w>
display ing</w>
deger ini</w>
de man
de but</w>
dat at
d ass</w>
c{ self</w>
constra in
conjug ate</w>
colle cted</w>
coll ap
code c</w>
cl aves</w>
chan ge
ch em</w>
cancel led</w>
camb ia</w>
call er</w>
c -
bloc ked</w>
bi ra
at omic</w>
asyn chrono
app ing</w>
almacen amiento</w>
almac ena</w>
al t
access or</w>
acces sed</w>
a x</w>
< =
:: __construct()</w>
( )
開 放</w>
正 規</w>
既 存</w>
戻 し</w>
小 数</w>
ロ ード</w>
ロ グ</w>
リ モ
ハ ッシュ</w>
ト ラ
け れ</w>
z en</w>
wra p
wh ite</w>
w ave
vyzy v
visit or</w>
ver ro
ut ions</w>
us able</w>
uni form</w>
un ter
un pack</w>
un ivariate</w>
um unu</w>
to o</w>
ti p</w>
ti p
tar info</w>
t cp</w>
t ant</w>
t an</w>
su perio
sty le
string -
stat ion
st ers</w>
st ap
so obshch
siz es</w>
simvo ly</w>
simplex ml
short cut</w>
sec ut
sch lieβ
satis fi
s vi
s que</w>
ri pt</w>
restri ctions</w>
resp uesta</w>
rep ort
registr e</w>
redu ced</w>
read- only</w>
re v</w>
re ge
re cent
quo te</w>
qu ot</w>
pu stim
prep ared</w>
pomoshch iu</w>
po to
place holder</w>
ph rase</w>
perman ence</w>
partit ion
pag in
pack ages</w>
ou ver
ot prav
or der
open gl</w>
off sets</w>
off net</w>
obt en
observ ed</w>
n ive
modifi es</w>
mis mo</w>
mi c</w>
met am
marsh al</w>
marg inal</w>
man ip
m ight</w>
m -
loc ated</w>
listen ing</w>
le af</w>
kullan arak</w>
j peg</w>
it es</w>
iso-885 9
incre ment
il es</w>
ig ual</w>
identifi ers</w>
great est</w>
go al</w>
gener alized</w>
g y</w>
fra ction
for ces</w>
fo c
fl ag
features col="
featurescol=" features
featurescol="features ",</w>
fact orization</w>
es ini</w>
envelo pe</w>
entsp rech
ent fer
encod age</w>
en able
ec to</w>
ec rit
dosy anin</w>
do pustim
diz i
describ es</w>
dele te
cy cle</w>
corre ction</w>
con secut
con c
compar ator</w>
comm ande</w>
colum na</w>
cluster ing</w>
cir cul
ch t
car tesian</w>
cal is
bra ck
bet a</w>
behav es</w>
auth or
att er</w>
assum ed</w>
assign ment</w>
asc ending</w>
argument os</w>
algeb ra</w>
aff ect
add r
actu almente</w>
accept ed</w>
_ type</w>
_ file</w>
= 1
: markup</w>
- table</w>
- 1
期 化</w>
書 式</w>
方 向</w>
当 て</w>
取り 除
一 つ</w>
リ ア
ポイン ト</w>
ファイル ポインタ</w>
ビ ット</w>
スクリプ ト</w>
yaz _
vy z
vo cab
v in
updat er</w>
up s</w>
un documented</w>
uel lement</w>
tru e
tra v
to uch</w>
to p-
ti c</w>
termin e</w>
tar a
summar ize</w>
stru kt
stream _
str an
stoc ke</w>
stat e
st op
st em
ss es</w>
sp r
so khran
sli ces</w>
sl uch
singlet on</w>
sing le-
si d</w>
sen det</w>
sema phore</w>
se xception</w>
se k
sc roll
satis fy</w>
s vo
s ar
represent e</w>
ren d</w>
remain ing</w>
rege x</w>
re xp</w>
re write</w>
rang es</w>
qu es</w>
python 's</w>
prot ected</w>
proces sed</w>
pro z
predictioncol=" prediction",</w>
plo ts</w>
piv ot</w>
paragra ph</w>
p lay</w>
p ing</w>
or no</w>
on der
observ ations</w>
obj ets</w>
not ifi
niv el</w>
my sql
mit ted</w>
milli seconds</w>
meshch aet</w>
mer g
mat ic
manip ul
man ej
ma dig
l{ file
lor sque</w>
log s</w>
list ed</w>
letz ten</w>
l y-
l ass</w>
ko d</w>
kl er
key value</w>
kap at
k or
jav asc
is n't</w>
is ation</w>
invent ory</w>
inter action</w>
inic ia</w>
ing res_
in n
imp lies</w>
imp licitly</w>
im o
im en</w>
il g
ilg ili</w>
id as</w>
id 3</w>
i ki</w>
i ami</w>
handler ()</w>
go ster
fore ign
finger print</w>
file _name</w>
feh ler
fac et</w>
f ue</w>
expan ded</w>
ener gy</w>
en o</w>
embed ded</w>
em er
divi de</w>
dire ccion</w>
di agram</w>
de _
copi e</w>
contex te</w>
constrain ed</w>
compo se</w>
colle ction
col= none)</w>
clo sure</w>
cent ral</w>
cal ly</w>
cal ist
bu fer</w>
blo que
be come</w>
b order</w>
b alan
av ant</w>
aut re</w>
asser ts</w>
ar se</w>
anim ation</w>
alphab etic</w>
allo c</w>
_ string</w>
<= =></w>
( x</w>
( ve
計 算</w>
組 み
発 生</w>
浮 動</w>
塗 り</w>
同 様</w>
加 え</w>
割 り</w>
全 体</w>
使 わ</w>
ール バック</w>
レ ス</w>
ライ ブラ
ライブラ リ</w>
ョ ン
フィル タ</w>
デ バッ
タイ ム
キュ ー</w>
オー ディ
な けれ</w>
あ れ</w>
zer o
zei le</w>
zap i
z on
z en
y 2</w>
ver te
verte x</w>
val ido</w>
va il</w>
utilis ation</w>
ut sia</w>
user 's</w>
u uid</w>
trigg er</w>
traba j
tra vail</w>
tic ks</w>
t x
sy non
sok et</w>
so v</w>
siz e
se man
se cre
sau v
s ans</w>
ro ot
registr o</w>
referen ce
rect angular</w>
re lev
re la
radi x</w>
rabot aet</w>
ra r</w>
r ut
qu el</w>
pur poses</w>
pt ions</w>
propied ad</w>
prece dem
precedem ment</w>
pipel ine</w>
perform ing</w>
per -
paralle l</w>
pal ab
p do
ol d
numer ator</w>
numb er
ni cht</w>
na stro
mysq li_
modifi er</w>
mo us</w>
micro seconds</w>
mem e</w>
mean ing</w>
matri x
m eniaet</w>
lo v</w>
lef t-
l stm</w>
kno wn
k iv
k _
juli an</w>
iz es</w>
interpret ed</w>
integ ration</w>
in halt</w>
in e
il k</w>
id 3
ic eren</w>
ic as</w>
ho mo
hid den</w>
hal f</w>
h int</w>
h a
guar da</w>
gl yp
giv ing</w>
g onder
g d
function ality</w>
fe ed</w>
fal l
f ri
ext end</w>
expres ion</w>
except ion
establish ed</w>
ent al</w>
eno ugh</w>
end ()</w>
en de</w>
embed ding</w>
elem wise</w>
ed }</w>
e q</w>
e mo
dur ation</w>
dess ine</w>
degis ken
defin itions</w>
deco ding</w>
de struct
d' evenement</w>
d ing
cur seur</w>
coun ting</w>
correspon di
constru ye</w>
consecut ive</w>
comm ut
combin ation</w>
clu sters</w>
chis lo
char t</w>
ch er</w>
c gi</w>
b in</w>
b estim
at if</w>
assum es</w>
as hch
app el
analy zer</w>
an y
alphab et</w>
algorith me</w>
algorit mo</w>
act ion
accumul ator</w>
a ires</w>
= '
3 9
2- d</w>
1 .
0 1</w>
- based</w>
( "
記 録</w>
解 析</w>
演 算</w>
命 令</w>
フォル ダ</w>
ファイル オブジェクト</w>
ピク セル</w>
ト レ
デ バイ
ッ プ</w>
ッ チ</w>
クライア ント</w>
エンコー ディング</w>
アド レス</w>
か っ</w>
zadan nogo</w>
za kryvaet</w>
y uk
y mous</w>
y kh</w>
xsl t
w _
vypolni aet</w>
ver zeich
ut c
utc datetime</w>
us o</w>
us -
un used</w>
un compressed</w>
tre e
transp aren
tran si
tra ck</w>
tra ck
thro wn</w>
the re
termin ation</w>
tara find
tarafind an</w>
tar /
t_ operand</w>
t ty</w>
t stra
svi az
superio r</w>
sto ck
sql_ fetch_
soedin eniia</w>
smooth ing</w>
sever ity</w>
secre t</w>
se is
schlieβ t</w>
sc h</w>
sauv eg
sauveg ar
sampl ing</w>
s' il</w>
s l</w>
ri cht</w>
retor no</w>
re start</w>
re ject</w>
r r
r al
predst avlen
pr in
pozit siiu</w>
posi x</w>
pixel es</w>
ph emer
pd b</w>
paren t
overl apping</w>
output col=none)</w>
out side</w>
ordin ary</w>
ordin al</w>
ol madig
objet os</w>
norm ally</w>
non- empty</w>
nesne si</w>
name '</w>
multi index</w>
ms g
monit oring</w>
modul us</w>
mi se</w>
long itud</w>
lem e</w>
lef t_operand</w>
le av
laz a</w>
label ",</w>
la un
kno w</w>
kho zh
iskliuch eniem</w>
int ext</w>
inic i
in line</w>
imap _
ili sk
id x</w>
ic er
ic _
i k
human- readable</w>
ho ur</w>
ho o
he ur
hand led</w>
h at
h abil
gest ure</w>
function al</w>
fuh rt</w>
flatt ened</w>
f ugt</w>
f est</w>
f d
execut or</w>
ex change</w>
est s</w>
escal a</w>
es k
erro res</w>
er os</w>
en semble</w>
en lace</w>
elap sed</w>
e phemer
e mon</w>
e le
e ks</w>
do t
dig it
dibu ja</w>
desc ent</w>
deci sion</w>
dec im
de d
da emon</w>
ct ypes</w>
cook ies</w>
compil es</w>
cir cle</w>
chun ks</w>
cent ered</w>
can al</w>
calcul ation</w>
bus qu
buil t
buil ding</w>
bu fer
be en
b ,</w>
attach es</w>
ato ms</w>
array ()</w>
anal og
an te
allow ing</w>
al ert</w>
ain ing</w>
aggreg ation</w>
a way</w>
a se
_ handle</w>
4 .
28 22</w>
通 知</w>
論 理</w>
等 価</w>
場 所</w>
動 作</w>
制 御</w>
ージ オブジェクト</w>
パ ース</w>
ト リ
デ コード</w>
シ ン
ひ と
z y</w>
z lib</w>
z [x]</w>
y vaet</w>
wrap per
win32 o
win32o le_
vocab ul
vocabul ary</w>
vi sib
vi de
veri len</w>
uzer inde</w>
us qu'
us ers</w>
u u
twe ets</w>
tup le
tro u
train ed</w>
tr uth</w>
to ma</w>
th un
tar/ zip</w>
ta ken</w>
sv m</w>
ste ps</w>
statist ic</w>
stap el
stapel speicher</w>
stan te</w>
st avliaet</w>
sql sr
sparse tensor</w>
sonu c</w>
soedin enie</w>
soderzhashch ii</w>
sock ets</w>
simp ly</w>
sign ific
sh i
select able</w>
seg un</w>
se c</w>
scal es</w>
s m</w>
ro n</w>
ri cal</w>
repe ated
repeated ly</w>
rep ly</w>
rela x
regist ri
reas on</w>
re direct
re constit
que ues</w>
pub li
premi ere</w>
post script</w>
pol ar</w>
pk cs
pi pe</w>
pg_ send_
pe er</w>
partic le</w>
par ado
parado x</w>
p u</w>
p en</w>
out of
oshib ki</w>
op cion</w>
ol up</w>
notific ations</w>
normaliz ation</w>
nb sp</w>
nach al
n in</w>
mut ex</w>
mult in
mot if</w>
meas ured</w>
m ed</w>
low est</w>
low -level</w>
loo king</w>
logg ed</w>
lo sch
li ch</w>
lest irir</w>
lat ex</w>
label col="
labelcol=" label",</w>
l' encodage</w>
kapat ir</w>
kan n</w>
javasc ript</w>
jaco bi
j usqu'
j u
j son
iz ing</w>
iter ating</w>
it el
is mini</w>
invo ke</w>
intermedi ate</w>
ing point</w>
inf er
high est</w>
head ing</w>
h or
h in
gro β
gram s</w>
g ap</w>
float ingpoint</w>
facet .
f ()</w>
extra it</w>
expon ential</w>
experim ent</w>
exp ort
ex clus
ex am
et k
especific o</w>
erre urs</w>
ergebn is</w>
ere xception</w>
equ al
entra das</w>
ent ion</w>
en registre</w>
emp le
em its</w>
e int
e der</w>
do ts</w>
dizge sinin</w>
discar ds</w>
devol ver
det ect</w>
des active</w>
deman de</w>
dele tion</w>
de y
de an</w>
db api</w>
datat ype</w>
d' entrainement</w>
d re</w>
custo m
criter ia</w>
contr ario</w>
contin ue</w>
consul tas</w>
concaten ate</w>
con tient</w>
con ect
comm unic
colon nes</w>
colon ne</w>
client ::
cikt i</w>
carg a</w>
caract ere</w>
cam era</w>
c dr</w>
buck et</w>
buck et
broad cast</w>
boo tstra
biblio tec
bi en</w>
bb code_
associ atif</w>
associ ate</w>
arg z</w>
analog ich
anaht ar
an om
an ces</w>
ai utsia</w>
ag e
ag ain</w>
affin ity</w>
abstra ct
\ l
6 4-
6 4
20 4
0 ]</w>
- style</w>
- specific</w>
+ +</w>
* )</w>
( see</w>
( inplace</w>
解 放</w>
点 数</w>
時 刻</w>
探 し</w>
先 頭</w>
ワ ード</w>
ホ スト</w>
パー サ</w>
ディ スク</w>
ティ ブ</w>
タ ート
ステ ート
スタ ック</w>
ケ ール</w>
エラー メッセージ</w>
ら れる</w>
ひと つ</w>
し く</w>
~ obspy</w>
z f</w>
z end</w>
y af</w>
with _
wi e</w>
w rt</w>
w il
w end
wend ung</w>
w ave</w>
vyzyv aetsia</w>
vypoln eniia</w>
vo us</w>
vo e</w>
v io
un register</w>
un ico</w>
u ally</w>
tri p
transf ers</w>
trans accion</w>
tr ying</w>
th ings</w>
tempor al</w>
tare a</w>
sys log</w>
sy m</w>
surec in</w>
super class</w>
su re
su cht</w>
stell t</w>
st en</w>
ss l_
splfile info
son uc
soderzh imo
sc rib
sat ur
sa c</w>
s lob</w>
s ag
row ()</w>
retour ner</w>
remo ve
refle ct</w>
ref ers</w>
redu ction</w>
read _
re v
re emp
ras shi
r sa</w>
qu it</w>
profil ing</w>
pro stran
prev ent</w>
preferen ce
predi ct
pool ing</w>
point erexception</w>
pi k
ph ar
per o</w>
per bo
paragra ph
pa d</w>
p ush
p ages</w>
p acks</w>
ot ur
obrabot chi
obje kt</w>
o _
numer ically</w>
num ar
num _
null pointerexception</w>
nive au</w>
name spaces</w>
my sql_
mutable biginteger</w>
multin omial</w>
modifi c
m im
l{i reactor
l{ twisted</w>
loc ks</w>
load ()</w>
lo zh
li be
legen dre</w>
lear n</w>
larg er</w>
la p</w>
l' option</w>
l' archive</w>
ko ordin
key map</w>
k ach
j ang
is ms</w>
interpol ation</w>
insp ect
ino de</w>
indic ator</w>
in variant</w>
in clus
ident ifying</w>
i eur</w>
i dos</w>
i ce</w>
hac ia</w>
h n
get ting</w>
gener ation</w>
gen ce</w>
gear man</w>
g d</w>
free dom</w>
fragm ents</w>
fich eros</w>
fann_ get_
fal se
f y
exp orts</w>
exp ired</w>
exp ect
ex its</w>
ex ec</w>
eu cli
eucli dean</w>
escrit ura</w>
escap ed</w>
er n
ent ra</w>
ent ero</w>
en v
en ame</w>
e as
dur ante</w>
divi des</w>
distan t</w>
dire kt
desc end
dele g
de v</w>
de mar
de compres
datetime index</w>
d' attente</w>
d ados</w>
cozum ley
comp ri
comp ort
command -
comm its</w>
col s</w>
co do
chun k
ch it
car ds</w>
cap a</w>
c ert</w>
c c</w>
busqu eda</w>
bot tom</w>
bez ier</w>
back wards</w>
avo ir</w>
aus gab
au g
ation _
at ivo</w>
associ ee</w>
arith met
archiv os</w>
ar r
ar ly</w>
analy sis</w>
an ter
am big
ain ed</w>
adj ac
ac ar</w>
a em
__ get
_ get
[i ]</w>
9 9
8 -
25 6</w>
2 )</w>
.. .</w>
選 択</w>
対 象</w>
宣 言</w>
大 き
受 け
保 持</w>
レス ポ
パラメ タ</w>
バイナ リ</w>
バイ ト
チャ ネル</w>
ソ ート</w>
シ グ
コン パ
キ ー
カ レ
アク セス</w>
い れ</w>
zur uck
zu et</w>
znach eni
za versh
z _
yon tem
yiel ding</w>
wur den</w>
work ers</w>
we b
vo i</w>
ver wen
valid ity</w>
uz ere</w>
ut il</w>
user- defined</w>
ur ls</w>
tx t</w>
tri angular</w>
tra z
to ol</w>
th ir
tanim lar</w>
ta int
t ure</w>
t sv
syn c</w>
sw aps</w>
sushch est
success fully</w>
substit ution</w>
strateg y</w>
st ret
st ation</w>
st ag
ss age</w>
sqlsr v_
sql state</w>
spat i
spar k
sol o</w>
so stoian
si z</w>
si k
sho wn</w>
servic io</w>
ser ve</w>
sequ ence
sd k</w>
scri pts</w>
say isini</w>
s rav
s low
s 2</w>
run ()</w>
ruby gems</w>
rol ls</w>
rit e</w>
res p</w>
represent ations</w>
ren dered</w>
relev ant</w>
rel ations</w>
referen cia</w>
ref er</w>
redu ces</w>
recent ly</w>
ran ge
radi an
rabo ty</w>
query result</w>
quant um</w>
pu ff
prostran st
propag ation</w>
produ ctions</w>
prob lem</w>
pro ver
pro ject
preobra zuet</w>
pre determin
pos le</w>
plat form
pla intext</w>
percent age</w>
paramet ra</w>
pal ette</w>
pa use</w>
p en
p ed</w>
over lap</w>
outof bound
outofbound sexception</w>
out _
ord ers</w>
on ly
o go
o auth
nec es
nach in
na vig
n arg</w>
mult i</w>
morph ism</w>
me k</w>
m k
lu k</w>
local ly</w>
lo ws</w>
llam ado</w>
link plain</w>
lig i</w>
lex ical</w>
lev el
let tres</w>
ler in</w>
le ave</w>
l' attribut</w>
kon um
kach est
join s</w>
izobrazh enie</w>
ispolzu etsia</w>
intro du
instru ction</w>
ing ()</w>
indic a</w>
index outofboundsexception</w>
ind entation</w>
in vol
in sensitive</w>
in es</w>
in cl
ide al</w>
i co
i base_
htt pre
ho me</w>
h it</w>
h er</w>
graph s</w>
gran de</w>
get text</w>
g pu
g lob</w>
g h
g c</w>
fol lows</w>
fi re</w>
featu re
et iqu
establish es</w>
est and
er ten</w>
en-t etes</w>
en cu
em at
ed model</w>
ecrit ure</w>
e dit</w>
e di
dugum un</w>
dom document</w>
dimens ion
diction aries</w>
di ver
di rir</w>
di d</w>
devolver a</w>
descript or
demonstr ation</w>
defin ir</w>
defin ido</w>
decre ment</w>
deber ia</w>
de -
dat ag
datag ram
d' evenements</w>
d jang
d an</w>
crit ical</w>
correspondi ente</w>
contr ast</w>
configur acion</w>
concaten ates</w>
con ex
con cent
complet ely</w>
colo res</w>
colle ctions</w>
coll ation</w>
ci as</w>
cho ice</w>
ch ast
cast ing</w>
cap it
canv as
brow ser</w>
biblio the
ben ch
begin _
be s
batch es</w>
back ends</w>
authentic ated</w>
au gm
asoci ados</w>
arithmet ic</w>
apun t
app lique</w>
ap sul
ancest or</w>
analy seur</w>
alloc ates</w>
al ir</w>
ak im
aggreg ate</w>
act s</w>
acce so</w>
ac ces</w>
a di
.. .
高 さ</w>
連 想</w>
認 証</w>
文 書</w>
問 い
問い 合
受け 取り</w>
ン プ</w>
ロー バ
ロ グ
レク ション</w>
フ セット</w>
パ ス
デバイ ス</w>
ズ ム</w>
ゴ リ
ケ ー
グ ローバ
オ フセット</w>
アク ティブ</w>
ア ン
の み</w>
づ け</w>
そ れ
お い</w>
zeig er</w>
zadan nomu</w>
yaz ar</w>
x50 9</w>
w an
vy vo
vio l
vin cul
vi spy</w>
vect or
val s</w>
ut f</w>
transp ose</w>
to ns</w>
to gg
time delta</w>
tim ed</w>
thir d</w>
tanitic is
tab ela</w>
t- in</w>
t ls
syn set</w>
sy vaet</w>
stan t</w>
st itu
simvo lov</w>
simplifi ed</w>
sik ist
si ral
set /
sess ions</w>
seri al</w>
sens es</w>
sen o</w>
self '</w>
scre ens</w>
schedul ed</w>
sav e_
sauvegar de</w>
s ive</w>
run n
ri er</w>
rezult ate</w>
rezult at</w>
result ante</w>
restri ction</w>
respon ses</w>
resol ves</w>
replac e()</w>
regres sor</w>
reconstit ute</w>
rasshi ren
ra y</w>
quadrat ic</w>
pur pose</w>
proz ess
prim era</w>
pre t</w>
pr e</w>
polzov ate
pois son</w>
pickl ing</w>
phy lo
ph p
pere meshchaet</w>
pdf lib</w>
p se
p list</w>
orden adas</w>
oper ator
oper ands</w>
ol d_
node list</w>
ni ce</w>
neighb ors</w>
n n
n is</w>
n en</w>
mon ot
mo tion</w>
mit t
mig r
messag e
memb er
map per
m var</w>
m sql</w>
m el
lin ked</w>
lic o</w>
leng th
len mis</w>
le ft
le er</w>
lan mis</w>
l' instance</w>
l' extension</w>
l l</w>
kullan ici</w>
kotor aia</w>
kliuch aet</w>
kho d
kay n
k aet</w>
jusqu' a</w>
jacobi an</w>
j ust
j un
j _
iter at
issu es</w>
interpret er</w>
integ rate</w>
ing /
incre ments</w>
in et
im prime</w>
i pt
har u
hand le
guar ante
go od</w>
gh c</w>
gener a</w>
gen eous</w>
gel er
g ame</w>
fram e
fore st</w>
flatt en</w>
fl ush
fil tered</w>
exp ects</w>
exist ente</w>
ex i
evalu ating</w>
es qu
error ()</w>
equival ence</w>
enzy mes</w>
ent ier</w>
enc apsul
emit ted</w>
element y</w>
element wise</w>
elem ente</w>
ed ge
disc ret
deno ted</w>
demar re</w>
deco der</w>
de x</w>
de serialized</w>
de ren</w>
de ep
dataf ram
dat e_
dan naia</w>
cubrid_ lob
conex iones</w>
concaten ation</w>
con fli
combin es</w>
cion a</w>
cho le
che by
ch am
cab ec
ca se-
ca iro
c ks</w>
c '
buil t-in</w>
bu z
bu det</w>
bootstra p</w>
blob /
blo c</w>
bibliotec a</w>
b and
aut res</w>
assum ptions</w>
associ ees</w>
associ ations</w>
as semble</w>
ar c
appropri ately</w>
anon ymous</w>
anom al
an umer
ambig u
alph anumer
aliz e</w>
al ter</w>
acept able</w>
accept_ list_
abier to</w>
a g</w>
_ set</w>
[ ,</w>
- to-
- local</w>
( [
' self'</w>
開 き</w>
見 つ
符 号</w>
用 い</w>
無 効</w>
準 備</w>
座 標</w>
含 ま
停 止</w>
任 意</w>
ー ド
ー ク</w>
ン ザ
ンザ クション</w>
ラ ージオブジェクト</w>
ミ ット</w>
ボ リ
パ ック</w>
トラ ンザクション</w>
データベ ース
タート ル</w>
スト レ
システ ム
シグ ナ
コンパ イル</w>
コ ールバック</w>
オーディ オ
わ り</w>
な く</w>
} )</w>
zad ach
z es</w>
yaf_ rout
y u
y ar
x_ {
x50 9
x xx</w>
ww w</w>
writ e()</w>
wa p</w>
w t-
w b
vy chis
vo ir</w>
vie ws</w>
ver wendung</w>
un iv
ul t</w>
ukazan nyi</w>
uc le
u ret
tw o
tru e}</w>
top- level</w>
top level</w>
token izer</w>
to po
to do</w>
tim e-
throw able</w>
the o
th us</w>
target path</w>
t z</w>
t u
t name</w>
t [
svo ist
sv g</w>
struct ured</w>
stri ct
ste p
statist iques</w>
ss h
squ '
sq rt</w>
sootvetst vi
sokhran i
soft max</w>
soderzhimo e</w>
so ft</w>
so _
ski pped</w>
sin if</w>
simul tan
simplexml iterator</w>
si ler</w>
she v</w>
seu le</w>
ser t</w>
secur e</w>
se en</w>
se ct</w>
scre en
sc roll</w>
sav edmodel</w>
sat ir
s wap</w>
s ation</w>
ry ption</w>
right _operand</w>
rewin d()</w>
respect ively</w>
resid ue</w>
remp li
rempli ssage</w>
reg ex
reg ard
regard less</w>
re direct</w>
ra do</w>
qu ality</w>
prot ect</w>
propri ete</w>
proper ty
priv i
pp er</w>
paramet ro
p w
p ush</w>
p ap
os no
orig in
ori entation</w>
or ti
odb c</w>
obtain s</w>
nup ic</w>
norm al
nom me</w>
no -
ne ver</w>
nastro iki</w>
nano seconds</w>
name }</w>
n ucle
mole cul
mitt els</w>
min imiz
medi an</w>
maxim ale</w>
max iter
m ss
m ing</w>
m b
lor squ'
lo t</w>
li en</w>
le aves</w>
larg eur</w>
l' et
l 1</w>
kodi rov
key ed</w>
key ()</w>
karsi last
kachest ve</w>
k it</w>
k et
iz men
invo cation</w>
inter activ
integ r
instrum ent</w>
instance 's</w>
ino ti
inic io</w>
imag es/
images/ anim
images/anim _
im es</w>
il leg
il l
icer ig
ic iones</w>
i _
ho te</w>
hierarch ical</w>
hash ing</w>
hash code</w>
h ata</w>
gu ess</w>
go es</w>
gen s</w>
ga ther</w>
front base</w>
fre q
four ier</w>
for k</w>
fonction ne</w>
finish es</w>
file des</w>
field 's</w>
featu re_
f open()</w>
extra cted</w>
exp ands</w>
event os</w>
et ree</w>
establi sh</w>
est a
es _
es )</w>
enumer ator</w>
encu entra</w>
enc rypt</w>
em pl
eag er</w>
dt d</w>
dokum ent</w>
doct ests</w>
do _
dizge yi</w>
disp o
direkt ori
diferen cia</w>
deno ting</w>
de lay
d lin
d 's</w>
cover age</w>
coun try</w>
copy ing</w>
cook i
conti gu
content -
consum er</w>
consi dered</w>
connect ing</w>
condition -type</w>
con fir
combin ing</w>
colum n_
colle ctor</w>
codific a</w>
co ordenadas</w>
cl au
chole sky</w>
cho o
chis la</w>
chi ff
cheby shev</w>
ch elle</w>
ch al
cas cade
cam bi
cach es</w>
by _
brea k
bo y
blob/ clob</w>
bira et</w>
bin aire</w>
bel ge
b is</w>
atribut os</w>
asynchrono us</w>
asso tsi
ar qu
appe ar
an a</w>
am pl
aliz ation</w>
ain s</w>
affich age</w>
adjust s</w>
ad min</w>
actu aliz
activ ity</w>
__ ()</w>
\ math
< =</w>
6 .
5 -
2 0</w>
( or</w>
( \
開 か</w>
試 み</w>
組み 込み</w>
曜 日</w>
新 た</w>
完 全</w>
含ま れる</w>
切 り</w>
以 前</w>
二 つ</w>
ン グ
リモ ート
ファ ク
ダ イ
ゴリ ズム</w>
ク ッ
ガ ー</w>
インター フェ
アル ゴリズム</w>
によ る</w>
zh e</w>
zer o-
zapro s</w>
zag ruzh
y ]</w>
y 1</w>
xml- rpc</w>
x a</w>
x )</w>
ws gi</w>
ws dl</w>
we ak
w dd
wdd x</w>
ver it
uz la</w>
uz el</w>
un changed</w>
un ary</w>
ubergeb ene</w>
u cu
tz info</w>
typ ically</w>
ty p</w>
tr i</w>
ti r</w>
thun k</w>
th eta</w>
ter mes</w>
ter m
tagg er</w>
t or
t f
t amp
tamp on
synon ym</w>
supp res
succe eds</w>
style she
strict ly</w>
stri ct</w>
stream s</w>
st ing</w>
ssy l
splfile info</w>
soz dan
sonuc u</w>
so port
slow ness</w>
sin d</w>
sig ning</w>
si do</w>
sh ut</w>
sen sible</w>
select ()</w>
seed link</w>
security exception</w>
search ing</w>
sar prop</w>
s 1</w>
s ,</w>
s *</w>
rewin ds</w>
res ur
repe at</w>
ren g
rem place</w>
re construct</w>
raz mer</w>
qu ar
prot sess
propied ades</w>
produ ction</w>
process _
prepare ()</w>
popul ate</w>
poluch en
persist ente</w>
perform ance</w>
peremen noi</w>
pag er</w>
p si</w>
output _
out -of-
otprav liaet</w>
ord ena</w>
opredelen iia</w>
open ing</w>
op pos
op ac
omi als</w>
ok ur</w>
og r</w>
o wn
o h
num mer</w>
new lines</w>
neur al</w>
nel lement</w>
ne ue</w>
ne go</w>
na ive</w>
molecul es</w>
modi fying</w>
mode l_
mo ved</w>
mo t</w>
metho des</w>
met a-
mensaj es</w>
me sh</w>
me h
mas s</w>
manej ador</w>
man ual</w>
m al
llam a</w>
listen ers</w>
lim ite</w>
li sp</w>
lect ura</w>
le urs</w>
last _
label ed</w>
l' utilisateur</w>
l' evenement</w>
l' argument</w>
l' analyseur</w>
l d
kotoro i</w>
koordin at
ko v</w>
kli uch</w>
kiv y</w>
key board</w>
ker nel
ka zh
k le
k ill</w>
it h</w>
iso-8859 -1</w>
iro van
iqu ement</w>
interrup tible</w>
int enta</w>
initi ate</w>
index ing</w>
ind ent</w>
im aet</w>
id3 v2</w>
ic inde</w>
hoo ks</w>
high light
hel p
h az
grup o</w>
gra y</w>
gn u</w>
g z-
g un
funktsi ei</w>
funktion en</w>
from string
fre i</w>
fragm ent
fraction al</w>
file 's</w>
fil tro</w>
field_ number</w>
f us
ev ento</w>
etk in</w>
etiqu eta</w>
estim ators</w>
esta dist
epo ch
entfer nt</w>
en z
embe dd
em u</w>
el ast
ek ler</w>
eint ra
e cho</w>
e cho
dugum u</w>
don usturur</w>
den se
deli ver</w>
de serialize</w>
de la
de ki</w>
de ep</w>
db m</w>
db _
dat ei
d ge</w>
cur l_
cre er</w>
cr c</w>
copi ed</w>
consum ing</w>
construct ing</w>
constru ction</w>
con f</w>
comple to</w>
comp at</w>
command- line</w>
comm ent
com para</w>
co vered</w>
co le
cle ans</w>
cla uses</w>
chec ked</w>
char -
chal leng
cas ca
canon ic
built in</w>
buffer ing</w>
bound aries</w>
bic em
bench mark</w>
belir ler</w>
b on
at ar</w>
array -like</w>
ar tic
appe ars</w>
ap lica</w>
ang ul
anal ogo
an sw
ambigu ous</w>
al f
akt iv
adres se</w>
adjust ments</w>
ad v
accur acy</w>
abfra ge</w>
abb revi
a ree</w>
a par
a /
a *
__ auto
- time</w>
) :</w>
(ve ja</w>
置 き</w>
範 囲</w>
環 境</w>
末 尾</w>
方 法</w>
取り 出し</w>
単 位</w>
初 期化</w>
ー ク
リ セット</w>
ラ ク
ラ イズ</w>
メ イン</w>
ボリ ック
プログ ラム</w>
プリ ケー
ブ レー
テキ スト
タイ プ</w>
ソ ース
セ クション</w>
ストレ ージ</w>
ステート メント</w>
コ レクション</w>
コ メント</w>
クッ キー</w>
わ せ</w>
ま ざ
まざ ま
さ まざま
zh daet</w>
zapi syvaet</w>
zadan nym</w>
x 1
ws ]</w>
wil d
wh at
wb mp</w>
w ron
w ob
wob ei</w>
w cs</w>
vychis liaet</w>
virt u
verwen det</w>
variable n</w>
v end
v ac
updat e_
up value</w>
uni qu
ukaz ate
ud al
trunc ates</w>
trou ve</w>
traver sal</w>
trav aux</w>
tra ves</w>
tr iv
to ut</w>
to ch
them e</w>
th er
text flow</w>
tensor shape</w>
tekushch ei</w>
tas k
t on
sv obo
sum s</w>
substit ut
sub scribe</w>
stri pped</w>
stat ic
st ud
st ub</w>
st d
specifi er</w>
spe ed</w>
spati al
sor g
so it</w>
signific ant</w>
si x</w>
serv eurs</w>
seri es/
ser vi
ser tifi
sele ction
segm ent
sec en
s ut
s lic
s ko
s g
rut ina</w>
roun ds</w>
ri s
retriev ed</w>
res ume</w>
rel acion</w>
registr a</w>
recogn ition</w>
re mar
re call</w>
re b
re ally</w>
ra is
rais ing</w>
r us</w>
r rd
queu ed</w>
query _
qu' il</w>
qu bits</w>
pub lic
propri etes</w>
pro chaine</w>
pre fixes</w>
pre fix
pot ential</w>
post a</w>
polzov atel
pol l</w>
per c
pd f_
paren the
p endi
p /
output stream</w>
or- name</w>
or tho
oppos ite</w>
oper ate</w>
op code</w>
ol an</w>
o usly</w>
o tro</w>
nu le</w>
nost i</w>
normaliz es</w>
node 's</w>
neur on</w>
nam ing</w>
n d</w>
n arrow</w>
multip lies</w>
multip les</w>
monot on
mon omials</w>
mno go
mix ed</w>
min us</w>
mid d
met ac
memcached:: get
me lement</w>
match er</w>
man ner</w>
m us</w>
l{ url
lon gu
longu eur</w>
local ized</w>
list }</w>
list esini</w>
list box</w>
leng ths</w>
le x</w>
l'e chelle</w>
l ()</w>
kon k
konk ret
kom m
kl ar
ke d
kay de
kal man</w>
k ad
ju dy</w>
iv aet</w>
iterator:: rewind()</w>
iterator a</w>
it re</w>
is im
ir o</w>
intern en</w>
instal l
info ()</w>
infin ite</w>
indek su</w>
ind an</w>
incre asing</w>
im eni</w>
i de</w>
i an</w>
httpre sp
hand sha
h sp</w>
h ours</w>
h ib
h get
h ard</w>
h ard
h app
gen ous</w>
ge h
g zip
g z</w>
g it</w>
foc us</w>
fil tre</w>
fb sql_fetch_
fall back</w>
fact ori
fa con</w>
f at
experim ental</w>
ex prs</w>
event ::
et om</w>
estadist icas</w>
est an</w>
especific ados</w>
envo i</w>
encod ings</w>
en um
en den</w>
eigen values</w>
edit or</w>
e vid
e to</w>
e ded</w>
dy adic</w>
dom nodelist</w>
do res</w>
djang o</w>
dis abled</w>
dig i</w>
di m</w>
devi ance</w>
det ect
dele ting</w>
de sign
date .
d' image</w>
cre ar</w>
cre ado</w>
contra ct</w>
contex to</w>
content s()</w>
colle ct
co uch
clau se
circul ar</w>
challeng e</w>
certific ates</w>
c' est</w>
c ri
by_ name()</w>
bul k</w>
buffer 's</w>
bit map</w>
been det</w>
be comes</w>
baglan t
b all</w>
ay ar
as in
as ign
arch ives</w>
approxim ation</w>
answ er</w>
an ot
an nule</w>
an iia</w>
alloc ation</w>
align ments</w>
af ect
activ ated</w>
ac er
ab ly</w>
a e</w>
_ number</w>
_ list</w>
\ n</w>
= none)</w>
: undocumented</w>
: math</w>
204 5</w>
2 4</w>
1 /
0 -
/ value</w>
. ini</w>
( x
構 造</w>
書 き</w>
暗 号</w>
時 間</w>
新 規</w>
換 え</w>
含 ま</w>
受 信</w>
取り除 き</w>
分 割</w>
ローカ ル</w>
ロ ガー</w>
ラク タ</w>
メ ン
プロ ファイル</w>
ド メイン</w>
ダ イア
タ ッチ</w>
シグナ ル</w>
サー ビ
ク ロー
エラー コード</w>
インターフェ イ
インターフェイ ス</w>
ア プリケー
よ り</w>
zadan nom</w>
z ug
y y
y ch
y a
writ e_
wh o</w>
we ak</w>
war n</w>
w kt</w>
vy ra
vyra zh
visib ility</w>
ver ification</w>
ver b
vari ation</w>
v stavliaet</w>
v s</w>
utf- 16</w>
ustanov len
ure ment</w>
unter sch
univ er
un cer
uncer taint
turt le
triv ial</w>
tri e</w>
traz ado</w>
transl ations</w>
to t
timest amps</w>
th rea
th at
text ()</w>
t r</w>
sy l
swit ch
sviaz an
supp lement
sub scrib
stud ent
stret ch</w>
stra ight</w>
str }</w>
stock age</w>
sto pping</w>
stand ard
sql ite
spr int
splfile object</w>
spe ction</w>
spac ing</w>
sp an
sol amente</w>
situ ado</w>
sib ling</w>
servi dores</w>
sen se</w>
se m</w>
se a</w>
s ni
ri l
ret ro
result set</w>
result _id</w>
resol ved</w>
reser ved</w>
rep orts</w>
rep lic
recursive iterator
recurs iv
recor ded</w>
recor d-
reb ob
rac ine</w>
ra s</w>
quot ed-
qu' elle</w>
pro j
privi leg
pre ferred</w>
posledne i</w>
pos le
popul ation</w>
po tok
po ps</w>
piec e
persi st</w>
peredan nyi</w>
perc ent</w>
pe ak</w>
parti ally</w>
paragraph s</w>
p ami
over loaded</w>
over lay</w>
other _
olmadig ina</w>
ol ustur
ol d-
od ds</w>
od d</w>
occ up
observ ateur</w>
object _id</w>
ob rat
o svobo
neighb or</w>
ne ment</w>
ne e</w>
n ex
n ab
multip lier</w>
mp z</w>
monit o
mo ment
metac lass</w>
meas urement</w>
me v
may be</w>
math emat
m q
losch t</w>
log its</w>
loc king</w>
list en</w>
link ()</w>
lie u</w>
li re</w>
laun ch</w>
lar ini</w>
l cm</w>
kli ent
ken nung</w>
k o</w>
isol ating</w>
islev ine</w>
interpret e</w>
inter pret</w>
int er</w>
instanti ate</w>
in f</w>
in c</w>
immedi ate</w>
ifi cat
id le</w>
i yle</w>
i x</w>
httpresp onse</w>
ho le</w>
heur istic</w>
h sh</w>
gu i</w>
graph ical</w>
gle ich
geo ip</w>
fin aliza</w>
fi k
fi dd
fetch ed</w>
fel d</w>
f lex
f e</w>
ext ent</w>
exam ine</w>
ev al</w>
estand ar</w>
estab ele
estabele ce</w>
en v</w>
e lo
e ing
e '</w>
dynam ically</w>
duplic ates</w>
dum ps</w>
dro pped</w>
dokum ent
disc o</w>
dis inda</w>
dev ices</w>
dev elo
dela i</w>
del t</w>
def s</w>
deep copy</w>
dec rypt</w>
de sign</w>
day light</w>
dat as
dan nyi</w>
d' entree</w>
d '</w>
cut ting</w>
coor donnees</w>
contigu ous</w>
contex ts</w>
contain ers</w>
connect e</w>
comput er</w>
compres ion</w>
compil ation</w>
column as</w>
collap se</w>
clean up</w>
ciph er
ci es</w>
chit aet</w>
ch r</w>
ce k</w>
casca de</w>
can c
canc els</w>
cagri lir</w>
c aug
caug ht</w>
buz on</w>
buffer- or-name</w>
bu yu
broad cast
blo que</w>
bil gi</w>
benut zt</w>
be rech
batch _
back up</w>
auto correlation</w>
attribut s</w>
atrib ut</w>
at sia</w>
asser t
as sets</w>
ar ios</w>
applic ation
anomal y</w>
alig ned</w>
ali sed</w>
al og
ag ick
adap t
action ()</w>
acer ca</w>
abb rev</w>
ab an
a it</w>
_ start
_ dir</w>
[1 ]</w>
@ see</w>
= false</w>
= 10</w>
< <
3 0
2- tuple</w>
1- d</w>
1 6
1 )</w>
* ,</w>
通 常</w>
読み 出し</w>
説 明</w>
行 番</w>
空 白</w>
確 立</w>
実 際</w>
始 ま
大き さ</w>
列 表</w>
代 わり</w>
一 部</w>
ージ ャ</w>
ン プル</w>
レスポ ンス</w>
リア ライズ</w>
ミ ュ
マッ プ</w>
ブレー ク
ブレーク ポイント</w>
バ ック
ツ リー</w>
スト リ</w>
スクリプ タ</w>
ス ケ
シ リアライズ</w>
サ ンプル</w>
サ ンプ
グローバ ル</w>
グ レ
イ メ
ま だ</w>
な ど</w>
っ て</w>
さまざま な</w>
z w
z iert</w>
writ able</w>
window 's</w>
wid get
wave form</w>
wal k</w>
w ich</w>
verit aban
verbind ung
validat or</w>
uzun luk</w>
ut ils</w>
uscul as</w>
up le</w>
un ified</w>
uer re</w>
u d</w>
tur ned</w>
trig ge
trigge red</w>
tre ated</w>
transform ations</w>
tr y
tr ust
tk inter</w>
tang ente</w>
t cp
symbo l
syl aet</w>
sunuc us
summar y
sub scri
string indexoutofboundsexception</w>
ste k</w>
st able</w>
st a</w>
sql -
split ting</w>
speich ert</w>
specific ations</w>
speci alized</w>
spark context</w>
sorti ruet</w>
soderzhashch uiu</w>
sm tp</w>
sl ash</w>
simul ation</w>
signat ure
signal led</w>
sig mo
si ds</w>
si ch</w>
set -
ser ont</w>
seman tic
se ek</w>
se ctions</w>
scan ning</w>
satisfi es</w>
s war
s ity</w>
s do_
ro bu
robu st</w>
ris k</w>
ri ch</w>
rever sed</w>
ret r
resh ape</w>
res mi</w>
report ing</w>
rep r
rep orter</w>
rellen o</w>
relax ng</w>
rel ac
regist ra
reemp laza</w>
reas on
re comm
rd kit</w>
rang o</w>
ra n</w>
r and
qu est
qu er</w>
qu at
quat ern
py g
pyg let</w>
prox y
protocol s</w>
proiz vol
pro chain</w>
prep aree</w>
predstavlen ie</w>
preci sion
prece d
pre defined</w>
poluch enie</w>
po sylaet</w>
po lozh
pl us_
pl an</w>
pkcs #
piece wise</w>
pick led</w>
perio ds</w>
pe red
pas ado</w>
parti e</w>
paramet ric</w>
p- value</w>
p orts</w>
p kt</w>
p k</w>
output -port</w>
out filename</w>
ort ion</w>
option en</w>
optimiz ed</w>
op is
only *</w>
on a</w>
of ten</w>
ob servers</w>
o tra
numer ique</w>
non- blocking</w>
non block</w>
no te
neg ation</w>
ne go
nam ed
n x
mysq li</w>
mon adic</w>
mo unt</w>
mo st
mo g
min _
migr ations</w>
metam eto
mas ini</w>
mas i</w>
marsh al
map a</w>
maint aining</w>
ma -
local _
llam ar</w>
lag uerre</w>
kut us
kodlam asini</w>
kim ligini</w>
k li</w>
j vm</w>
j ours</w>
j an
iz meniaet</w>
it er</w>
ipt c</w>
instal ler</w>
inser t
inn er
initi ates</w>
ing u
ing "</w>
indic ation</w>
in- memory</w>
in o</w>
implement ations</w>
imp orts</w>
imp licit</w>
im a</w>
ident ify</w>
i shch
high er</w>
hierarch y</w>
hash table</w>
handsha ke</w>
h et
h ak
hak kin
h ado
h ach
gregori an
gn up
gl sl</w>
get_ contents()</w>
get text()</w>
geomet ry
geomet ries</w>
gen in</w>
gegeb ene</w>
function ally</w>
fun c
fri end
friend ly</w>
fo is</w>
fl ate</w>
fin ish</w>
fil s</w>
fidd le</w>
fi l</w>
fast q</w>
fann_get_ cascade
fann_get_cascade _
facet. date.
expon enti
ex ions</w>
estim ation</w>
esp era</w>
es '</w>
err ing</w>
er as</w>
ent rees</w>
eno de</w>
end ro
enc rypted</w>
enc rypt
emp li
em pi
em a</w>
el lig
eg ro
e str
dru g
dom document
do l
dist ortion</w>
direct ives</w>
direct ive</w>
dig est
di cts</w>
determin ing</w>
destro y</w>
descri be</w>
deriv atives</w>
deprec ation</w>
dep ends</w>
dele gate</w>
defin iert</w>
deco ded</w>
debu g-
de ist
de ca
dat as</w>
da h
d x</w>
d v
c{ true}</w>
cy rus</w>
cubrid_lob 2_
cour s</w>
coun ter
coor d</w>
contro ll
content -type</w>
conn exions</w>
configur a</w>
concent ration</w>
con v</w>
compri sed</w>
compo sed</w>
communic ation</w>
combin ed</w>
com prob
co ns</w>
cla de</w>
chun ked</w>
cf ws]</w>
cent ers</w>
capt ure</w>
ca sed</w>
ca se
c f</w>
but tons</w>
bu ch
brack ets</w>
bor ra</w>
bo ite</w>
bil g
bibliothe que</w>
bay t
ban k</w>
back trace</w>
b z
b sd</w>
b g
b and</w>
ax is
auto commit</w>
aufru f</w>
at ori
assum e</w>
as ina</w>
as ig
artic le</w>
arqu ivo</w>
arg v</w>
ar y
apunt ador</w>
appel er</w>
ap lic
analogo us</w>
an ie</w>
alphanumer ic</w>
all y-
algorith ms</w>
al er
adv ance</w>
addres s}</w>
adap ter</w>
act uellement</w>
ac ak</w>
a head</w>
_start ()</w>
] _</w>
\l dots</w>
4 8</w>
3 2-
19 7
1 5</w>
. c</w>
- first</w>
+ 1</w>
* r
( *
' key
転 送</w>
識 別
読み込 ん</w>
置 換</w>
示 す</w>
済 み</w>
消 去</w>
従 っ</w>
大 文字</w>
反 復</w>
単 語</w>
単 一</w>
判 定</w>
使 い</w>
作 業</w>
以 降</w>
以 上</w>
ローカ ル
プロ ト
デバッ グ</w>
タイム スタ
シ ョン
ク ス
イベ ント
ア タッチ</w>
| |</w>
zug ri
zap us
zadan nyi</w>
z us
z ifi
y la</w>
y al
x o</w>
work space</w>
wel che</w>
vrem eni</w>
visit ed</w>
viol ating</w>
vide o</w>
vi sor</w>
verro u</w>
ver siiu</w>
ver sch
vari ants</w>
v or</w>
v ec</w>
v ander
vander mon
vandermon de</w>
uu encode</w>
utiliz ando</w>
uni form
un den</w>
um u</w>
um ol
umol chan
u int
u ee</w>
typ ical</w>
trust ed</w>
tru e)</w>
trip le</w>
transform ers</w>
tr im
togg le</w>
tip a</w>
th ats</w>
tex ts</w>
test _
termin os</w>
tekushch uiu</w>
t en
t '</w>
synchron ization</w>
sym py's</w>
suf fici
stoc ke
sto chast
stat ()</w>
st em</w>
splfileinfo ::get
speci al
spe zifi
sp er
sp a
sootvetstvi i</w>
solr document</w>
socket_ create()</w>
so us-
so und</w>
sn ap
sl ash
simple xml</w>
sh are</w>
server om</w>
series/ index</w>
seed =none</w>
schreib t</w>
sch ity
scal ar
samp le
s ke
s and
s ab
runn able</w>
rp m</w>
rewin d
respon se
respect ive</w>
res amp
rep orted</w>
rellen a</w>
ref resh</w>
redu ce
redirect s</w>
receiv es</w>
receiv ed}</w>
re k</w>
re ferred</w>
rd ds</w>
ra ster</w>
r ing
r ant</w>
qu ick</w>
protocol }</w>
produ cts</w>
pro files</w>
prev ents</w>
prece ding</w>
prece dence</w>
pre para</w>
pozit sii</w>
post g
post er
posledne go</w>
polzovatel sk
plot ting</w>
patter n
pat ron</w>
pas t</w>
partition ed</w>
partic uli
palab ras</w>
pack et
pa qu
p ra
p c</w>
p 1</w>
out *</w>
ot kryvaet</w>
osvobo zhdaet</w>
or ter
or de
ok ruzh
ob i
o_ nonblock</w>
numar asini</w>
notifi er</w>
non zero</w>
no min
no ise</w>
nl tk</w>
nego ti
n ob
multi pl
monito red</w>
mon th
mix ture</w>
metri c
merg ing</w>
meh re
marg in</w>
l{file path}</w>
l{ list}</w>
lual_ buffer
line ari
line -
lin g
lin ed</w>
lib xml</w>
li u
lex ico
leav ing</w>
le ur</w>
le quel</w>
l'et ape</w>
l' algorithme</w>
l d</w>
l c</w>
l '</w>
ko g
kog da</w>
kliuch om</w>
khozh d
kee ping</w>
k len
k b</w>
j as
iz v
iz eig
iter ators</w>
ist eg
ispolzov an</w>
isol ation</w>
iri l
io error</w>
invo ca</w>
interrup ts</w>
interce pt
initi al
ing }</w>
inform ix</w>
inet address</w>
in version</w>
in s
in hib
implem ente</w>
images/anim_ in_
ie ure</w>
identifi es</w>
ib m</w>
i ere</w>
i ,</w>
horizon t
hi perbo
het er
har f</w>
hakkin da</w>
hach age</w>
h s</w>
h m
h d
guarante ed</w>
group ing</w>
gnup g_
gm agick
geo ip_
gener ally</w>
gearman client::
g ul
g ru
g en</w>
fun ct
fon t
finaliz er</w>
filter _
file descriptor</w>
field_ name</w>
fel des</w>
fe w</w>
fail ure
f p</w>
f graph</w>
ex ter
estableci do</w>
est o</w>
err no
epo cas</w>
envo y
ent ity
en-t ete</w>
en y</w>
en ing</w>
em ent
em e</w>
ein z
e y
e struct
e kl
e ight</w>
dum ped</w>
du zen
dr b
dosyay i</w>
dizge si</w>
diz is
discar ding</w>
di v</w>
descript eur</w>
depth =
degis ken</w>
deg er</w>
defin ierten</w>
defin icion</w>
defaul t_
decor ated</w>
decl are</w>
debugg er</w>
de tru
de stru
de se
db plus_
date izeig
datab ases</w>
dat ain
datain put</w>
dar k</w>
d ut
d types</w>
d i</w>
d base</w>
d at</w>
cy cles</w>
cozumley ici</w>
correspon de</w>
conver sation</w>
contain s
consist s</w>
config ures</w>
con st</w>
con form
comp ared</w>
comm ence</w>
combin ations</w>
com posit
com i
cole ccion</w>
co routine</w>
cli p
cle ar
ci k
chi sel</w>
character iterator</w>
cert ificat
cat ion
candi dates</w>
callback -
cal isi
ca p</w>
c ciones</w>
buch stab
bu k
bu d
bro ker</w>
bes sel</w>
bas lat
baglant i</w>
ba zy</w>
b yp
auto _
authentic ate</w>
ausgab e
aus ge
augm ented</w>
att empt
atrib uta</w>
assig ne</w>
asoci ativo</w>
asig na</w>
array 2</w>
argum ente</w>
ar kh
app ended</w>
ap c</w>
ang e</w>
anaht ar</w>
am ong</w>
ali si
al ive</w>
aj out
ag ed</w>
aff ected</w>
advan ces</w>
adjac ent</w>
add ()</w>
ad an</w>
activ ates</w>
activ acion</w>
aci k</w>
accumul ated</w>
ac ao</w>
ab ilir</w>
a vi
a hn
__ eq
_ from_
_ array</w>
[ cfws]</w>
@ k</w>
: name</w>
32- bit</w>
2. x</w>
- string</w>
* internal</w>
送 出</w>
警 告</w>
識別 子</w>
読 み</w>
破 棄</w>
渡 し</w>
撤 廃</w>
定 数</w>
失 敗</w>
再 帰</w>
優 先</w>
一 覧</w>
ボリック リンク</w>
プ ラ
ファイル システム</w>
パス ワード</w>
パ ネル</w>
バ ー
ディ スクリプタ</w>
ター ン</w>
タイムスタ ンプ</w>
スト ラクタ</w>
シン ボリックリンク</w>
コー ド
イン タ
も と</w>
も し</w>
つ き</w>
だ さい</w>
し よ</w>
zw ischen</w>
zo om</w>
znach enii</w>
zadan iia</w>
yap il
y or
xslt process
xsltprocess or
we ek
w x</w>
w in</w>
w d</w>
w atch</w>
vyvo da</w>
vypoln enie</w>
voz mozh
vnutren nii</w>
vertic ally</w>
version added</w>
veri yi</w>
ver k
verk nup
vari as</w>
vari ance
var ios</w>
van ie</w>
v uet</w>
v 3</w>
ur ing</w>
uni chr</w>
un set</w>
un defined</w>
umolchan iiu</w>
ukazan nym</w>
uel le</w>
u l</w>
u ff</w>
u fen</w>
typ e-
transp o
transi ent</w>
to wards</w>
tit le
timest amp
time zon
time out
that 's</w>
th and
test case</w>
temp s</w>
tekushch ee</w>
te k</w>
tab s</w>
t un
t se
t eg
sur ven
success ive</w>
sub strings</w>
stat us
st uff</w>
spect ral</w>
sp rite</w>
sp her
sp et
soobshch enie</w>
soap -
so l</w>
sni pp
snap shot</w>
sluch ae</w>
sle ep</w>
sin k</w>
simvo l</w>
sim bo
signat ures</w>
sign um</w>
si f
si des</w>
sh ado
shado w</w>
sem b
sel f-
search d</w>
se ite</w>
se in</w>
se eks</w>
sch ri
sc atter</w>
sampl ed</w>
sal t</w>
s zh
s rid</w>
s ors</w>
s .
run ner</w>
rot ates</w>
ro les</w>
rh s</w>
rezh im</w>
resid ual</w>
renam es</w>
rele ased</w>
regres sive</w>
regex iterator::
reg ul
reg ion
reg a</w>
rebob ina</w>
read able
re t</w>
re stores</w>
re m</w>
re lay
re l</w>
re fin
r b_
qu are</w>
provi der
proporcion ado</w>
proporcion ada</w>
propag ate</w>
pro te
print f</w>
pres ence</w>
pp e</w>
posit ives</w>
plac er</w>
ph p-
ph o
pet iciones</w>
percent ile</w>
per vyi</w>
pdo statement</w>
pap er</w>
pair wise</w>
p ure</w>
p ori
pori ad
p ick</w>
p f</w>
ow ning</w>
overri de
oth ers</w>
ori ented</w>
orde red
op t</w>
on o
ol us
oh ne</w>
odb c_
obrabotchi k</w>
object ive</w>
o cur
numer os</w>
non- overlapping</w>
nom er</w>
no st</w>
new val</w>
name -
nachin aia</w>
nach richt</w>
nach rich
na ires</w>
n f</w>
n az
mon te</w>
mon ic</w>
modific ations</w>
modifi ers</w>
mode le</w>
mev cut</w>
men ge</w>
me si</w>
max db_
matri ce</w>
matic ity</w>
mat mul</w>
mass iv
mas k
man if
man era</w>
maint ain</w>
m f</w>
m at</w>
l{ireactor fd
lug ar</w>
lu i</w>
lock ()</w>
loc ked</w>
lich esk
lib o</w>
lear ning
le s
l m</w>
l ap
key /value</w>
kayde der</w>
k [
iv al</w>
interval le</w>
int ens
inspect or</w>
input -port</w>
inoti fy</w>
initializ ing</w>
inf er</w>
in verti
in valid
implement ing</w>
imp ut
imp ul
imp orted</w>
imag e_
im ini</w>
ih n</w>
id ()</w>
i fa
i cos</w>
hyper geometric</w>
homo geneous</w>
ho t</w>
highlight ed</w>
hi de</w>
herm iti
hdu list</w>
hash -table</w>
hado op</w>
habil it
h ora</w>
h au
h ang
h ab
gu ard
group e</w>
gregori an</w>
gnupg_ add
glyp h</w>
gib i</w>
get ter</w>
g se
g pu</w>
g g</w>
funktsi iami</w>
fre q</w>
format e
form set</w>
fon ts</w>
fol der</w>
fli p</w>
fit ting</w>
fil l
fetch_ row()</w>
fact or
fac t</w>
fa ster</w>
fa d</w>
f resh</w>
exp i
estim ator
est at
esqu ema</w>
er ung</w>
epoch s</w>
eno de
enc ryption</w>
en nykh</w>
en nyi</w>
ek ran
ejecut ar</w>
dro ps</w>
dra w
down loads</w>
dosy a
dosya ismi</w>
dostup a</w>
document os</w>
do ck
dn s
dizge sini</w>
dis que</w>
dis joint</w>
dir name</w>
dir _handle</w>
diction naire</w>
di mi
detru it</w>
detail ed</w>
dess in</w>
depth -first</w>
delimit ed</w>
defin ies</w>
defin e_
decre ments</w>
deci de</w>
de mo</w>
de al</w>
db -
d dl</w>
d am
cy cli
cur ses</w>
cor ner</w>
controll ing</w>
cont orno</w>
constan te</w>
con serv
compo und</w>
comp li
color _
colle cts</w>
codo n</w>
co cu
ci ado</w>
cel er
cc l</w>
car lo</w>
c mp
c lock
c lic
c b
buil d_
buffer- local</w>
bufer iz
buck ets</w>
bloc kette</w>
bin s</w>
bin ario</w>
bestim m
berech net</w>
bere it
belge yi</w>
behav io
be z</w>
be long</w>
base line</w>
baglan ti
b r</w>
b n</w>
automat iquement</w>
au c
at ure</w>
asso zi
as -
aren 't</w>
app _
ancest ors</w>
analogich no</w>
alphab et
ali see</w>
alan i</w>
ak im</w>
ac celer
abfra ge
ab ort</w>
a y</w>
a fin</w>
a emo
a ,</w>
` #
__init __</w>
__get item__</w>
? )</w>
8 j
64- bit</w>
4. x</w>
2. 4.x</w>
2. 2.x</w>
19 9
1 }
1 3</w>
1 2
- format</w>
- encoded</w>
- case</w>
** 2</w>
* out*</w>
'key '</w>
' -
除 去</w>
送 り</w>
輪 郭</w>
要 求</w>
行 わ</w>
直 接</w>
渡 さ</w>
書き 出し</w>
持 っ</w>
待 ち</w>
固 定</w>
回 数</w>
呼 ば</w>
以 外</w>
丸 め</w>
一 時</w>
ロ ール</w>
レ ジ
プロト コ
ビ ット
バイナ リ
チャ ン
チェ ック
スケ ープ</w>
コン ト
コン テキスト</w>
コ ミット</w>
エン ティ
エ スケープ</w>
アプリケー ション</w>
り 返し</w>
も しく</w>
に おける</w>
な っ</w>
} s</w>
zagruzh aet</w>
zag o
z empli
yer lestirir</w>
yaf_rout e_
y endo</w>
x or</w>
wron g</w>
what ever</w>
wel l-
week day</w>
we iter
wan delt</w>
wa y
ver sucht</w>
ver kh
ver gleich
ve z</w>
valu es()</w>
v khozhd
v ed
v ec
v at</w>
uzun lug
uv ent</w>
utiliz ar</w>
utili za</w>
ustanov ki</w>
us ual</w>
url lib
ur i
up han
uncertaint y</w>
un packs</w>
un ification</w>
un da</w>
um ask</w>
trun cate</w>
tru e_
trig ono
trigono metric</w>
transl ated</w>
trabaj ador</w>
top ic</w>
to po</w>
to ler
tic k</w>
ti pos</w>
ti fs</w>
thread interrupt</w>
ter im</w>
te in
ta x
t[ k
t ly</w>
t ente</w>
t c
sy base</w>
sv n</w>
susp end</w>
sur v
sur ro
support e
suiv ante</w>
subtra cts</w>
sub tensor</w>
su ch
stro ng</w>
stat a</w>
standardiz ed</w>
st amp</w>
st age</w>
sql it
sp el
source -
sort _
son ra
sm t
simultan e
simultane ously</w>
sig ns</w>
si l
si ch
shuff le</w>
shap e
set -like</w>
server e</w>
sequ entially</w>
sequ ential</w>
sec cion</w>
se ek
sd ca
sdca optimizer</w>
schity vaet</w>
scal ars</w>
satis fying</w>
sam an
saman lik</w>
sa fe
s end
ryp ts</w>
roll back
rg b
rfc 2045</w>
retriev ing</w>
retriev al</w>
respon d</w>
res net
represent able</w>
rep et
remp lit</w>
regular ization</w>
registr ation</w>
reg uli
reflection method</w>
redu ci
recur sion</w>
record- type</w>
recogn ized</w>
reci pi
re e
re am
ran s
ram s</w>
rai z</w>
ra da</w>
r type</w>
quo te
query ::
quatern ion</w>
quant iles</w>
qu elle</w>
qu ant</w>
q [x]</w>
pt ion
pt ing</w>
prozess es</w>
prot eg
process ors</w>
prob lem
pro c_
proc_ open()</w>
priorit e</w>
prin imaet</w>
pri ce</w>
preser ve</w>
pres entation</w>
prepar ada</w>
preobra zov
preference s
predst avli
pre view</w>
pre g_
pow er
potok a</w>
postg is</w>
poster ior</w>
post -
po ly</w>
po lia</w>
play ing</w>
pik sel
pi ct
persi stante</w>
per i
pend ant</w>
pas o</w>
parser -
p ul
p on
p ic</w>
p c
oz et
override ]</w>
overri ding</w>
out-of- sample</w>
ord re</w>
oper aciones</w>
open ssl_
on ce
ob s-
ob _start()</w>
o pa
o ns</w>
o la</w>
o cia</w>
numer ico</w>
nu l</w>
non ce</w>
ni sses</w>
next -
nex us</w>
new t</w>
new -
ne sting</w>
ne lement</w>
ne i</w>
name _
name "</w>
n- th</w>
n s
n ers</w>
n ans</w>
multipl ying</w>
mo un
mo tifs</w>
minim o</w>
mi r
meto da</w>
metat able</w>
messag e}</w>
men or</w>
memo ized</w>
meas ures</w>
mass ive</w>
marshal led</w>
manipul ation</w>
manif est</w>
make _
mac ros</w>
l{ireactorfd set</w>
look ups</w>
log ic
local es</w>
loc us</w>
loc ate</w>
legen d</w>
le 's</w>
laz ily</w>
last_ error()</w>
l' utilisation</w>
l' hote</w>
l' exception</w>
kut uphan
kotoro e</w>
kon tein
kodi rovan
kil ar</w>
key error</w>
ker }</w>
karsilast ir
kad ar</w>
k it
join ing</w>
j um
j ar
ispolzu em
is lem
ip addr</w>
invo king</w>
inver t</w>
interactiv ely</w>
integ er
instrum entation</w>
input stream</w>
index ed
inde ks</w>
incre ases</w>
in k
im g_
img_ color_
il le</w>
il la</w>
ie ee</w>
id ades</w>
i '
hin zu</w>
hash es</w>
h ub
h ref
h iz
h ad</w>
gra d
glob al
gen bank</w>
gegeb en</w>
g ri
g de</w>
function 's</w>
ftp- server</w>
fromstring ()</w>
frequ encies</w>
frame work</w>
fra ge</w>
form al</w>
for wards</w>
fn k</w>
fl at
file_ get_contents()</w>
fi fo</w>
fget s()</w>
ff t</w>
false )</w>
fal lo</w>
fact ory
fa z</w>
fa m</w>
ey lem
exp lan
exec ()</w>
et ab
es se</w>
er r</w>
ent orno</w>
enregist rement</w>
endo g</w>
encod ers</w>
enci as</w>
en contra
en ()</w>
empi rical</w>
em an
element u</w>
element ov</w>
ek zempli
einz el
eigen vectors</w>
eff et</w>
ef ecto</w>
e ther
e special</w>
e ps</w>
e ding</w>
dra g</w>
dosyay a</w>
do melement</w>
do cs</w>
dizi yi</w>
diver gence</w>
distribut ion
dist ingu
dispo sit
dispatch er</w>
disc ard</w>
digit al</w>
diff er</w>
dic cion
di ye</w>
devuel to</w>
destro ys</w>
delimit ers</w>
degistir geler
degistir ge</w>
degist irir</w>
defin idas</w>
decim al
debu g
de ur</w>
de code
db- api</w>
db 2</w>
dateizeig er</w>
data structure</w>
d' erreurs</w>
d io_
d 1</w>
curs or
cre ator</w>
couch e</w>
correspond ent</w>
correspon dan
conver tible</w>
conver ti
cont ing
construct ors</w>
conjun ction</w>
concaten ated</w>
conc rete</w>
conc at</w>
comp are
co- rutina</w>
co ded</w>
clo ned</w>
cli ck
clause element</w>
classi fy</w>
clas s_
ci fra
chro maticity</w>
cho ices</w>
chis quare</w>
child ren
character istic</w>
ch at</w>
ce ss
capt ured</w>
candi datas</w>
calisi r</w>
calcul ating</w>
c_ array</w>
c v
c ss</w>
c et</w>
c df</w>
byte -
by key()</w>
buchstab en</w>
box es</w>
bol sh
bo s</w>
bg zf</w>
be zeich
be an</w>
bbcode_ container</w>
bas lang
band width</w>
ba d</w>
b ic</w>
b compiler</w>
author ity</w>
auth orization</w>
ation exception</w>
asso c_array</w>
asso c</w>
asci i-
array access</w>
argument a</w>
arg s'</w>
ar range</w>
ar co</w>
app end
app aren
annot ate</w>
angul o</w>
aj ust
afect adas</w>
addr info</w>
ad verti
ad i</w>
actu aliza</w>
accept ing</w>
ab s</w>
__eq __</w>
_ url</w>
_ info</w>
] ]</w>
> )</w>
= 20</w>
: specification</w>
8 6</w>
5 0</w>
2 1</w>
1 4</w>
1 *
( which</w>
( ))</w>
' other
' '</w>
領 域</w>
記 号</w>
解 釈</w>
見つ け</w>
行 う</w>
自 動</w>
終 端</w>
無 視</w>
消 し</w>
条 件</w>
有 する</w>
曲 線</w>
抽 象</w>
巻 き
巻き 戻し</w>
展 開</w>
始ま る</w>
塗 り
入 っ</w>
ー ン</w>
ー ム
ンダ ー</w>
ロ ー</w>
ル チ
ラ ー</w>
メモ リ
メ ント
メ タ
ミュ レート</w>
マ ーク</w>
マ ルチ
ボ タ
ペ アド
プロ キ
プリ ペアド
プリ タ</w>
ファイル ハンドル</w>
パ ターン</w>
バ イン
バイン ド</w>
ニ ュ
トレ ース</w>
トレ ース
ストリ ーム
ス ペ
シ ャ
シ ェ
サービ ス</w>
ク ス</w>
エンティ ティ</w>
ウ ト</w>
イメ ージ</w>
アーカイ ブ
に関 し</w>
によ って</w>
ぞ れ</w>
それ ぞれ</w>
せ る</w>
う ち</w>
| none</w>
zip line</w>
zh du</w>
ze it</w>
zapus kaet</w>
zam an
zago lo
yuk ler</w>
yaf_ application</w>
y )</w>
xml stream</w>
x** n</w>
wrapp ing</w>
win32ole_ type</w>
wild card</w>
wi se-
whe el</w>
wh ich
wel cher</w>
w led
vyzy vaet</w>
vy vaet</w>
visit ing</w>
view port</w>
view box</w>
vi si
verzeich nis</w>
versch i
vend or</w>
value 1</w>
v kliuch
uyg ular</w>
ut ion
ur l-
unit test</w>
uni fy</w>
und an</w>
un sets</w>
un ordered</w>
un expected</w>
un dos</w>
un constrained</w>
un -
umb ral</w>
ul am
ukazate lia</w>
uer do</w>
uber pruft</w>
tur un
tur a</w>
tup la</w>
tru etype</w>
trans itive</w>
train _
track ing</w>
to da</w>
ti ed</w>
thro wing</w>
there 's</w>
text lines</w>
templ ates</w>
tablit sy</w>
ta etsia</w>
ta ches</w>
t ms</w>
t et</w>
synta x
sv d</w>
sushchest vuet</w>
surro gate</w>
sure c</w>
summ ation</w>
subtra ction</w>
sub type</w>
sub module</w>
sub group</w>
sub directories</w>
stro k</w>
stro k
stri ps</w>
stem med</w>
ste ka</w>
st ale</w>
srav n
sprint f()</w>
spher ical</w>
sparse _
sp here</w>
son lan
sn mp
sk y
sk ol
siz er</w>
sin i
simul ates</w>
simil arly</w>
sigmo id</w>
sig ne</w>
si g</w>
si fre
sho w
shap e_
sh ares</w>
seu l</w>
seri al
ser ves</w>
ser an</w>
separ ation</w>
self }</w>
selection ne</w>
sel ves</w>
seis mic</w>
seg undos</w>
seg undo</w>
second ary</w>
secon des</w>
se mi
se lon</w>
se au</w>
sche me
sche ma
scan ner</w>
sc ape</w>
save point</w>
satur ation</w>
sat ir</w>
s rf
srf i</w>
s lu
s int
s _</w>
s =none</w>
right- hand</w>
right most</w>
rich textlines</w>
rezh ime</w>
resource bundle</w>
repe ated</w>
ren k</w>
remo to</w>
remar c
reflection class</w>
refle cted</w>
referen ti
referen ciado</w>
read me</w>
re q
re initialise</w>
ran k
ran ee</w>
radi us_
r s</w>
r iv
quoted- printable</w>
quo ting</w>
quest ion</w>
quer ying</w>
py taetsia</w>
py spark</w>
py _
pue den</w>
ps_ add_
prox ied</w>
provider ::
protsess a</w>
proport ions</w>
program a</w>
profil er</w>
produ c
probabil ity
privileg es</w>
priv ile
pretty- printed</w>
predstavli aiushch
pre processing</w>
pre c</w>
poz vo
pop 3</w>
point ing</w>
po ur
play book</w>
pere vodit</w>
per vogo</w>
per spect
pe red</w>
pd f-
pat ches</w>
packet |none</w>
p ull</w>
p il</w>
p id
p g</w>
p fad</w>
oznite lig
own er
output col=none</w>
or den</w>
op ts</w>
on line</w>
om u</w>
obrabot ki</w>
oauth provider::
o tra</w>
no vo</w>
no v
next ()</w>
new name</w>
nes ne</w>
na o</w>
n grams</w>
n at</w>
mysql nd</w>
mut ual</w>
multi- class</w>
mss q
mp f</w>
mozh no</w>
morph isms</w>
mongo db
mon omial</w>
mo v
mo ts</w>
mo re
mo d_
mix in</w>
mis se</w>
mini seed</w>
mi x</w>
metad at
met in</w>
merg ed</w>
member ship</w>
mel d
me zhdu</w>
max len</w>
matic idad</w>
mathemat ical</w>
mar ca</w>
mapper s</w>
manag ement</w>
man y
man ti
ma β</w>
m t
m q</w>
m box</w>
m alloc
l{ ipv
log y</w>
log record</w>
log it</w>
loc ator</w>
load save</w>
load ers</w>
llam adas</w>
lin t</w>
lich en</w>
li stant</w>
li mp
lex er</w>
leg al</w>
le sen</w>
langu ages</w>
la u
l' url</w>
l' appel</w>
l' adresse</w>
l x
l t</w>
l ad
l ac
kotoro go</w>
kom prim
kom ment
klas se</w>
kin ds</w>
kho dit</w>
key }</w>
ker nels</w>
karakter lerin</w>
k ml</w>
k ex
join ed</w>
jas par</w>
izv le
iv ity</w>
it y-
it sia</w>
ist ream
ist is
ispolzov at</w>
interpol ate</w>
inter na</w>
int 32</w>
inser ting</w>
inser ta</w>
input -
inhib ition</w>
index _
index 2</w>
index 1</w>
inclu yendo</w>
in k</w>
in ject</w>
in form</w>
in flu
in c
impul se</w>
imp ur
im pro
illeg al
ilet i</w>
il mis</w>
ig ne</w>
ier te</w>
id _
icerig ini</w>
ic inin</w>
ic amente</w>
ibase_ blob
ibase_blob _
i yi</w>
i sch</w>
i j
i dir</w>
i base</w>
i akh</w>
hermiti an</w>
help ful</w>
he ure</w>
hash ed</w>
hal f-
h ack</w>
gu ide</w>
gro eb
groeb ner</w>
gre en
gmagick pixel</w>
gm py</w>
get attr</w>
gestion naires</w>
ge setzt</w>
g t</w>
g iz
g ain</w>
fun cion
fuh run
fu z
fram e-
form ate</w>
fol d</w>
fo o
flex ible</w>
file path</w>
feh ler</w>
fail u</w>
fact s</w>
fac il
f un</w>
f read()</w>
extra _
ext ends</w>
expres sion
export a</w>
expan ding</w>
exp l
exp ect</w>
execut ion
ex o
evid ence</w>
ether net</w>
estruct ura</w>
estr a</w>
esc rib
es im
error -
er stellt</w>
er ly</w>
er ase</w>
ephemer al</w>
environ nement</w>
ent re
endi an</w>
end ]</w>
enc ript
en ne</w>
el len</w>
el de</w>
eas y</w>
ear ly</w>
e z
e se</w>
e lem</w>
e chan
dug u</w>
diz genin</w>
divi ding</w>
dis cour
direct amente</w>
ding ly</w>
dim s</w>
di ag</w>
desp laz
deli vered</w>
deger i</w>
decor ator
de lan
de ja</w>
de bo
de ad
db 2_
datetime ::
datenban k
dan nogo</w>
d nn</w>
d na</w>
d 2</w>
cu ad
cro maticidad</w>
coun t()</w>
coun t
control ler</w>
control led</w>
conting ency</w>
cont rib
construct eur</w>
condition ally</w>
concaten ating</w>
compres ses</w>
compres s</w>
compr ime</w>
comple t</w>
comp i
comm enc
com ando</w>
co- rot
co st</w>
co set</w>
clip board</w>
cir cu
chro mo
chi -
check box</w>
cham ada</w>
certific at</w>
capit alized</w>
call er's</w>
cach ing</w>
c rypt
c ron
by l</w>
bul un
bro ken</w>
bol sho
bloque o</w>
bl ue</w>
bin d_
bi ject
bet ig
bestim mt</w>
benut zer
behavio ur</w>
be i</w>
bb {
bay t</w>
bas ado</w>
back ed</w>
ba jo</w>
b ur
b un
b le
b ivariate</w>
az on</w>
automat ic</w>
auto regressive</w>
ausgabe puff
ator a</w>
assotsi ativ
as ocia</w>
ar la</w>
ar ct
applic ations</w>
app elle</w>
anter ior</w>
and _
altern ate</w>
ale ato
al most</w>
al len</w>
al ar
ahn lich</w>
affect e</w>
af ter
ad vert
ad res</w>
ad ora</w>
ad er
accor dingly</w>
ac uerdo</w>
ac l</w>
a ws</w>
a qu
__auto load()</w>
_ {
_ tree</w>
_ terim</w>
_ get_
_ fetch</w>
\math bb{
[1 ]_</w>
[ a</w>
< <</w>
: rtype</w>
8 6
197 0</w>
1- dimensional</w>
1 00
. h</w>
- name</w>
* args</w>
& nbsp</w>
適 切</w>
詳 細</w>
証 明</w>
統 計</w>
状 況</w>
書き 込
日 付</w>
指 し</w>
小 文字</w>
塗り つぶし</w>
問い合 わ</w>
同 等</w>
再 生</w>
付 き</w>
ース ケール</w>
ンプ レート</w>
レ ンダ
ル ー
リクエ スト
リア ス</w>
ユ ニ
メタ データ</w>
プロトコ ル</w>
プリペアド ステートメント</w>
ビ ュ
パ ッ
バッ ファ
ハ ード
ノ テー
ネ ット
ト ーク
テ ンプレート</w>
ッシ ョン
セ ッション
スタ ック
ス ロー</w>
サブ クラス</w>
コント ロール</w>
コン ストラクタ</w>
グレ ースケール</w>
クリ ア</w>
クラ ス
エ イ
エイ リアス</w>
ウ ス</w>
イン ポート</w>
アル ファ
ア ノテー
ら か</w>
べ き</w>
の よう</w>
の すべて</w>
な かっ</w>
と し</w>
つ の</w>
え る</w>
} 's</w>
| x
zip file</w>
zip -
zagolo v
zadan ii</w>
z os</w>
yor sa</w>
yan it
yanit ta</w>
y es</w>
xslt processor</w>
xml rpc</w>
x h
wor ld</w>
win 32</w>
whe re
wh it
w x
w kb</w>
vyz ove</w>
vo table</w>
vnutren nego</w>
ver sii</w>
vect eur</w>
var ying</w>
var ()</w>
va ult</w>
v an</w>
v 8j
uzunlug unu</w>
uz ak</w>
uyg un</w>
utili sees</w>
ut ile</w>
ut il
ur as</w>
up load</w>
up gra
un supporte
unsupporte do
unsupportedo per
unsupportedoper ationexception</w>
un modifi
un caught</w>
ul ate</w>
ud p</w>
ubergeb en</w>
u k</w>
u func</w>
typ ed</w>
typ e()</w>
two 's</w>
turtle screen</w>
trun cating</w>
tri m</w>
tre e-
transparen t</w>
trans fer
trans actions</w>
train s</w>
trabaj os</w>
toler ance</w>
tol =1
tol=1 e-
token ized</w>
token ize</w>
to ute</w>
thres hol
thread info</w>
tho ok</w>
theo ret
them selves</w>
tensor 's</w>
tek st</w>
te le
tam an
tam am
tablit su</w>
t z-
t sa</w>
synap se</w>
syn cre
syn c
svoist va</w>
surven ue</w>
sun day</w>
suffici ent</w>
success or</w>
sub samp
subsamp ling
stro ko
string -like</w>
stream ing</w>
str __</w>
station ary</w>
start up</w>
stag n
sq rt
specifi cally</w>
spac ed</w>
sp l</w>
sp is
sonra ki</w>
solr query::
sol l</w>
soderzh it</w>
soap server</w>
sky coord</w>
siz e()</w>
sit e-
sistem y</w>
sing ular
sin if
sin de</w>
sigui entes</w>
sign ifi
sig ma
sib le
si fi
sifi er</w>
si dad</w>
si c</w>
si an
session 's</w>
sen sus</w>
semantic s</w>
self 's</w>
sek unden</w>
se x
se to
sd cal
scroll ing</w>
sco pe
s n</w>
s meshch
rov ki</w>
ri dge</w>
rfc 2822</w>
resum es</w>
resh ap
resamp le</w>
represent ee</w>
represent ado</w>
rep o</w>
rep l</w>
renam ed</w>
remote _
remo ver</w>
relation sh
rel ativ
regular ized</w>
reg ions</w>
reg exp
ref erring</w>
recuper ar</w>
recor d
recomm ended</w>
receiv ing</w>
reach able</w>
re starts</w>
re seau</w>
re o</w>
re ly</w>
re index</w>
ras pa
raspa ko
ran king</w>
ra m</w>
r nn
r na</w>
r m
quick hash
qual ifi
quadrat ure</w>
q t</w>
py 3</w>
py 2</w>
put i</w>
pseudo- vandermonde</w>
pseudo- terminal</w>
pse v
provi ders</w>
proto co
protoco le</w>
prostranst va</w>
proizvol nyi</w>
proiz vodit</w>
process 's</w>
predi c
pre fixe</w>
pre dost
pre de
pozvo liaet</w>
popul ates</w>
popul ated</w>
pool er</w>
polyg on
plat forms</w>
plan es</w>
plac ed</w>
plac e_
place_ holder</w>
pi le</w>
phar ::
ph er
ph ases</w>
perspect ive</w>
person n
persist ent
permiss ion
per son</w>
pe uvent</w>
pas see</w>
parametro m</w>
param =0</w>
par cas
palab ra</w>
pagin ation</w>
pad s</w>
pack ag
p r</w>
p gid</w>
p f
p added</w>
p 2</w>
oznite lik</w>
over load</w>
ouver te</w>
ouver t</w>
out going</w>
otra s</w>
oshib ke</w>
ortho g
ordered dict</w>
or ne
or g</w>
option nellement</w>
opt imal</w>
oper ates</w>
on g
od nogo</w>
oct al</w>
obra z
obj _</w>
ob ych
o sc
o de</w>
o )</w>
num s</w>
not ified</w>
non e
no s</w>
niv aet</w>
ni m</w>
new er</w>
neur onal</w>
neigh bor
neg ate</w>
neces ario</w>
ne ut
ne ss
ne skol
nd *</w>
nachal o</w>
na /
n iz
n g
n er's</w>
mysql_ query()</w>
multi- line</w>
multi part</w>
mult il
mu estra</w>
mssq l_
most ly</w>
modu s</w>
model_ fn</w>
mo use
mo l</w>
mnogo search</w>
minim ale</w>
mini -
milli second</w>
mi entra
mientra s</w>
metam e
metame tho
met agra
memcached:: set()</w>
medi a</w>
mas que</w>
mark down</w>
man t
make -
m ust
m b</w>
l{ istream
lual_buffer )</w>
loop back</w>
long est</w>
log o</w>
log (
local s</w>
load _
lit t
lin eno</w>
limp ia</w>
lik te</w>
lic en
ler inin</w>
left most</w>
le ap</w>
laz y
lan z
lag range</w>
la b</w>
l' observateur</w>
l' expression</w>
l f</w>
l as
kum es
kt en</w>
kop yal
kop iiu</w>
konkret nyi</w>
kler ini</w>
kler i</w>
kl ug
kl ari</w>
kayn ak</w>
k ro
k ip
juli an
jo y
je des</w>
j el
jel ly</w>
izobrazh enii</w>
izmen eniia</w>
iv e-
item _
islev leri</w>
ishch et</w>
is che</w>
ir is</w>
ion ne</w>
invol ved</w>
interval =10</w>
intern ed</w>
intern al
inser e</w>
input_ fn</w>
initi ally</w>
indi sini</w>
in- sample</w>
in u</w>
in file</w>
in equality</w>
import ant</w>
imp l</w>
iler in</w>
ile ti
il an</w>
ident ities</w>
ident ica</w>
iavli aiutsia</w>
i ye</w>
html -
hor mis</w>
hiperbo lico</w>
he def</w>
habil ita</w>
h w
gse 2</w>
gre en</w>
gr up</w>
gr is</w>
gonder ir</w>
go od
gir di
get /
gd 2</w>
gaus s-
g zi
g lir</w>
g if</w>
g ates</w>
g ar
g a</w>
funcion al
fuhrun g</w>
flush ing</w>
fix ed
fir ma</w>
fin ding</w>
filter iterator</w>
fig ur
fi jo</w>
fast a</w>
far be</w>
fan g</w>
fact eur</w>
f write()</w>
f est
f all</w>
extra ct
exp orte</w>
exp ire</w>
exist ence</w>
ex hau
ex e</w>
event ually</w>
etab lit</w>
estableci da</w>
environ ments</w>
environ ment
entsp richt</w>
en nogo</w>
en laz
en de
empl o</w>
embedd ings</w>
em b
el io
ekzempli ar</w>
ekl ent
ejecut ada</w>
e wo
e reg
e io_
e h
e g</w>
e debug</w>
duzen li</w>
dut y</w>
dur ch
dru go
dom attr</w>
doct est</w>
dock er</w>
do min
do gr
dlin u</w>
diz in</w>
dist ribu
dispatch es</w>
discar ded</w>
dis jun
dis covered</w>
dis able
direktori i</w>
direct ement</w>
diff ers</w>
di v
di rig
determin ar</w>
det ach</w>
destru ye</w>
deskript ora</w>
design ated</w>
desc rit
desc ending</w>
des activa</w>
delan te</w>
defin ite</w>
decl ares</w>
de xception</w>
de ste
de sh
de kodi
de flate</w>
de codifica</w>
de b
datetime ::set
date /
data _
d' informations</w>
d' ent
d' autres</w>
d' acces</w>
d io
d eni
cycli c</w>
cut s</w>
cur l-
cu be</w>
cozum ler</w>
cor ners</w>
convol ve</w>
conver sions</w>
conv ent
consi der
confli ct</w>
config s</w>
con sensus</w>
con ci
comple tes</w>
comple ter</w>
commut ative</w>
commit ()</w>
com enz
com ent
color map</w>
col li
cocu k</w>
co-rot ina</w>
co ver</w>
co la</w>
clo ud</w>
clean ing</w>
classifi es</w>
circu it</w>
cipher text</w>
chromo some</w>
chis len
checkpoint interval=10</w>
chain es</w>
ch ing</w>
ch er
cer ts</w>
cent ro
cent re</w>
ce vi
case- insensitive</w>
cas se</w>
car tan</w>
cap ability</w>
cap abil
capabil ities</w>
can ce</w>
can 't</w>
cambi ar</w>
calis an</w>
calend rier</w>
cabec eras</w>
ca used</w>
c ras
c data</w>
byte string</w>
byte code</w>
by -
butt on
broadcast able</w>
boun ded</w>
bir likte</w>
bin aria</w>
bel li</w>
be ach
batch ed</w>
baslat ir</w>
baslang ic</w>
bas ada</w>
balan cer</w>
balan ced</w>
ba ren</w>
b zip</w>
b ru
b est
b ert</w>
b b</w>
ay ic
ay a</w>
aver aged</w>
auf ger
att end</w>
att ained</w>
ator 's</w>
at "</w>
as ks</w>
arg s)</w>
are as</w>
ar r</w>
ar bo
ap i_
anter io
anot a</w>
ang led</w>
an s
an fang</w>
an deren</w>
an c
an aliza</w>
am elio
alisi ert</w>
ale atori
al to</w>
al l_
al l-
al i</w>
ag u
adj un
ad vice</w>
ad ores</w>
ad min
accept_list_ item_
ab sent</w>
ab c</w>
a_ n</w>
a um
a ql</w>
a is</w>
_get obj_</w>
__ str__</w>
__ set
__ repr
__ ,</w>
_ un
_ to_
_ seq</w>
_ p
_ key
_ 0</w>
] [,</w>
@ doc</w>
= ?
: obj</w>
: document</w>
: args</w>
9 6
8- bit</w>
8 0</w>
4- tuple</w>
3- tuple</w>
3- d</w>
3 6
1 1</w>
00 :
0 .
. e</w>
. .</w>
- >
- -></w>
*r nd*</w>
( if</w>
( as</w>
' x
& quot</w>
" ),</w>
! !
関 係</w>
違 い</w>
連 付け</w>
表 記</w>
矩 形</w>
現 れる</w>
特 殊</w>
構 文</w>
描 き</w>
応 答</w>
復 元</w>
強 制</w>
対 数</w>
問い合 わせ</w>
同 期</w>
出 現</w>
修 正</w>
仮 想</w>
中 身</w>
レンダ リング</w>
レ イ</w>
ライ ン</w>
ラ ンダ
メン バ</w>
マ ネ
ポ ー
ボタ ン</w>
プロキ シ</w>
ブ ロ
フィール ド
ファイル ディスクリプタ</w>
ディレク トリ
テ ン
ダイア ログ</w>
ダイ ジェ
ダイジェ スト</w>
ソケ ット
シ ミュレート</w>
クロー ズ</w>
クス ポート</w>
オー バー
オ ン</w>
エ クスポート</w>
ウ ェ
インデ クス</w>
アン パック</w>
アノテー ション</w>
ア ウト</w>
に おい</w>
た い</w>
~ kivy</w>
zu let
zulet zt</w>
zu fal
zei len</w>
zapro sov</w>
zam an</w>
zadan noi</w>
z_ len</w>
z we
yer ine</w>
y ol
y en</w>
y /
xsltprocessor ::
xsltprocessor:: import
xsltprocessor::import styleshe
xsltprocessor::importstyleshe et
xsltprocessor::importstylesheet ()</w>
x_ j</w>
x_ 0</w>
x y</w>
x l</w>
wt- tree</w>
wled ge</w>
with -
wi shar
wishar t</w>
wer ten</w>
we is
w all</w>
vy vodit</w>
vor komm
vo id</w>
vkhozhd eniia</w>
visu als</w>
visi t</w>
virtu al
vergleich t</w>
ver ir</w>
variable _key</w>
var y
value '</w>
v remen
v m
utili se
ut f
user _
us arse</w>
urllib 3</w>
uret ir</w>
ur ov
ur is</w>
untersch ied</w>
unicode }</w>
ung s
un sc
unsc rup
unscrup u
unscrupu lo
unscrupulo us</w>
un load</w>
un ica</w>
un daki</w>
um geb
um ge
ul ter
ul d
u sele
u cao</w>
tt l</w>
tse lo
tru e/
tro pic</w>
transi ent
tra ding
tra d
topo logical</w>
tol=1e- 6</w>
tol ko</w>
to uch
to u
to index</w>
time series</w>
time of
time del
ti ff</w>
throw errno
thres holds</w>
thread local</w>
thread 's</w>
threa did</w>
tho ugh</w>
th re
th on</w>
tf decorator
tfdecorator -
tfdecorator- aware</w>
termin ating</w>
tensor array</w>
templ ate
te ch
tc l</w>
taniticis ina</w>
tak im</w>
tag }</w>
table aux</w>
t s()</w>
t on</w>
t mp
t m
t l
t al
t act
syn tact
sy base_
susp ends</w>
surv ival</w>
super visor</w>
suf fixes</w>
succe ed</w>
sub mitted</w>
su z
stro koi</w>
stri pping</w>
stri o</w>
stdo ut
station xml</w>
stat ement
standardiz e</w>
stan ding</w>
st ick</w>
ssy la
ss a</w>
ss ()</w>
srav nivaet</w>
splfile object
spet si
soport ados</w>
son ra</w>
sokhrani aet</w>
sok et
so v
so lic
sm agick</w>
slo w</w>
slic ing</w>
sinif i</w>
simul ate</w>
simpli fication</w>
sikist ir
si ras
si k</w>
si ded</w>
shif ts</w>
sh orter</w>
sh el
server u</w>
sent ence
se vi
se ssi
se ment</w>
se in
se gu
se d
se ction
schem enode</w>
sch nit
scan ner's</w>
scal er</w>
say s</w>
sa y</w>
s v</w>
s g</w>
s able</w>
run _
ru le
ru iushch
rr or</w>
roll ing</w>
ro utes</w>
ri sch</w>
ri ed</w>
rgb a</w>
rewind dir()</w>
retur n
ret our</w>
result ()</w>
rest a
respon sible</w>
resid ues</w>
res ampl
replac ements</w>
ren t</w>
ren ders</w>
relay ed</w>
relationsh ips</w>
regres sion
registra das</w>
reflection parameter</w>
reflection extension</w>
refle j
refin e</w>
ref lex
recursiv et
recursivet ree
recor d_
reci ente</w>
reason able</w>
real 1</w>
real 0</w>
re pos</w>
rb_ define_
raz biraet</w>
r s
r or</w>
r b-
quanti z
qu i
pt y</w>
pseudo- random</w>
proto ko
prot iv
proport ion</w>
proporcion a</w>
prom pting</w>
program me</w>
produc ing}</w>
probab i
probabi list
pro pos</w>
privile ge</w>
prim it
prim ario</w>
pretty- printing</w>
preser ving</w>
pres um
prep ends</w>
preg_ replace()</w>
predic ates</w>
prede cess
precision @k</w>
preci se</w>
post f
postf ach</w>
pos n</w>
por table</w>
pomoshch i</w>
polzovate lem</w>
poly morph
po ols</w>
po khozh
pl ural</w>
pl /
pkcs# 12</w>
pix map</w>
pict ure</w>
phylo gen
php .ini</w>
pher ique</w>
pg_send_ execute()</w>
perm is
permis sible</w>
peri pherique</w>
pe ek</w>
path way</w>
path names</w>
parser s</w>
parenthe ses</w>
pami at
pa ired</w>
p yp
p rend</w>
p le
p ec
p d</w>
over all</w>
out standing</w>
out line</w>
out come</w>
orti ruet</w>
orthog onal</w>
orden acion</w>
or bit</w>
or ator</w>
oper ador</w>
op posed</w>
one- dimensional</w>
on tanimli</w>
ol der</w>
oct et</w>
obraz om</w>
object stream
object #
obek tom</w>
ob serve</w>
o i</w>
no such
no op</w>
new -style</w>
net work
ne u
ne es</w>
nb sp
na/ null</w>
n- dimensional</w>
n te</w>
n p
n im
n i</w>
n ent</w>
my self</w>
multip le
multi set</w>
msg_ number</w>
mo vi
mo ve
min usculas</w>
min instance
mininstance sper
min dex</w>
metatab ela</w>
metagra ph
met ry</w>
memory in
medi um</w>
may or</w>
max memoryin
mac ro
ma pe
ma k
m x</w>
m si
m m
m ises</w>
l{url path}</w>
l{ co
lua_ integer</w>
look up
logarith mic</w>
local time</w>
load fromstring()</w>
list 2</w>
list -like</w>
lik ely</w>
libe v</w>
lib r
li klar
li ft</w>
ley en</w>
le ts</w>
le i</w>
lar in</w>
lang e</w>
la w</w>
la ve</w>
l' on</w>
l' affichage</w>
l zf</w>
l 2</w>
kt sii</w>
kopyal ar</w>
kon strukt
kon figur
kon ets</w>
kom pi
kom and
kliuch ami</w>
kl am
ker ber
kerber os</w>
kee ps</w>
ke it</w>
ke gg</w>
kazh do
kayn ag
k ucu
k not
k l</w>
k im</w>
k ier</w>
k af
just ified</w>
json -
jo e</w>
j os</w>
j in
ival ent</w>
iti es()</w>
iterat ively</w>
it ect
itect ure</w>
ist ic
issu ed</w>
iss ion</w>
iso tropic</w>
iri m</w>
invo car</w>
integ rat
int ere
instanti ation</w>
input_ tensor</w>
inner hal
innerhal b</w>
influ ence</w>
indic ado</w>
indek se</w>
ind ent
incre ase</w>
inclu de
in spection</w>
in sensible</w>
in compatible</w>
imp orte</w>
image color
il o</w>
il ar</w>
ik il</w>
ig u
identifi ee</w>
identifi e</w>
ident ich
ic ag
icag irim</w>
i- th</w>
i reactor
i ento</w>
i )</w>
hypo the
hyperbo lique</w>
html special
html ent
htmlent ities()</w>
host names</w>
horizont ally</w>
ho li
her mit
header ()</w>
he av
hdu s</w>
hash -
h ints</w>
h at</w>
grup py</w>
groβ e</w>
group ed</w>
gro wing</w>
graphic smagick</w>
graphic s-
gra y
gra v
gra fic
gra b</w>
goster im
glob als</w>
gib idir</w>
get timeof
gest ion</w>
ger icagirim</w>
geometry entity</w>
ge maβ</w>
g z
g lo</w>
g aps</w>
fut ure
funktion s
function graph</w>
funcional idad</w>
fun ctor</w>
fro mindex</w>
fra ctions</w>
four ni
fon do</w>
fol ding</w>
fix num</w>
fir ing</w>
fin d_
filenam e
file handle</w>
fetch_ array()</w>
fetch ing</w>
f y_
f ring
f q
f ence</w>
f dist</w>
f c
f (
f '</w>
eylem ci
extra e</w>
exo genous</w>
exit o</w>
exist iert</w>
exi stante</w>
exec ucao</w>
ex pr
ex og</w>
ewo c</w>
eval -
ev ::
est ilo</w>
especific adas</w>
es ki</w>
err back</w>
ergebnis menge</w>
er sten</w>
er ate</w>
envoy er</w>
enumer ates</w>
enumer ate</w>
entsprech enden</w>
end -of-
encript a</w>
encode ()</w>
en in</w>
emit ter</w>
elast ic
el o</w>
el b</w>
ejecut ado</w>
ej emplo</w>
eintra g</w>
effici ent</w>
edi len</w>
ed error</w>
ed /
e v</w>
e space</w>
dra pe
dot ted</w>
dosy asini</w>
dopustim om</w>
divi sors</w>
direct ion
die ser</w>
diccion ario</w>
di a</w>
devol ver</w>
determin ado</w>
det ects</w>
det ected</w>
des sen</w>
dep ur
degistirge si</w>
defin idos</w>
deca y</w>
de compose</w>
de be</w>
db resultset</w>
datensat z</w>
datab ase
data /
dat e()</w>
d' execution</w>
d va</w>
c{ l{
cy thon</w>
curs ors</w>
cu enta</w>
cu bic</w>
ct ive</w>
cri a</w>
correspon da</w>
copy right</w>
conver ter</w>
conver gence</w>
contains object</w>
consist ency</w>
config _
conci se</w>
con cer
con ce
compos es</w>
comport a</w>
compli ant</w>
compar able</w>
comp lement
commut ation</w>
com p</w>
column 's</w>
color 's</w>
co ord
co k</w>
clic k</w>
cli ps</w>
class name</w>
ci er
cht eniia</w>
chro ne</w>
choo ses</w>
cho isi
ch ed</w>
cevi rir</w>
certific ado</w>
cap able</w>
canonic alize</w>
camb ios</w>
calcul ations</w>
cach enode
cabec era</w>
c to</w>
c en</w>
c ++</w>
byte a</w>
buyu klug
bufer a</w>
break point</w>
bran ches</w>
bor de</w>
boole ans</w>
boo k
bl ur</w>
bl ack</w>
bit wise-
bit set</w>
bind ()</w>
biject or</w>
big -
belir til
be red</w>
bbcode_ create()</w>
base 64-
bas ic
bar rier</w>
back ing</w>
b s</w>
b io</w>
ayar lar</w>
aufger ufen</w>
attr s</w>
attr ()</w>
ativ a</w>
at ed_
asy m
as set
as k
array object
arct ang
arch itecture</w>
arbo l</w>
ar t</w>
app s</w>
app end()</w>
ap pro
annot ated</w>
analy ze</w>
ana dir</w>
ana di
an si</w>
an nyi</w>
an ge
an frage</w>
alph a
aliz able</w>
alig ne
al way
al one</w>
al ign</w>
al go</w>
akt ar
aggreg ation
aggreg ated</w>
affin e</w>
advert encia</w>
actu ales</w>
absol ut
abfrage ergebnis</w>
a a
__ del
_ value</w>
_ set_
_ *</w>
\ fra
[x _0</w>
[ ]</w>
[ 1</w>
= true)</w>
= 2</w>
; &</w>
:: soap
: ref</w>
: context
86 01</w>
4 0
39 86</w>
3 1</w>
2 /
1 8</w>
0. 0</w>
0 '</w>
// www</w>
/ 2</w>
- set</w>
- dependent</w>
* argz</w>
) ;</w>
( t</w>
'other '</w>
! =</w>
! )</w>
項 目</w>
限 り</w>
閾 値</w>
配 置</w>
複 製</w>
表 さ</w>
行 っ</w>
背 景</w>
絶 対</w>
秒 数</w>
添 字</w>
水 平</w>
検 証</w>
最 も</w>
替 え</w>
指 数</w>
持 続</w>
成 功</w>
強 い</w>
平 方
境 界</w>
垂 直</w>
呼 ぶ</w>
取り 消し</w>
反 転</w>
区 別</w>
区 切り</w>
代 替</w>
中 心</w>
一 致</w>
ン ダ</w>
ン ス
レー ション</w>
リン グ
リモ ート</w>
リ ウス</w>
ランダ ム</w>
ライ ド</w>
ラ ベル</w>
ユ リウス</w>
メッセ ージ
ベ ット</w>
フラ ッシュ</w>
フォ ント
ヒ ストリ</w>
バッファ リング</w>
バイト コード</w>
トーク ン</w>
テ スト
チャン ネル</w>
チ ャ</w>
タ ブ</w>
ステ ータ
サンプ ル
キー ワード</w>
イベント ループ</w>
アルファ ベット</w>
ア レイ</w>
め る</w>
に まだ</w>
な し</w>
す で</w>
あ ら
} }</w>
zus am
zugri ff
zugriff s
zapro se</w>
zadach i</w>
za kodirovan
z }
z ust
z p</w>
z h</w>
z at
yaz i</w>
yapil an
y ou
y l
y eni
y ak
y ="
x_{ k-
x y
wor d_
wid ths</w>
wh ile
wh ence</w>
well- formed</w>
w ol
w ants</w>
vy e</w>
vor han
vorhan den</w>
vo table
vincul a</w>
verschi ed
veritaban i</w>
verbo sity</w>
ver schlussel
ve y
var name</w>
value 2</w>
valu es
valu ation</w>
validat ed</w>
v t_
v atel
uzer inden</w>
utiliz ado</w>
utf- 7</w>
utf- 32</w>
ut s</w>
user- supplied</w>
usele ss</w>
univer sal</w>
uniform ly</w>
uni x
uni kal
un like</w>
un jelly</w>
un interruptible</w>
un escap
umb er</w>
ulter ieure</w>
ukazan nuiu</w>
ub ic
u le</w>
u ,</w>
type error</w>
tuple space</w>
tu key
trun cation</w>
trigg ers</w>
traver sing</w>
transp ort
transfer -
trans lat
trans action()</w>
tra cks</w>
tou jours</w>
token 's</w>
to ward</w>
ti s
ti de</w>
theoret ical</w>
theo rem</w>
ter me</w>
tensor _
tem per
te il</w>
te ar
tar ayic
table -
t- test</w>
t var</w>
t u</w>
t cl
t ari
t 2</w>
t 1</w>
t )</w>
synchron izer</w>
symbo lique</w>
symbo li
sw f</w>
substitut ing</w>
substitut ed</w>
substit ute</w>
subscrib ed</w>
sub query</w>
sub mit</w>
sub expression</w>
sub array</w>
su stitu
su et</w>
stro king</w>
str f
str cmp
strcmp ()</w>
stocke e</w>
stochast ic</w>
ste ep
state exception</w>
stat ique</w>
stat ions</w>
stat e-
stab ili
st ven
sqlsrv_ begin_
sqlsrv_begin_ transaction()</w>
specifi ees</w>
speci alization</w>
spec ies</w>
spat h</w>
sparse series</w>
spa wn</w>
sov pad
sorti rovki</w>
sorti ert</w>
solicit ado</w>
solicit a</w>
sok eta</w>
so met
so li
so f
sluch ain
slo ts</w>
sko go</w>
ski pping</w>
sk ip
sk en
sing le
simbo lico</w>
sim vol
sig il</w>
si endo</w>
short -
shif ting</w>
sha 1</w>
set zen</w>
set up
session -
server -
server 's</w>
sertifi ka</w>
sens or</w>
sens it
sen der</w>
semi -
self ,</w>
sco rer</w>
schri eb
schlussel s</w>
scan ()</w>
sc en
sc 3
sc3 ml</w>
say i</w>
san ity</w>
s= false</w>
s mar
s light
slight ly</w>
s ?</w>
rypt _
run ning
ron ec
ro und
ri suet</w>
ri dad</w>
rever t</w>
retro llamada</w>
request -
rep ras
rep lica</w>
remove _
reguli ar
registri ert</w>
regist r</w>
region 's</w>
reference frame</w>
referen t</w>
referen cing</w>
recor ding</w>
receiv ers</w>
rec v
read object</w>
read dir()</w>
rea ction</w>
re ste</w>
re set
re p</w>
re order</w>
re implemented</w>
re an
ras es</w>
ra c</w>
r c
quick prop</w>
quick ly</w>
qu bit</w>
q graphic
py xl</w>
pun tos</w>
publi sh
ps_ lin
ps_lin eto
ps_lineto ()</w>
ps_ begin_
program my</w>
process ing
processing instruction</w>
proce dimi
problem s</w>
pro fon
profon deur</w>
pro file
prim es</w>
pres entes</w>
predetermin ado</w>
preced ente</w>
pre fixed</w>
pre du
pp sd</w>
posle do
posledo vatel
poluch it</w>
pod kliuch
po kho
pokho zh</w>
pla u
pip ed</w>
pickl able</w>
pick le
phylo xml</w>
person aliz
perm .
peredan noi</w>
peredan nogo</w>
per mi
per l</w>
pe p</w>
pass words</w>
pass ive</w>
pas ser</w>
partic le
part ag
partag ee</w>
parse _
paramet r</w>
par ab
pamiat i</w>
pa jar</w>
p tic</w>
p print</w>
p layer</w>
p cos</w>
p b</w>
p ::
p (
oz ellig
oz elli
ow ned</w>
ov a</w>
out ine</w>
otur um</w>
ot no
osno ve</w>
or ange</w>
or 's</w>
opre de
oper atsii</w>
open pyxl</w>
opa que</w>
one- line</w>
one bit</w>
olus an</w>
old- style</w>
ob kho
o vi
o s-
o mitted</w>
num bered</w>
nul l-
nucle o
nosuch element
nosuchelement exception</w>
non- default</w>
non terminal</w>
nomb rado</w>
node _
no me</w>
net works</w>
ness -of-
name )</w>
nachal a</w>
nach ste</w>
n elle</w>
n curses</w>
n ativ
n ar
n \
n )</w>
my _
multiplic ities</w>
multi- dimensional</w>
msg_ perm.
more like
morelike this</w>
mongo db</w>
mongo collection
mongocollection ::
mon day</w>
modu los</w>
mit er</w>
miss ion</w>
minimiz e</w>
minim al
midd le</w>
midd le
method /
metatab la</w>
metagraph def</w>
meld ung</w>
medi o</w>
mean ing
maxiter =1
maxiter=1 00</w>
max imiz
max -
mark ers</w>
man ually</w>
man u
man age</w>
mag ic_
ma- separated</w>
ma p-
ma ine</w>
m type</w>
m time</w>
m its</w>
m ented</w>
m alloc</w>
l{ it
lx c</w>
lu a-
lo ops</w>
lo m</w>
lo m
linear ly</w>
linear class
linearclass sifier</w>
libr aries</w>
lib re</w>
li sible</w>
li p</w>
li ers</w>
li ens</w>
len ec
le ver
le ve</w>
le lement</w>
ld ap
lap lace</w>
la quelle</w>
l' agent</w>
kutus u</w>
kullanil abilir</w>
kotor om</w>
kor outine</w>
konverti ruet</w>
kompi li
komment ari
kommentari i</w>
kodi erung</w>
kod lu</w>
ko sinus</w>
knot en</w>
kernel #
ke yp
ke pt</w>
kat alog
kaf ka</w>
k ronec
k ol
k ir</w>
k host
khost a</w>
k ak
jum p</w>
joy stick</w>
jin ja
izvle kaet</w>
item )</w>
it akh</w>
issu er</w>
iso-8859 -1
islev inin</w>
islev in</w>
islem i</w>
isle vi
iskliuch enie</w>
ir reduci
ion error</w>
intern es</w>
intercept =true</w>
inter sect</w>
inter fe
int rans
instan ci
install ation</w>
ins inden</w>
inici aliza</w>
ing_ box</w>
ing- system</w>
inform atsii</w>
infin it
independ ence</w>
indek som</w>
ind ented</w>
increment ally</w>
inclus ion</w>
incl us</w>
in validate</w>
in correct</w>
implement a</w>
imp orter</w>
immedi at
immediat ement</w>
ime et</w>
imagick ::
imagecolor alloc
imag es
im uth</w>
illegal stateexception</w>
ilisk ili</w>
ilisk il
iler i</w>
il er</w>
if -
identich na</w>
ident ity
ident isch</w>
id }</w>
ic c</w>
i k</w>
i endo</w>
i em</w>
hyper parameters</w>
htt ps</w>
htmlspecial char
htmlspecialchar s()</w>
ht m
ho ok
histo grams</w>
hist ori
heter o
he at
hd f
happ ens</w>
hal ten</w>
h u
h sp
h o</w>
h an</w>
h _
gul tig
green wich</w>
graphics- device</w>
gra dos</w>
good ness-of-
go to
go og
gm m</w>
gir di</w>
get irir</w>
get image
ger i</w>
ger ce
geo queryset</w>
gen ut
gem spec</w>
ge sendet</w>
ge os</w>
g u</w>
g ot
g or
g au
gau che</w>
g al
fus ion</w>
fu era</w>
fu entes</w>
from clause</w>
fro zen</w>
frequ ence</w>
fre e-
fra ccion</w>
fq dn</w>
fourn is</w>
forwar ding</w>
fol low</w>
flu xo</w>
flo or</w>
fit intercept=true</w>
filter name</w>
file }</w>
file obj</w>
fil tres</w>
fil l_
fi res</w>
fi re
fi c</w>
fel der</w>
featu resets</w>
fb sql</w>
fat al</w>
failo voi</w>
factory }</w>
factori al</w>
fa ult</w>
fa ke</w>
f st
f ns</w>
f k
f ed</w>
extern alizable</w>
exp licit
exclus if</w>
ex posed</w>
ever y
event_ base</w>
event accumulator</w>
eval _
et u</w>
error_ handler()</w>
error }</w>
err o</w>
ergeb nisses</w>
equal ities</w>
envi ar</w>
enumer able</w>
entity reference</w>
enti ere</w>
ent ran
ent ifi
ent era</w>
ens uring</w>
enregist rements</w>
eni dos</w>
end points</w>
en noi</w>
emple ando</w>
em ente</w>
element en</w>
elast ic</w>
el les</w>
ekran iruet</w>
einzel ne</w>
ei sia</w>
ei o</w>
egro up</w>
eff ac
echan til
eas ily</w>
ear th
e_ name</w>
e- time</w>
e ul
e lect
e big
dro po
down loaded</w>
dosy asina</w>
dom xpath</w>
dom processinginstruction</w>
dom entityreference</w>
dom comment</w>
dol zh
do maine</w>
diz inin</w>
diz in
divi d
disp os
dis connects</w>
dis connected</w>
direct ional</w>
direct ed</w>
dict }</w>
dict -like</w>
dibu jo</w>
devi ations</w>
dev ic
descriptor }</w>
descript ive</w>
descend ants</w>
der lenmis</w>
deno tes</w>
demonstr ates</w>
delete ()</w>
delay ed
degisken leri</w>
deger lerini</w>
deg res</w>
deg isi
decre asing</w>
decor ate</w>
declar ations</w>
dec rypted</w>
de z
de serializes</w>
de serialization</w>
de serializ
db ++</w>
datet imes</w>
datensat ze</w>
datas um</w>
datafram es</w>
dat u</w>
dat ein
dat ac
datac enter</w>
d' octets</w>
d' objets</w>
d' images</w>
d' elements</w>
d' activation</w>
d adas</w>
d ?</w>
c{ self}</w>
c{ name}</w>
cu er
cs c</w>
crypt o
cor ri
coordin ator</w>
conv 2d</w>
contro le</w>
contra ste</w>
contr as
contras ena</w>
continu ed</w>
continu ation</w>
consum e</w>
constan tes</w>
connect or</w>
connect _
confir m</w>
comprob ar</w>
compres se</w>
compr is</w>
compr im
comple x
compi le-
compar ti
comp an
commenc ant</w>
coment ario</w>
com ma-separated</w>
coinci den
codo ns</w>
codific ada</w>
code object</w>
co uple</w>
co seno</w>
co d
close dir()</w>
clock wise</w>
clo ud
cli pping</w>
classifi ed</w>
class method</w>
class 's</w>
clas s-
cir cum
cikt ilar</w>
cifra do</w>
ci zer</w>
choisi t</w>
cho sen</w>
cho ic
chiff rement</w>
check ers</w>
chan nel
ch db</w>
cent ric</w>
ce il
ce _
cas cada</w>
calend arg
calendarg et
c ru
c insinden</w>
c are</w>
bund les</w>
bul ur</w>
buk ven
buil der
bud ut</w>
brack et</w>
boy ut
box ed</w>
bound ing_box</w>
boo t</w>
bolsho i</w>
bol d</w>
bo to
bo ol
bo ard
blan co</w>
bitwise- logical</w>
bit -string</w>
bind ing-
bi ased</w>
betig in</w>
bet ter</w>
bet im
beli ebig
beg intrans
beach ball</w>
be am</w>
bas liklar
back track
back propagation</w>
ba zu</w>
ba zo
ba g</w>
b m</w>
b io
b id
b i</w>
b )</w>
az imuth</w>
aver tis
auto_ increment</w>
auto ur</w>
auto load</w>
aus fuhrung</w>
au c</w>
att ention</w>
asynchrono usly</w>
as no</w>
as king</w>
arg -
are n</w>
are d
arctang ent</w>
ar ri
ar it
ar cl
approxim ately</w>
appro ach</w>
appel ant</w>
app_ label</w>
app els</w>
app ed</w>
apar icion</w>
ap c
ap ach
an weis
an dos</w>
an do
am ino</w>
almacen ado</w>
almacen ada</w>
allow _
ale ator
ai de</w>
aem yi</w>
advan ce
activ ations</w>
act if</w>
access ing</w>
able set</w>
able )</w>
abier ta</w>
abbrevi ation</w>
ab s
ab ort
ab ili
ab e</w>
a a</w>
a 1</w>
_ scope</w>
_ open</w>
_ l
_ get</w>
_ data
_ code</w>
] [
\mathbb{ z}
[ [
= false)</w>
:context #
: /
96 5</w>
6 1</w>
3 6</w>
25 5</w>
200 9</w>
2 965</w>
2 4
2 *
1 st</w>
1 00</w>
1 '</w>
/ /</w>
. com</w>
- rpc</w>
- list</w>
- file</w>
* ]</w>
( x**
( using</w>
( s</w>
( from</w>
( for</w>
( -
' name'</w>
' c
$ this</w>
順 序</w>
音 声</w>
間 隔</w>
開 い</w>
進 数</w>
通 し</w>
起 動</w>
許 可</w>
記 述</w>
言 語</w>
解 除</w>
規 則</w>
精 度</w>
等 しい</w>
示 し</w>
確 認</w>
確 保</w>
直 前</w>
番 目</w>
段 落</w>
最 終</w>
明 度</w>
方 式</w>
改 行</w>
提 供</w>
応 じ</w>
平方 根</w>
安 全</w>
外 部</w>
基づ き</w>
含 ん</w>
同 じ
受 け</w>
参 照
効 果</w>
共 通</w>
入 れ</w>
作 る</w>
代 入</w>
互 換</w>
事 前</w>
並 べ</w>
上 書き</w>
一 度</w>
ー オブジェクト</w>
ロ ケール</w>
ル ート</w>
リ ダイ
ラ ッ
ユーザ ー
マルチ バイト</w>
マネ ージャ</w>
マ イ
ポ ジ
ペ イ
ペイ ロード</w>
ヘ ル
プロ シ
プロシ ージャ</w>
プ ッシュ</w>
ファク トリ</w>
ファク トリ
ファイ ンダ</w>
パー ザ</w>
パ イ
ハ イ
ネ レータ</w>
トレース バック</w>
デフォル ト
テーブ ル
ック ス
ッ プ
ッ ド
タイム アウト</w>
ゼ ロ</w>
セ ス
セ カ
セカ ンダ
ステータ ス</w>
スタ イル</w>
スクリ ーン</w>
ス コ
スコ ープ</w>
ス ク
ス キー
ス キ
ジェ ネレータ</w>
コード オブジェクト</w>
コマ ンド
グ ラ
クラス メソッド</w>
カレ ント
カレ ンダー</w>
カ スタ
カ ウ
オーバー ライド</w>
イン スト
ア ン</w>
を 通し</w>
わ す</w>
も つ</w>
の で</w>
に関 連付け</w>
に し</w>
と 似</w>
つ め</w>
た すべて</w>
それ ら</w>
、 (</w>
znacheni iami</w>
znacheni i
znach eniem</w>
zh est
zer tifi
ze il
zaversh eniia</w>
zap ushch
zap is</w>
z mq</w>
z 39
z39 .
z39. 50</w>
yer lest
yer le
yerle sik</w>
ye ars</w>
ye ar
yar _
yapilan dir
y min</w>
y max</w>
x min</w>
x max</w>
x 0</w>
wt- tree-
writ e}</w>
writ ers</w>
word net</w>
wor ker}</w>
wit z</w>
wi se
wi r
wal king</w>
wait er</w>
wa h
w th</w>
w ign
w ever</w>
vyz van
vy delen
vy biraet</w>
vol at
volat ile</w>
view _
verifi er</w>
ver net</w>
ve ase</w>
vari ante</w>
vari ances</w>
vari adic</w>
valu e)</w>
validat ing</w>
val ida</w>
vac ia</w>
v stro
v lib
vlib node
vlibnode ()</w>
v l</w>
v kliuchaet</w>
v 0</w>
utilise z</w>
utili ses</w>
user- specified</w>
us cri
url lib</w>
ur y</w>
ur ne</w>
ur len
upper -case</w>
uniqu ement</w>
uniqu ely</w>
uni x-
unescap ed_
unescaped_ string</w>
un subscribe</w>
un packed</w>
un install</w>
un dan
umb na
ul ti
ug ol
uck sich
ucksich tig
u h
u da</w>
tur unu</w>
tro zos</w>
tro uve
tri al</w>
traba ja</w>
tra n</w>
tr y_
tr ust</w>
top ic
token iz
to sis</w>
to pl
to m
tls compressed</w>
time tho
timetho d</w>
tim ing</w>
ti le</w>
throwerrno if
thand ler</w>
th umbna
th tt
th is
test e</w>
termin o</w>
termin als</w>
tem p</w>
tek sta</w>
te ki</w>
tar file</w>
tan gens</w>
tak vi
t d</w>
szh at
syntax e</w>
syncre ader
syncreader writer</w>
synchron ized</w>
syn chrono
symbol 's</w>
sym metry</w>
sy ch</w>
swit ches</w>
swar m</w>
sut un
sur vi
super ieur</w>
sun ucu
summ aries</w>
subsampling rat
subsamplingrat e
sub tree</w>
sub tensor
sub str
sub sets</w>
sub section</w>
sub resultant</w>
sub ject
su per</w>
su j
su be
sty les</w>
student 's</w>
struct s</w>
stroko voe</w>
stro kes</w>
string buffer</w>
string /
string #
stream }</w>
str o</w>
sto ppe</w>
ste p-
start tls</w>
stag ing</w>
st ol
stol b
ssyla etsia</w>
ssyl ku</w>
ssl socket</w>
sravn eniia</w>
sr c_
sqlit e_
splfileinfo ::
spetsi al
spect r
spatial reference</w>
sp ro
sp ans</w>
sort ()</w>
somet imes</w>
some one</w>
sol ver</w>
sol utions</w>
soedin i
socket_ bind()</w>
slo p</w>
slo ader</w>
sleduiushch emu</w>
slash es</w>
sken nung</w>
situ acion</w>
siras inda</w>
siral ar</w>
sion es</w>
sin h</w>
simple st</w>
signature def</w>
sig int</w>
sib les</w>
shuff ling</w>
shif ted</w>
sh ri
sh orts</w>
sh m
shm _identifier</w>
sh che</w>
sh a-
seu lement</w>
set_ error_handler()</w>
sessi i</w>
servic e}</w>
server _
serv ing</w>
serial numb
serialnumb er}</w>
ser best</w>
sequence -to-
sequence-to- sequence</w>
sent in
sentin el</w>
sent encias</w>
sem bo
sembo lik</w>
self [
sele c
segm ento</w>
se s
se i</w>
se g</w>
se eds</w>
se ct
sdo_ data
sdo_ d
sdo_d as_
sco p</w>
schreib en</w>
schem es</w>
schedul ing</w>
sched ules</w>
scan ned</w>
scal e_
sc arg
scarg le</w>
sc aff
say is
sav e()</w>
san iye</w>
sag lar</w>
sa g</w>
s= 32</w>
s },</w>
s so
s que
s mi
s lave</w>
s iv
s ach
s 4</w>
s (
run time
run -
row matrix</w>
rollback ()</w>
ro ug
rnn cell</w>
riv ant</w>
ri ad
rezult at
retur n_
retri es</w>
retour n
retor n
ret o</w>
resur sy</w>
response }</w>
resol ution
res izing</w>
res im
requi red
requi re
request }</w>
request ing</w>
req _identifier</w>
ren der
relac ion
rel ational</w>
regist ros</w>
regist er
reg round</w>
reg param=0</w>
reg ime</w>
refle cting</w>
ref resh
recu encia</w>
recor d()</w>
read only</w>
read ings</w>
read ers</w>
re rek</w>
re map</w>
re ih
re ach</w>
rd d's</w>
rd d
rb- tree</w>
raz lich
raw predictioncol="
rawpredictioncol=" raw
rawpredictioncol="raw prediction",</w>
ration nelle</w>
ration als</w>
ran ks</w>
radius_ get_
radi ant</w>
ra qu
raqu o</w>
ra o</w>
r ng</w>
r mente</w>
r ion</w>
r im
r ^
quant ities</w>
qu it
qu as
q pa
qpa inter
python -
pw ent</w>
pun kt</w>
pu eda</w>
pt o
proto type</w>
proto s</w>
protiv nom</w>
proteg e</w>
propri et
propriet aire</w>
proper ty-
proj ects</w>
program mer</w>
process_ request</w>
prob dist</w>
pro ve</w>
pro val
pro mp
promp ts</w>
pro le
prole ptic</w>
pro b</w>
print _
prim arily</w>
prim aire</w>
presum ably</w>
prepare d
prep end</w>
pre processor</w>
pre gun
pr of</w>
pow ers</w>
poto k</w>
post _
posle duiushch
posi x
posi cao</w>
por cion</w>
pop en()</w>
polzovate lia</w>
polymorph ic</w>
polygon ()</w>
poli cies</w>
pokhozh a</w>
pod stroki</w>
pod ri
po les</w>
ple ase</w>
plau sible</w>
pl/ sql</w>
pl ant
piec es</w>
pid d
pho to</w>
persist ence</w>
perio di
periodi cally</w>
peremen nye</w>
perbo lichesk
perbolichesk ii</w>
per met
per fil</w>
pe z
pe ar
pdo ::
pdo:: begintrans
pdo::begintrans action()</w>
pd p</w>
pd i</w>
particuli ere</w>
parent iterator</w>
parametro v</w>
param s()</w>
parab ola</w>
paqu et</w>
pal et
pad re</w>
pack er</w>
pa ire</w>
p sych</w>
p s
p ment</w>
p exp</w>
p em
p call</w>
p ,</w>
oznite ligi</w>
oz kaynag
over write</w>
over hang
out er
otur um
ot ros</w>
ot lich
osh i
oshi bo
oshibo k</w>
orig en</w>
ori se</w>
or th
or tes</w>
or m</w>
or "</w>
optimiz e</w>
opt name</w>
oper at
open _
op cion
on de</w>
on as</w>
on /
obsole te
obje k
obj s</w>
ob y</w>
o th</w>
o me
ome ga</w>
o din</w>
nx 3</w>
nucle o</w>
note book</w>
not -
normal "</w>
norm almente</w>
non- na/null</w>
noeu ds</w>
node item</w>
node =1</w>
no tim
no ps</w>
niz h
ning un</w>
nim mt</w>
ni hil
next _
new est</w>
neur onas</w>
neur ona</w>
net en</w>
negoti ation</w>
nd frame</w>
naz vanie</w>
name /
name ,</w>
nachrich ten</w>
n' existe</w>
n u</w>
n ic
mut ator</w>
multi listbox</w>
multi dimensional</w>
multi _
mul timethod</w>
mu sic</w>
mss ql</w>
msg list</w>
mov ement</w>
monoton ically</w>
mongodb \
mongodb\ driv
mongodb\driv er
mongodb\driver \
mon ths</w>
moment um</w>
modifi k
mo ments</w>
mo m
mom ento</w>
mininstancesper node=1</w>
min info
mininfo g
mininfog ain
mininfogain =0</w>
mim e-
middle ware</w>
mi kro
method/ attribute</w>
metameto do</w>
metadat a-
messag ing</w>
me j
me ij
me d
mb =
mb= 256</w>
maxmemoryin mb=256</w>
maxiter =20</w>
max depth=
maxdepth= 5</w>
max bin
maxbin s=32</w>
math ml</w>
massiv ov</w>
manti ssa</w>
manag ers</w>
man iere</w>
man do
make file</w>
mail boxes</w>
mail _
ma co
m m</w>
m h</w>
m era</w>
m atter</w>
m ation</w>
m angled</w>
l{ serialnumber}</w>
l{ int
l{int }</w>
l{ dns
long itude</w>
lom b-
lomb- scargle</w>
logic monitor</w>
log- transformed</w>
log- probabilities</w>
log- odds</w>
log like</w>
log ()</w>
lock _
local iz
lo te</w>
lo s
liu bo
litt le</w>
list ()</w>
lineari se</w>
line as</w>
lin es
lib c</w>
li f
lexico graphic</w>
lever age</w>
len ()</w>
lear ned</w>
lay er
lau f
lat in
lan ce</w>
lag -
lad t</w>
la ub
l' interface</w>
l' histori
l'histori que</w>
l' heure</w>
l' erreur</w>
l' ensemble</w>
l' arc</w>
l' apparen
l'apparen ce</w>
l' api</w>
l y_
l vl</w>
l un</w>
l um
l /
kur tosis</w>
kullanil acak</w>
kullan ilir</w>
kucu k</w>
kronec ker
kop ie</w>
kodirov ku</w>
kodirov ki</w>
kod unu</w>
ko mp
kle in
kin esis</w>
kho di
key s()</w>
key _
kazhdo go</w>
kal end
k ir
k et</w>
julian ischen</w>
juli en</w>
je do
jedo ch</w>
j d</w>
iti baren</w>
iter ated</w>
item s
ist ically</w>
ispolzov aniia</w>
iso ns</w>
islevi yle</w>
is khod
is inin</w>
iri p</w>
ir ation</w>
ipv 4-
ion ally</w>
io ref</w>
invol ving</w>
introdu ced</w>
interpol ated</w>
inter ro
inter ior</w>
inter fac
inter base</w>
integr and</w>
int _
instanti ated</w>
instan t</w>
init _
inherit ed</w>
inherit ance</w>
ingres_ query()</w>
ing le
infer red</w>
infer ieur</w>
index e</w>
in variants</w>
in validates</w>
in pu
in medi
in fl
in ess</w>
in ear
in du
in corp
in complete</w>
in ception</w>
in as</w>
in active</w>
imp lic
imp l
im li</w>
iliskil endi
iler ini</w>
ig en</w>
ifa de</w>
id s=false</w>
id na</w>
id ing</w>
ic al
i ya</w>
i len</w>
i kin
i dem
idem pot
hyper search</w>
hub ble</w>
ho wever</w>
hist ory
hil bert</w>
high light</w>
hi jo</w>
heav y</w>
he dro
hedro n</w>
he b
he al
haz ir
hat anin</w>
hash map</w>
hac er</w>
ha y</w>
h yp
h uff
h ue</w>
h its</w>
h en
h em
h aut
haut eur</w>
h am
h 2
gu ess
gro wth</w>
gro und
gray scale</w>
graph ique</w>
graph ically</w>
grafic o</w>
gradi ent
goodness-of- fit</w>
gm py's</w>
glob ally</w>
glob ale</w>
glob al_
gle ich</w>
gi perbolicheskii</w>
get -
geomet rical</w>
geo graphic</w>
generic -
generic- procedure</w>
gener ador</w>
geb en</w>
gd al
gaus sian
gal ax
ga th
g lo
g ate
fut ures</w>
fun ptr</w>
fun g</w>
ful l_
fu er
fst ab</w>
freq dist</w>
free- form</w>
free ze</w>
fram erate</w>
fram e's</w>
formul ario</w>
format _
foreign key</w>
fore ver</w>
for tran</w>
fonction nellement</w>
fon t()</w>
fol dl</w>
fo reground</w>
finger _tree</w>
find ()</w>
finaliz e</w>
fin fo
fin ally</w>
file 1</w>
field_ name()</w>
field name</w>
fi red</w>
fget ss()</w>
fetch er</w>
fer mi</w>
feature_ columns</w>
fbsql_fetch_ array()</w>
facil it
fa ir</w>
f- test</w>
f recuencia</w>
f ps</w>
f en
f close()</w>
f 5-
f ,</w>
expi ry</w>
exp iration</w>
exp and
exhau sted</w>
execut er</w>
execut ee</w>
execut ables</w>
ex tran
ex c</w>
event buffer</w>
even thtt
estableci das</w>
est ar</w>
ess entially</w>
ess a
essa ie</w>
esc uch
er weiter
er ste</w>
er setzt</w>
er laub
equival encies</w>
envi ron</w>
env z</w>
ent rant</w>
ent ered</w>
ent _
eni iu</w>
eni endo</w>
eng in
endro it</w>
endro gram</w>
en noe</w>
en han
en der</w>
empt y
em ulate</w>
em on
eleman lar
eleman i</w>
elem s</w>
el er</w>
ek v
ek sp
ej e</w>
ein fo</w>
eff ekt
ef s</w>
ed sh
eag erly</w>
e z</w>
e specifi
e speci
e lev
e .
du yar
du al</w>
dropo ut</w>
dro p
dra w_
dr s</w>
dr b</w>
doub le
domdocument fragment</w>
dizge sine</w>
dizge sel</w>
diver ses</w>
div __</w>
distingu ish
disposit ivo</w>
display -
disp lac
dirig er</w>
dimens iones</w>
differenti ate</w>
diferen tes</w>
dial og
dez im
develo pment</w>
determin ation</w>
destruct ively</w>
destin o</w>
des activ
depend ence</w>
dep s</w>
dense matrix</w>
dens ity
denomin ators</w>
den ame</w>
degistirge sine</w>
degisken in</w>
defaul ting</w>
def ecto</w>
deci r</w>
dec rivant</w>
debug- on-
deber ian</w>
de ta
de als</w>
db x_
day of
date/ time</w>
dat e-time</w>
dan noi</w>
da o</w>
da emon
d' etre</w>
d' ecriture</w>
d' affichage</w>
d' ,</w>
d endrogram</w>
d "</w>
c{ str}</w>
c{ key}</w>
c{ f
cut out</w>
custom ized</w>
cur ves</w>
cuer po</w>
cross- validation</w>
cre ee</w>
cre ate_
cre ate
cp us</w>
corp us
cor ren
cor relations</w>
convol utions</w>
conver te</w>
convent ions</w>
conv ention</w>
consum ption</w>
consum ed</w>
conso li
consi der</w>
configur ations</w>
conect a</w>
con stitu
con fusion</w>
con d</w>
con current
composit e
compar isons</w>
compan ion</w>
comp act</w>
comm as</w>
coll ation
col defs</w>
coinci de</w>
co ut
co t</w>
co eff
cm d_
clo ne
classi c</w>
class module</w>
class _name</w>
clas sloader</w>
cl ades</w>
ciph ers</w>
cik ti
cht oby</w>
choo sing</w>
chislo m</w>
char -table</w>
change _
ch erche</w>
ch ast</w>
cf g</w>
ceil ing</w>
cat alog
catalog s</w>
car te</w>
canvas frame</w>
can aux</w>
camb io</w>
callback- funktsiiu</w>
calist irir</w>
calend ar
calcul ator</w>
cal idad</w>
cachenode ids=false</w>
ca sted</w>
c rypted</w>
c gi
c ens
c *
bz 2</w>
byp ass</w>
by lo</w>
buyuklug une</w>
buffer ing()</w>
break iterator</w>
bor ds</w>
block matrix</w>
block manager</w>
bit o</w>
bit mask</w>
binar y
bin aires</w>
bil dir
big rams</w>
big ram</w>
ber ucksichtig
ber g</w>
benut zer</w>
beg un</w>
be vent</w>
be it
be g</w>
bas ically</w>
bas ename</w>
ba itakh</w>
b st</w>
b lu
b ject</w>
b id</w>
b are</w>
b ad
b *
ay i</w>
ax ^2</w>
avo iding</w>
author ized</w>
auth ors</w>
aus si</w>
attribut ed
attempt ing</w>
ation bounds</w>
asyn chrone</w>
assotsiativ nyi</w>
asso c
asser tion</w>
asin daki</w>
asign ado</w>
argument ov</w>
argument om</w>
ar y-
ar lo</w>
ar beit
ar ali
aqu ivalent</w>
appear ing</w>
appear ance</w>
app ending</w>
anweis ung</w>
anterio rmente</w>
ant i</w>
annot ation
angegeb en</w>
and ere</w>
analiz atora</w>
analiz ador</w>
anaht ari</w>
an sible
an nihil
an hand</w>
ampl itude</w>
am ma</w>
am bito</w>
am b
am azon</w>
almacen ados</w>
aliz es</w>
align ment
algorit m</w>
aleatori o</w>
aleato ire</w>
al read
al ors</w>
al g</w>
ak imi</w>
agu ja</w>
adjac ency</w>
add /
ad ini</w>
activ ities</w>
accumul ationbounds</w>
access es</w>
accept e</w>
acce der</w>
ac id</w>
ac counting</w>
abb rev
ab sor
ab orts</w>
a se-
a et
a de</w>
_ time</w>
_ t</w>
_ str</w>
_ hosts</w>
^ {
\math bb</w>
[ y]</w>
[ b
[ 0]</w>
=? iso-8859-1
== ==
: toplevel</w>
: returns</w>
9 0</w>
7 -
5 .
4 7
4 4
30 2</w>
3- tuples</w>
2 }
2 ^
2 ]</w>
1 _
/ y</w>
/ status</w>
- safe</w>
- p</w>
- data</w>
- 2</w>
** n</w>
** kw
* x
(ve ase</w>
() }</w>
() :</w>
( x_
( 1</w>
' value'</w>
' msg</w>
' :
' /
' #
" name"</w>
順 番</w>
集 合</w>
進 め</w>
識 別</w>
読み込 む</w>
読み込 ま</w>
解 凍</w>
解 像</w>
行 列</w>
色 空間</w>
繰 り返し</w>
獲 得</w>
構 成</w>
最 小</w>
時 点</w>
施 し</w>
数 字</w>
数 え</w>
拡 張
拡張 子</w>
所 有</w>
意 味</w>
子 要素</w>
固 有</w>
呼び出 す</w>
含 め</w>
合 成</w>
制 限</w>
到 達</w>
分 布</w>
再 開</w>
再 度</w>
便 利</w>
依 存</w>
作 っ</w>
以 下</w>
両 方</w>
一 番</w>
一 時
一 意</w>
ー メソッド</w>
ング システム</w>
ワ イ
ログ イン</w>
レー ム
レジ ストリ</w>
レ クト</w>
ル オブジェクト</w>
リダイ レクト</w>
ラ ジ
ユーザー キャッシュ</w>
モジュ ール
ミ リ</w>
ミ ッション</w>
マッ ピ
ペ ージ
ベ ジ
ベジ エ</w>
ファクトリ ーメソッド</w>
フ レーム
パー ミッション</w>
パ ー</w>
ネ クション</w>
ドキュ メント
ト ル</w>
デ コ
テー マ</w>
ッシ ュ
ッ チャ
ダ ンプ</w>
ソース コード</w>
セカンダ リ</w>
スト アド
ストアド プロシージャ</w>
システム コール</w>
シェ ル</w>
サブ エレメント</w>
サ イン</w>
コ ネクション</w>
クロー ン</w>
カ ラー</w>
オ フ</w>
ォ ッチャ
ウ ォッチャ
インター ネット
インタ プリタ</w>
ア ップ</w>
わ ち</w>
の に</w>
な わち</w>
つ け</w>
す なわち</w>
ご と</w>
か つ</w>
zwe i</w>
zuruck gegeben</w>
zip s</w>
ze ss</w>
ze it
zapro som</w>
zam eniaet</w>
zadan noe</w>
zadach u</w>
zad ach</w>
za registri
z ierten</w>
z ^2</w>
z =0</w>
yp e
yon er
yl or</w>
ye es</w>
yaz_ scan()</w>
yapilandir ma</w>
yan sit
ya ho
y- to-
y l</w>
y al</w>
xh prof</w>
x509 cert</w>
x i</w>
x ^2</w>
x /y</w>
ww w
window -
wid th
while context</w>
wh o
wel ches</w>
weight col=none</w>
weak ly</w>
we' ve</w>
we ist</w>
we der</w>
we b-
wave function</w>
w d
w ang
vy m</w>
voz ni
votable _</w>
vorkomm en</w>
vo s
vo k</w>
versh ine</w>
verschlussel t</w>
verro u
verknup ft</w>
verkh nii</w>
verbo se
verbindung skennung</w>
verb net</w>
ver ifying</w>
ven ing</w>
vect or_
ve lich
vary ant</w>
vari ational</w>
valid ite</w>
valid ()</w>
va ut</w>
v ne
vne sh
v len
v el
v a_
va_ list</w>
ut ter
ush ed</w>
use _
urlen coded</w>
updat e()</w>
uni que
un zip</w>
un serializes</w>
un named</w>
un known
un ist
un evaluated</w>
umge wandelt</w>
ul a</w>
ukazan nom</w>
uer un
ud or
udor an
udoran dom</w>
ud f</w>
ud ach
ubic acion</w>
u to</w>
u sia</w>
u er</w>
u bere
type 1</w>
typ es
tw are</w>
true/ false</w>
true color</w>
tro is</w>
tri ang
tre ats</w>
transpo sed</w>
trans ver
trans akt
trad it
tra f
traf fic</w>
tr at
tr as
tot als</w>
top most</w>
tool box</w>
tok ol
to_ encoding</w>
to string</w>
to m-
time- varying</w>
tim e_
ti dad</w>
threa ded</w>
thre e-
tho st
th reading</w>
th r</w>
th etic</w>
th ash</w>
text uelle</w>
test case
termin al
ter sine</w>
tensor board</w>
tech ni
te e</w>
te ction</w>
tax on</w>
tanim lanmis</w>
taman ho</w>
tam ente</w>
table 's</w>
tab ular</w>
ta ylor</w>
ta u</w>
ta p</w>
t[k ]</w>
t wit
t ent
t ener</w>
t b</w>
system wide</w>
synchrono usly</w>
syn thetic</w>
sym pi
sv m
sushchest vuiushch
survi ent</w>
sur umunu</w>
sur rounding</w>
supplement al</w>
super classes</w>
sunucus una</w>
sunuc u</w>
summ ing</w>
substit utions</w>
substit utes</w>
subscri ption</w>
sub s</w>
sub modules</w>
sub mits</w>
su n</w>
su it</w>
student ized</w>
stro ng
string io</w>
string 's</w>
stri de</w>
str len()</w>
str 2</w>
str 1</w>
stor able</w>
step- size</w>
stell ung</w>
stdout /
statist i
state- monad</w>
stat us_
stat e_
standar t</w>
stan ds</w>
stan avlivaet</w>
stack trace</w>
st ub
st reng
st mt</w>
st d</w>
ss c
ssc ene</w>
sqlite 3</w>
sqlite 3
sql al
sqlal chem
sqlalchem y</w>
speich er
speci aliz
speci alised</w>
spe sh
spatial ite</w>
sparse matrix</w>
span scorer</w>
sp rit
sp hin
source _
sostoian iia</w>
sostoian ii</w>
sostoian ie</w>
sootvetstvuiushch uiu</w>
solic itud</w>
sol ro
solro bject</w>
sof tware</w>
socket impl</w>
sock addr</w>
so un
so lex
so gl
sogl asno</w>
snipp ets</w>
snipp et</w>
smt p/
smeshch enie</w>
sm iles</w>
slic ed</w>
sli ce
skript a</w>
sk top</w>
sit es</w>
sist em</w>
sint axis</w>
sini fin
singular ity</w>
sin yal</w>
sin on</w>
sin ifi
sinifi n</w>
sin first
sinfirst week</w>
simultan eous</w>
simplifi es</w>
simplex m
simplexm lelement</w>
sim al
sikist iril
signifi cance</w>
si yle</w>
shut s</w>
short est</w>
shar ded</w>
shap ed</w>
sh ell
sh ared
sh ard</w>
sh ading</w>
sh ad
sh a</w>
sever ite</w>
set flag
server factory</w>
serv let</w>
seq alignment</w>
sensit ivity</w>
self- signed</w>
select ables</w>
select _
seg ura</w>
secon da
secen eg
sec und
search ()</w>
se v
se siones</w>
se it</w>
scroll -
scri pt
screen shot</w>
schlussel n</w>
scan line</w>
sc atter
sc ap
sav er</w>
satir i</w>
sand wich</w>
san it
sal idas</w>
sa o</w>
s[ start
s- -
s z</w>
s we
s gs</w>
s ]</w>
s 's</w>
rypt_ generic
run kit
ruby gem
ru ido</w>
row -wise</w>
rout ines</w>
rot ated</w>
ro ta</w>
ro red</w>
ro p</w>
ro om</w>
ro d
rewin d</w>
rever ses</w>
retourn era</w>
retour nee</w>
ret aining</w>
result _
resol ving</w>
resol ucion</w>
resnet _
resampl ing</w>
res urs</w>
res -
request 's</w>
repe ating</w>
rep orter
reng in</w>
ren py</w>
ren kli</w>
rem placer</w>
regular polygon</w>
refle ction</w>
ref s</w>
redu cing</w>
recursiveiterator iterator::rewind()</w>
recuper ada</w>
recup e
rect angulo</w>
reco ver</w>
recipi ent</w>
reci be</w>
rec ast</w>
realiz ar</w>
real m</w>
readable datetime</w>
read ing
re us
re pozit
repozit ori
re per
re nomb
re main</w>
re loaded</w>
re li
re fer
re do</w>
re ded
reded or</w>
re current</w>
re ct</w>
re constructed</w>
raz mera</w>
rasshiren iia</w>
ras polozh
radian os</w>
rabo ch
ra y
ra it</w>
r prop</w>
r ings</w>
r f</w>
r cs</w>
quot es_
query_ params()</w>
que uerun
quas i-
quanti ze</w>
quanti le</w>
qual ite</w>
qu' une</w>
qu ier
qu ak
quak em
quakem l</w>
pu iss
puiss ance</w>
pu er
puer to</w>
pt ime</w>
pse udorandom</w>
pru fer</w>
prox ies</w>
prot ses
program ming</w>
process '</w>
proce sa</w>
pro zess</w>
pro tokol
pro mo
pro g</w>
pro fun
profun di
profundi dad</w>
pro be</w>
priv ed
prio ridad</w>
prim ary
preser ves</w>
pres sed</w>
pres ente</w>
preference sp
predstavliaiushch ego</w>
predost avlen
predict _
predi cts</w>
predi cat
predetermin ada</w>
predecess or</w>
pre set</w>
pre fijo</w>
prav il
pr o</w>
pour ra</w>
poto m
pot encia</w>
post fa
position ed</w>
position al-
poriad ke</w>
pop en</w>
poluchen noe</w>
pol l()</w>
pol ar
point }</w>
point ers</w>
pod ob
pod goto
podgoto vlen
pod der
podder zh
po ids</w>
plug ins</w>
plant illa</w>
place hol
placehol ders</w>
piec e</w>
pi p</w>
pi o</w>
pi er
phylogen y</w>
ph ant
phant ine</w>
pg_send_ query_params()</w>
pg_send_ query()</w>
person al</w>
permi sos</w>
permet tant</w>
perman ent</w>
perm ute</w>
perm its</w>
perio do
periodo gram</w>
peremen naia</w>
peredan nym</w>
per pendi
pendi ente</w>
pc nt
path 's</w>
pass word
pass wd</w>
parse ()</w>
parent 's</w>
parameter ()</w>
param _
par st</w>
pami at</w>
pag ing</w>
pag e
pad rao</w>
pa z</w>
p sd</w>
p one</w>
p lement
p in
p es</w>
oz el</w>
ow widget</w>
over lay
over flow</w>
otno sh
ot obrazh
ot kry
oshib ku</w>
ori o</w>
ori ent
organ isms</w>
opredelen nykh</w>
opredelen nuiu</w>
opredelen noi</w>
open file</w>
op c
op _
one- hot</w>
on/ off</w>
olustur ul
olmadig ini</w>
old node</w>
old name</w>
od 's</w>
objek ts</w>
object )</w>
ob stack</w>
o st
o o</w>
o curren
ocurren cia</w>
o (x**
nucleo tide</w>
notim plement
noti fy
nost ic</w>
nomin ado</w>
nomi c</w>
nomb re_
node *</w>
nob s</w>
no voe</w>
no va</w>
no ul
no kt
no dos</w>
nl tk
ni uiu</w>
new metat
newmetat able)</w>
new _name</w>
neur ons</w>
neu en</w>
net mask</w>
net /
neg atives</w>
ne m</w>
ne far
nefar ious</w>
ne arly</w>
ne ar</w>
nat ur
name *</w>
nab or</w>
n ur</w>
n r</w>
n il
n ete</w>
n ap
n ant</w>
n ]</w>
n ],</w>
multiple seqalignment</w>
multil ine</w>
multi processing</w>
mp q</w>
mp c</w>
mp _
mot eur</w>
monit or
mon oid</w>
modu le_
modu l</w>
mo l
mit ting</w>
mis fit</w>
mir rored</w>
minimal day
minimalday sinfirstweek</w>
min us
mid n
mi es</w>
metatab elle</w>
metameto do
meta- data</w>
messag e-
mens ag
memcached::get ()</w>
mehre re</w>
me sh
me ant</w>
max db</w>
mat ique</w>
mat ic</w>
mas ks</w>
mar king</w>
mapper property</w>
mape a</w>
many to
man y-to-
man in</w>
mak simal
mail dir</w>
magic_ quotes_
mag ic
mach in
mac e
m s-
m ion
m int
m ec
mec an
mecan is
m am
l{url }</w>
l{istream client
l{dns serverfactory</w>
l{ unicode}</w>
lual_ newmetatable)</w>
lu str
lower -
lorsqu' un</w>
lorsqu' il</w>
log_ cmd_
log ique</w>
local e's</w>
loc ation
load from
lo we
lo sses</w>
lo nomic</w>
list_ item</w>
list 1</w>
link -local</w>
linear _
line string</w>
lin king</w>
lin ker</w>
lin ec
limit ed</w>
limit ations</w>
licen se</w>
lib _dir</w>
lex icon</w>
letz te</w>
ler inden</w>
len iia</w>
len en</w>
len ame</w>
lem ente</w>
leg ten</w>
lect uras</w>
leav e-
leave- one-
le ast
least -
lat itude</w>
lan za</w>
lag polynomial</w>
l' ordre</w>
l' intervalle</w>
l' id</w>
l' epo
l'epo que</w>
l' entrainement</w>
l' en-tete</w>
l' autre</w>
l' application</w>
l uc
l sh</w>
l hs</w>
kutuphan es
kutuphanes inin</w>
kur ul
kullanil an</w>
kronecker delta</w>
kotory kh</w>
kontein era</w>
kon tsa</w>
komprim iert</w>
komm ando</w>
komand u</w>
kodlam asi</w>
ko m</w>
known host
known _hosts</w>
kil l
khodi ashch
key word
ker as</w>
kee pal
kee p_
ke ine</w>
kay it
katalog a</w>
k ler</w>
k at</w>
k app
jun to</w>
je ux</w>
jan u
j p</w>
j day</w>
j ]</w>
iz a</w>
iv ent</w>
ity candidate</w>
itu des</w>
iterator:: next()</w>
iterator ()</w>
iter ative</w>
iter ables</w>
iter able
istis na</w>
isteg i</w>
ist at
istat ist
ispolzu emo
ispolzov an
islev ini</w>
isim lerini</w>
ir b
ip_ address</w>
invo cada</w>
inver se
intro spection</w>
interval o</w>
interval index</w>
interpret ation</w>
intere st</w>
inter vening</w>
inter oper
inter faz</w>
integr ated</w>
int ellig
int 64</w>
instanti ating</w>
inser tion</w>
inser t()</w>
input source</w>
inpu thook</w>
inn er_
inic ial</w>
ing res-
inform ational</w>
ine se</w>
indi ce
indek sov</w>
inde finite</w>
ind ents</w>
increment al</w>
inclu de_
in y</w>
in lined</w>
in equalities</w>
in daki</w>
imput ation</w>
import ing</w>
import ance</w>
implement ation
images/anim_in_ out_
image_ func</w>
imag e()</w>
im z
im prim
im posed</w>
im mutable
im ei
im _
il lustr
ih rac</w>
if x_
if addr</w>
ie sia</w>
identifik ator
identifi cation</w>
id x_
id f</w>
id "</w>
ich es
ic ity</w>
i uli
i era</w>
i ent</w>
i con
i *
hypothe sized</w>
hyper wave</w>
huff man
holi day</w>
ho lonomic</w>
hm mer
hiz met</w>
hil o</w>
hi jos</w>
hel lo</w>
he psi</w>
hash able</w>
hash _
har monic</w>
hal ine</w>
h sv</w>
h ref</w>
guard ar</w>
gu id</w>
group by</w>
group _
gregorian calendar</w>
grav ity</w>
gra fi
goog le</w>
ger cek</w>
geo s
gener ateur</w>
gener ar</w>
gener al
gener ado</w>
gen is
gen epo
genepo p</w>
gen el</w>
gen den</w>
geh ort</w>
gearman client
gearmanclient ::set
ge re
ge off
ge gen
ge _
galax y</w>
gab e</w>
g un</w>
g ls</w>
g er</w>
g ancho</w>
funct io
full t</w>
full name</w>
ful filled</w>
fro zen
fring e</w>
frag en</w>
fourni es</w>
format symbols</w>
fore casting</w>
for t</w>
for cing</w>
fon t-
fon d</w>
fol dr</w>
fo recast</w>
flag i</w>
first dayof
firstdayof week</w>
field _</w>
fiel d-
fer mion
fen etre</w>
fech o</w>
fe eding</w>
fe ed
far kli</w>
fann_get_cascade_ activ
fann_get_cascade_activ ation_
fan umer
failo vyi</w>
failo v</w>
fail ing</w>
fac eta</w>
fa ire</w>
fa ile</w>
f5- sdk</w>
f ug
f lock()</w>
f ab
fab ri
f a</w>
f /
eylemci sini</w>
extra its</w>
extern al-
ext rem
expres iones</w>
explan ation</w>
expect ation</w>
exp orted</w>
exp lo
exp ires</w>
exit ed</w>
execut ando</w>
exclu ded</w>
exclu de</w>
exce ss</w>
ex pose</w>
event buffer
eventbuffer ::
even ly</w>
ev periodic</w>
ev check</w>
et y</w>
et ant</w>
esp er
escal ar</w>
es p</w>
error_ reporting</w>
erlaub t</w>
ere -
ere- plan</w>
er ini</w>
equal itycandidate</w>
equ ip
ent weder</w>
ent os</w>
ent ers</w>
ent emente</w>
endo genous</w>
en za</w>
en queue</w>
en nuiu</w>
en ess</w>
en core</w>
en closed</w>
emit ting</w>
em et
elimin ation</w>
eli b</w>
element s
elap ses</w>
el len
eksp ortiruet</w>
egro up
edit ing</w>
edit able</w>
edge 's</w>
ed ?</w>
ect -specific</w>
ear th</w>
e value</w>
e si</w>
e lig
e led
e ch
e ast</w>
e a</w>
e ?</w>
dynam ic
duyar siz</w>
dup lex</w>
dum mies</w>
du quel</w>
drug imi</w>
drape aux</w>
doub les</w>
dosy adan</w>
don nes</w>
document ada</w>
doct ype</w>
doc strings</w>
do pol
do ()</w>
dizge s
diz imi</w>
diz geler
divid end</w>
divi ded</w>
distribut ing</w>
distribu cion</w>
disp er
discret ize</w>
dis continu
dis connecting</w>
dir ty</w>
dio phantine</w>
dimension ality</w>
differen ts</w>
diferen te</w>
dialog ue</w>
dial ect-specific</w>
diag nostic</w>
di stro</w>
di ril
di p</w>
di ap
dey imi</w>
desplaz amiento</w>
descrit o</w>
der by</w>
dependency request</w>
dependency graph</w>
dependency grammar</w>
density /
delete _
delen iia</w>
deleg ates</w>
deist vi
degisi kli
deferred }</w>
defer re
decre ase</w>
decor ators</w>
dec rypts</w>
dec rite</w>
de_ fichero</w>
de- 9
de-9 im</w>
de tection</w>
de sktop</w>
de signe</w>
de re
de queues</w>
de :</w>
db m
data sets</w>
dah il</w>
d y-
d mp_
d in
d av
d ash</w>
d )</w>
c{ tag}</w>
c{ other
c{ obj
custo m_
current ()</w>
curren ce</w>
cur se
cubrid_ set_
cu dnn</w>
cross- validator</w>
cron tab</w>
cro sso
cover ing</w>
coun ters</w>
corre o</w>
corre cts</w>
cor related</w>
cor relacion</w>
copy ()</w>
coordin at
cooki ej
conveni ent</w>
content- length</w>
consum es</w>
consum er
consi dering</w>
conserv ant</w>
connection 's</w>
confir mation</w>
config ure
concer nant</w>
con ve
comport amiento</w>
compon entes</w>
complement ary</w>
comple tamente</w>
comparti da</w>
compar acion</w>
comp te</w>
command 's</w>
comi enza</w>
comenz ando</w>
comb o</w>
column_ with_
colum nelement</w>
color maps</w>
collation key</w>
coll ator</w>
coer cion</w>
coer ces</w>
codific ado</w>
cod ing-system</w>
co vers</w>
co o
co es</w>
co don
co domain</w>
co der</w>
co dec
cloud scape</w>
client _
cli p</w>
clas se
clas es</w>
chro matique</w>
children ()</w>
check er</w>
check _
chain s</w>
ch inese</w>
ch i</w>
car p::
car a</w>
capt ures</w>
cap as</w>
cancel a</w>
can tidad</w>
can ales</w>
callback ()</w>
call ables</w>
cagri l
c rib
c mp</w>
byte codes</w>
byte array</w>
by la</w>
by ^2</w>
bulun an</w>
builder 's</w>
buff ere
bucket }</w>
bu g</w>
bu cle</w>
br ush</w>
bot tom-
bor des</w>
boole an
boo sted</w>
bon d</w>
bo urne</w>
bo to</w>
bo dy-
blu e
bira kir</w>
binding- form</w>
big- ip</w>
bid i</w>
bic lu
bi weight</w>
bi m</w>
bi directional</w>
bestimm ten</w>
berucksichtig ung</w>
bereit et</w>
ber noul
bel leg
be am
bb code</w>
bayt li</w>
bay es</w>
base- 2</w>
base estimator</w>
bas ados</w>
ban ner</w>
ban ded</w>
back prop</w>
ba ze</w>
ba see</w>
ba it</w>
b z</w>
b son</w>
b o</w>
b len
b last</w>
b at
b ars</w>
b alise</w>
avertis sement</w>
avail ability</w>
av g</w>
av an
auto reload</w>
authentic ator</w>
auth or</w>
auth _
ausgab e</w>
auc une</w>
auc un</w>
au to</w>
au ch</w>
attributed characteriterator</w>
att end
att e</w>
at ively</w>
at amente</w>
assum ption</w>
assozi atives</w>
associ ating</w>
arri ere-plan</w>
array iterator</w>
array _
array -
arkh iva</w>
arg z_len</w>
arch iv</w>
arbit r
arb re</w>
ar rows</w>
ar rete</w>
ar c-
ar ay
ar ama</w>
apun ta</w>
ap par
ap are
any where</w>
analy zes</w>
an ova</w>
an nte</w>
an ex
amelio re</w>
am bos</w>
alread y-
alloc a</w>
allo we
ali as
algorith mus</w>
algorit manin</w>
al ten</w>
al rededor</w>
al o
al fanumer
al ari</w>
al an</w>
aktiv iert</w>
ak a</w>
ajout es</w>
aggregation depth=
ag rega</w>
ag ent
affect ees</w>
aff ect</w>
aet ,</w>
adres u</w>
activ ite</w>
aci klam
acceler ation</w>
ac com
abs ence</w>
ab rir</w>
ab ling</w>
a th
a pop</w>
a itre</w>
a it
a io_
a io
a :</w>
`# t'</w>
`# f'</w>
_key _id</w>
__set item__</w>
__del item__</w>
__auto load</w>
__ future
_ re
_ encode()</w>
_ d
_ ,</w>
\fra c{
\ in</w>
[i ]
[ virtual</w>
[ element</w>
[ c
[ 2]</w>
[ *
[ '
@ to</w>
> >)</w>
> ,</w>
> '</w>
=?iso-8859-1 ?
< =></w>
:: new</w>
: un
: parameters</w>
: arg</w>
8 bit</w>
8 bim</w>
5 12</w>
40 4</w>
3 7
2- tuples</w>
2 5</w>
1. 0.0</w>
1 ]</w>
1 9</w>
1 8
1 3
/etc/ services</w>
/etc/ host
. zip</w>
. txt</w>
-- #
- x</w>
- key</w>
- id</w>
- datei</w>
+ c</w>
** **
* h</w>
* (
( sm</w>
( of</w>
( name</w>
( in</w>
( http</w>
( <<
( 0</w>
' re</w>
' m
' field
" an</w>
" %
遅 延</w>
調 整</w>
読み 取り</w>
読 ん</w>
評 価</w>
解 決</w>
見つ かっ</w>
署 名</w>
線 幅</w>
結 合</w>
組み 合
算 子</w>
積 算</w>
種 類</w>
短 縮</w>
省 略</w>
相 当</w>
相 対</w>
監 視</w>
深 さ</w>
正 しい</w>
構 築</w>
検 出</w>
本 体</w>
文 字
抽 出</w>
待 機</w>
大き い</w>
品 質</w>
取 る</w>
参照 く</w>
原 因</w>
印 字</w>
列 挙</w>
入 り</w>
乱 数</w>
下 さい</w>
一 行</w>
ーカ ー</w>
ー ジェ
ロ ールバック</w>
レスポ ンス
レジ ストリ
レ ータ
レ イ
リ ポジ
リポジ トリ</w>
ラッ パー</w>
ラジ アン</w>
モ ノ
メン バー</w>
メ ニュ
メ イン
ム ネ
ムネ イル</w>
マッピ ング</w>
マ ー</w>
マ ニュ
マ シ
マシ ン</w>
ポー ネ
ポーネ ント</w>
ベ ース</w>
プログ レス
プロ ンプ
プラ ット
プラット フォーム</w>
ブ ル</w>
フェ ース</w>
フ ック</w>
ビュ ー</w>
パッ ケ
パッケ ージ</w>
パ レ
バイナリ データ</w>
ド ライ
ト リー</w>
デ ジ
デジ タ
テーブル データベース</w>
テン ツ</w>
ッ キ
ダイア ログ
ダ ウ
ダウ ン</w>
スレ ッド
スタック トレース</w>
スキー マ</w>
ス イ
スイ ート</w>
サ ムネイル</w>
コン ポーネント</w>
コン テンツ</w>
クライア ント
ク ロ</w>
ク オ
カレ ント</w>
オーディオ フレーム</w>
オーディオ ファイル</w>
オーディ オ</w>
エン ド</w>
エ ージェ
インスト ール</w>
イテ レータ
アーカイブ エントリ</w>
を つ
をつ かっ</w>
れ ら</w>
や す
ふ た
ふた つ</w>
ど の</w>
ど ち
と も</w>
と こ
とこ ろ</w>
た か</w>
そ し</w>
ず れ</w>
こ れら</w>
く だ</w>
~ numpy</w>
} ;</w>
| )</w>
zy go
zugri ff</w>
zufal ls
zo om
zip info</w>
zh it</w>
zh d
zeig t</w>
zeich ensat
zaregistri rovan
zadan nuiu</w>
za vi
zavi sim
z- test</w>
z na
yy y
yoner ge
yol u</w>
ye rel</w>
yak in</w>
yaho o</w>
yaf_rout er</w>
yaf_ config_
xml _
x- axis</w>
x sd</w>
x bm</w>
x b</w>
x 3</w>
write able</w>
writ e-
wrapper s</w>
wrapper ::
wrapper:: stream_
wor d-
wn d</w>
wid ening</w>
wi eder</w>
whit en</w>
which ever</w>
where "</w>
wer tes</w>
weight ing</w>
web link()</w>
we yl</w>
we eks</w>
war tet</w>
wa king</w>
wa kes</w>
w_ api_
w eg
w at
w as
was n't</w>
w /</w>
vy v
vy so
vy khod
vt_ date</w>
vse m</w>
vozvrashch aemo
vor bereit
vorbereit ete</w>
vol um
vol tura</w>
vol l
voll stan
vm id</w>
vkliuch aia</w>
virtu el</w>
verro us</w>
verific acion</w>
verifi ed</w>
ver weist</w>
ver sus</w>
ver sa</w>
ver inin</w>
ver if
ver fug
vect ori
ve il
vari ety</w>
value }</w>
valu e-
v pc</w>
v me
v itel
v i</w>
v arch
v am</w>
uyg ulam
uy arak</w>
utiliz ada</w>
ustanov len</w>
user- specific</w>
user auth_
us ive</w>
us ados</w>
url connection</w>
ur face</w>
up sampling</w>
unmodifi able</w>
unicode __</w>
un resolved</w>
un registers</w>
un processed</w>
un pickling</w>
un normalized</w>
un masked</w>
un links</w>
un ge</w>
um unun</w>
ultim ate</w>
uld n't</w>
ukazate lem</w>
ukaz an</w>
uint 8</w>
ui ut</w>
udal en
u len</w>
u kh</w>
u id
u handle</w>
tz- aware</w>
typ s</w>
typ ing</w>
ty con
two- sided</w>
two- arg</w>
twit ter</w>
tur u</w>
tukey 's</w>
tsv etom</w>
tsv eta</w>
tselo e</w>
try lock</w>
trouve es</w>
trim s</w>
trim med</w>
tri angles</w>
tre e's</w>
tre cho</w>
tre ating</w>
tre at</w>
translat able</w>
transfer- encoding</w>
transakt ion</w>
trans mission</w>
tran za
tra p</w>
tor sion</w>
topo logy</w>
top _
tol string</w>
tok ens
togg les</w>
to y</w>
to string
to mat
to /
to ()</w>
tmp nam
tim eto
timeto live</w>
til es</w>
til ed</w>
thumbna il</w>
threshol d
the ory</w>
th ing
th ash
text -
test }</w>
test suite</w>
tensor variable</w>
templ ate_
temper ature</w>
tele charge</w>
te pk
tepk iyi</w>
tari h
target _
tare as</w>
tan h</w>
tamam ini</w>
takvi m</w>
tab ellen
tab -
t[k ],</w>
t umunu</w>
t t</w>
t ron
tron que</w>
t el</w>
system -
system 's</w>
syntact ic</w>
sym link</w>
sy sc
sysc ar
syscar tesian</w>
suz gec
sustitu cion</w>
susp end()</w>
sur veil
sur fac
support ees</w>
support ee</w>
supplement ary</w>
supp ortes</w>
super set</w>
sup primer</w>
sunuc unun</w>
summar izing</w>
summ ed</w>
sum a</w>
subsequ ently</w>
subsamplingrate =1</w>
sub- graph</w>
sub- classes</w>
sub str</w>
sub map</w>
sub groups</w>
sub directory</w>
su g
sug gest
styleshe et</w>
sty led</w>
sty le_
stven no</w>
struct type
strong ly</w>
strok u,</w>
string type
stri pp
stripp ing"</w>
strf time()</w>
streng th</w>
stream wrapper::stream_
stream ing
strateg y="
stra r</w>
str to
str any</w>
stolb t
stocke es</w>
stem mer</w>
ste pper</w>
static ally-
statically- allocated</w>
statement ::
state space</w>
stat s
stan ov
st or</w>
st o</w>
st ellen</w>
ssh 2</w>
ss l-
ss can
ss ant</w>
ss -
sqlsrv_ prepare()</w>
spr int</w>
splfileobject ::
sphin x
spel l_
spectr um</w>
specifi ant</w>
sparse tensors</w>
sparse max</w>
sparse dataframe</w>
sparse array</w>
spac ement</w>
spac e-
sp o
soun dex</w>
sootvetstvuiushch ii</w>
sonlan dirir</w>
solex a</w>
sol ve
sol _terim</w>
socket permission</w>
so y
sn enin</w>
smtp/ tls</w>
sm all
sluchain ykh</w>
sleduiushch uiu</w>
sleduiushch ii</w>
sl ush
ske w</w>
ske w
sistem i</w>
sistem e</w>
sinifin in</w>
sin ir
simvo lichesk
simvo la</w>
simp ler</w>
simp le_
sim ule</w>
sign key</w>
sign a</w>
sigma _
sig ma</w>
si p</w>
si aliz
shri f
shar ds</w>
sh r
sh ir
sh ab
seto pt
setopt ()</w>
set z
server- side</w>
server socket</w>
server ()</w>
serializ ing</w>
serializ ada</w>
serializ able
separ ators</w>
separ ates</w>
separ able</w>
sentence _
sentence_ aligne
sentence_aligne d_
sentence_aligned_ corpus</w>
semb les</w>
seman tic</w>
self[ i</w>
selec ciona</w>
sel lestirir</w>
sek und</w>
sein er</w>
seg ur
seek ()</w>
second aries</w>
secon d-
second- order</w>
search ed</w>
se p
se linux</w>
se an</w>
se ()</w>
sdcal inear
sdcalinear regressor</w>
sd vig
schedul er</w>
sch en</w>
sav e-
sau ve</w>
sar mal
san e</w>
samp le_
sam connection</w>
sag _terim</w>
sab it
sa -
s= none)</w>
s succeeds</w>
s ftp</w>
s cor
scor ing</w>
s c</w>
s :</w>
s 3</w>
run options</w>
ru ft</w>
ru ck
rp n</w>
row _
rout ing</w>
rot ations</w>
roo ted</w>
rod itel
ro m</w>
ri eman
rieman n</w>
revi ent</w>
retr ying</w>
ret ire</w>
ret ains</w>
ret ain</w>
resur som</w>
resum ed</w>
result _identifier</w>
restri ction
resta ure</w>
rest o</w>
resol ve
res ini</w>
required *]</w>
requi re_
request- host</w>
requ es
requ er
reposit orio</w>
reporter }</w>
replac e_
ren vo
ren d
remote _file</w>
remo s</w>
rem et</w>
relac ement</w>
regul aren</w>
regexp chunk
reg las</w>
reg ard</w>
reflex ion
reflej ando</w>
referenti el</w>
reference d_
ref s()</w>
red i</w>
recursiveiterator iterator::
recursive filteriterator</w>
recogn ize</w>
reci pro
recipro cal</w>
reas ons</w>
realiz ada</w>
real float</w>
react ort
re x
re writes</w>
re storing</w>
re pos
repos _url</w>
re parameter
re lement
re lay</w>
re interrupts</w>
re entrant</w>
re defines</w>
re currence</w>
re calculate</w>
re build</w>
rd n</w>
raz b
raspako vyvaet</w>
radian es</w>
radi an</w>
ra id
raid set</w>
r mi</w>
r l
rl +c</w>
r doc
r and</w>
quot a</w>
query }</w>
que e</w>
quasi- particle
quasi-particle ?</w>
quar ter</w>
qual quer</w>
qu al</w>
qgraphic sscene</w>
pyp i</w>
put ting</w>
push back</w>
publi sh</w>
pub lique</w>
pt _
psev don
pseudo- quotient</w>
ps_add_ weblink()</w>
ps_add_ pdf
ps_add_pdf link()</w>
proveri aet,</w>
prote in</w>
prote ction</w>
prostranst ve</w>
property- change</w>
property change</w>
proj ected</w>
proiz osh
proizosh edsh
program s</w>
produ it</w>
process -
proce sos</w>
probability col="
probabilitycol=" probability
probabilitycol="probability ",</w>
prob a</w>
pro posed</w>
pro of</w>
pro j</w>
pro fil</w>
pro f_
priv at
princi pal
pres s</w>
pres ented</w>
pres ent
prepar ation</w>
prep end()</w>
preferencesp ut
predict ive</w>
preced ent</w>
prec )</w>
pre d
pre computed</w>
pre ader</w>
pr ng</w>
pot en
post /
position ne</w>
posit if</w>
pos ()</w>
port 's</w>
pois k</w>
point wise</w>
point ee</w>
point e</w>
po sible</w>
po see</w>
po p-
po lei</w>
po de</w>
play s</w>
platform ?</w>
plat a
pla st
pl ano</w>
pk l</w>
pixel iterator</w>
pip ing</w>
pin v</w>
piksel leri</w>
pik sel</w>
pidd le</w>
pick les</w>
pic king</w>
php nin</w>
phar maco
ph rases</w>
ph ase
personn alisee</w>
personaliz ada</w>
perpendi cul
peremen nuiu</w>
per m</w>
per _
pen al
penal ty</w>
pec l/
pattern }</w>
path '</w>
pas sees</w>
particuli er</w>
parser- macro</w>
parser 's</w>
parenthe si
paramet ry</w>
paramet ra
par che
parche a</w>
pal eta</w>
pag e()</w>
pa ys</w>
pa use
pa ket
pa ires</w>
p values</w>
p store</w>
p spell_
p il
p g
p es
pes o</w>
p equ
p elo</w>
p ects</w>
p cap</w>
ozelli k</w>
ovi rt</w>
over head</w>
ov ing</w>
out lier</w>
out comes</w>
our self</w>
our ce</w>
otnosh eniia</w>
ot meniaet</w>
organ iz
organ ism</w>
ord ure</w>
ord an</w>
or_ de_fichero</w>
or om</w>
or neg
or bits</w>
or _name</w>
oper ativ
operativ et
operativet ask
open struct</w>
open ssl
opc ional</w>
ong side</w>
on_ off</w>
on- sky</w>
on ev
omi sion</w>
om es</w>
om :</w>
ol dest</w>
od nu</w>
od noi</w>
ocur ri
oci_ new_
oci_new_ descriptor
oci_new_descriptor ()</w>
oci_ execute()</w>
oc up
oc sp</w>
obten ida</w>
obkho dim
objet ivo</w>
object outputstream</w>
object ive-
objective- c</w>
obj `</w>
ob stack
ob nov
o(x** prec)</w>
o stat
o che
oche redi</w>
number '</w>
num py
nul ls</w>
notifi es</w>
noti ce</w>
not *</w>
nor dic</w>
non- fixed</w>
non negative</w>
nom me
nom er
no w
nltk 's</w>
ni kh</w>
new_ path</w>
new s
new ick</w>
neut r
net string</w>
neskol ko</w>
ne ws</w>
ne ues</w>
ne snenin</w>
ne i
navig ableset</w>
nat sort</w>
named tuple</w>
name server</w>
nam ens</w>
nach sten</w>
n' y</w>
n' a</w>
n }</w>
n mf</w>
n m</w>
n gram</w>
n frames</w>
n er
n d_
n bytes</w>
n age</w>
mysqli_ connect()</w>
mut ation</w>
multip lied</w>
multic ast
multi ()</w>
mu est
muest reo</w>
msg_ userauth_
mp math</w>
mp 3</w>
move ()</w>
monoton ic</w>
mongo cursor</w>
mongo command
mon key-
mon go</w>
module 's</w>
modul ar
modular integer</w>
modific acion</w>
modifi cation
modifi car</w>
modi fy
model f
modelf nops</w>
mo ver</w>
mo strar</w>
mno zhest
min uscul
midn ight</w>
metadata- map</w>
met tre</w>
met ain
messag e's</w>
mesh visual</w>
memory _
memo -
mem set</w>
mej ora</w>
meij er</w>
mehre ren</w>
me sini</w>
me ets</w>
me 's</w>
may usculas</w>
may be
maxim a</w>
max_ t</w>
matrix color</w>
mat er
mas cara</w>
mar que</w>
map s[
mail_ move()</w>
mail cap</w>
mace 4</w>
ma ya</w>
ma ster
ma ker</w>
m sql_fetch_
m d</w>
l{ipv 6
l{ipv6 address}</w>
l{ipv 4
l{ipv4 address}</w>
l{file descriptor}</w>
l{co operativetask
l{ str}</w>
l{ h2
l{ dns</w>
l{ dict}</w>
l{ client
l{ bucket}</w>
lua_ push
lowe ss</w>
los st
loo o</w>
loo ked</w>
long ing</w>
long est
longest waiting</w>
lon nage</w>
lokal nym</w>
lokal noi</w>
log dir</w>
log arit
logarit mo</w>
local e
local -
lob s</w>
loadfrom file()</w>
load er
lo st
lo pen</w>
liter als</w>
list_ db
list_db s()</w>
list eler</w>
list 's</w>
linear operator</w>
line 's</w>
lin ked
lin en
limit es</w>
lif ting</w>
libe vent</w>
libe io</w>
lib svm</w>
lib er
li sh</w>
li ee</w>
li che</w>
lexico graphically</w>
lev en
lev a</w>
lest ir
ler ine</w>
len (
lem mas</w>
lem ma</w>
leave-one- out</w>
lear ner</w>
le y</w>
le tra</w>
le tra
le se
le ktsii</w>
le es</w>
le b
le ak</w>
lag range
lab eled
l'e spacement</w>
l' uri</w>
l' un</w>
l' oper
l' arbre</w>
l' aide</w>
l' ,</w>
l us</w>
l stat()</w>
l f
l atter</w>
kumes indeki</w>
kullanil mak</w>
kullanil arak</w>
kop f
kon umunu</w>
kon um</w>
kon tro
kon stan
kon nen</w>
kon ak</w>
kon ak
kom mando
kol lektsii</w>
kod lanmis</w>
ko witz</w>
ko lon
kno wledge</w>
kli enta</w>
klas s
kl usive</w>
kl ama</w>
kim ligi</w>
kil ls</w>
kil led</w>
khran eniia</w>
kh v
key maps</w>
key fn</w>
kat alog</w>
karsilastir masi</w>
karakter i</w>
kal ender</w>
kak u</w>
k[ ,
k[, d
k[,d ])</w>
k- means</w>
k te</w>
k ip</w>
k i
k end
k el</w>
k anal
k 1</w>
juli ana</w>
jo int
jar outputstream</w>
janu ary</w>
jan e</w>
jaco bi</w>
j d1</w>
j ],</w>
iz quier
ival ent
iuli an
ity ="
iterat eurs</w>
iter items</w>
iter ation
iter acion</w>
item s()</w>
item __()</w>
it si
istatist i
iskliuch eniia</w>
is ant</w>
iri lab
ir ls</w>
ir ing</w>
ip v</w>
ip ush
invo c
inver se_
interrupt e
interrupte dexception</w>
interpol ating</w>
interpol ates</w>
interoper abili
interoperabili dad</w>
interactiv e
intens ity</w>
int en
instal l_
inser t_
input- schema</w>
input /
input ()</w>
initi ated</w>
initi alisiert</w>
init sializ
init -
inici aliz
inher its</w>
ing ly</w>
inform e</w>
inform acao</w>
indi zes</w>
indi si</w>
indi s
indi r</w>
indi quant</w>
indexed slices</w>
incorp or
in thash</w>
in structs</w>
in se
in klusive</w>
in i
in et</w>
impur ity="
impur ity</w>
import a</w>
imp ute</w>
imp res
imp orter
imei ushch
imap_ mail_move()</w>
images urface</w>
image fil
im_ matrixcolor</w>
illeg al</w>
iliskilendi rir</w>
ilet inin</w>
il las</w>
il klen
ikin ci
igu ales</w>
ignor able</w>
if ace</w>
identifi er
ide ally</w>
id x
id al</w>
ic u</w>
i ashch
i ado</w>
htm prediction
host _
host /
homo morphism</w>
ho t
ho od</w>
hget posn</w>
hetero zygo
heter os
hes ap
hermit ee</w>
hay a</w>
hash_ bucket</w>
haru encoder</w>
har fe</w>
hal ts</w>
habilit ar</w>
ha c</w>
h wnd</w>
h w_api_
h are
gzip writer</w>
gzi preader</w>
gz- datei</w>
gu age</w>
grup pu</w>
group er</w>
gre p</w>
graph _
gra ce</w>
gor sellestirir</w>
go v
gnupg_add signkey</w>
glyp hs</w>
global en</w>
glob ()</w>
glo ()</w>
gettimeof day</w>
get_ refs()</w>
get/ post/
get children()</w>
gest ores</w>
geos geometry</w>
geomet ri
gener ate_
gen omes</w>
gen e
gearmanclient:: add
ge liefert</w>
gd al</w>
gate way</w>
g s
g rent</w>
g dbm</w>
g age</w>
g *h</w>
fuz zy</w>
fus ionne</w>
funktions argument</w>
fun dam
fundam ental</w>
ful l-
fuh r
from_ encoding</w>
frequ ent</w>
fourn it</w>
forwar d
fornec ida</w>
format os</w>
format a</w>
form 's</w>
foreign ptr</w>
for ce
for -
fo to
fo cal</w>
fli pped</w>
fix ture</w>
fit _
fire wall</w>
fin it
file pro</w>
file /
fil tr</w>
fi ve</w>
fi ja</w>
ff t
ff l
fetch ()</w>
fel d
fehler nummer</w>
fehler meldung</w>
feh l
feature columns</w>
featu reset</w>
fe eds</w>
fb sql_
far ki</w>
fail ures</w>
fa ult
fa ke
f used</w>
f struct
f sock
f ran
f k</w>
f ang
f 1</w>
ez ados</w>
extran eous</w>
extract _
extra ction</w>
extens ion
ext remos</w>
ext endi
exponenti ation</w>
exp unge</w>
exp (-
exit ()</w>
exi stant</w>
exclus ivo</w>
exception ::__construct()</w>
except e</w>
excep ciones</w>
exce eded</w>
examp le
ex pos
ex _
event_ shape</w>
event:: write</w>
event:: read</w>
event log</w>
eto i</w>
eto go</w>
et yp
et tes</w>
et ing</w>
et im</w>
et er</w>
et -
estim ating</w>
estat ico</w>
est order</w>
ess a</w>
especific ar</w>
espac ios</w>
esp ej
espej o</w>
esim o</w>
escuch a</w>
escrib ir</w>
escap ing</w>
escap a</w>
es siz</w>
es lestir
es ?</w>
error_ code</w>
eren d
ereg _
ereg_ replace()</w>
ere x
er isim</w>
er halt</w>
equival ents</w>
equ i
eq v
enz o</w>
envo ye</w>
envi ada</w>
enumer ated</w>
entsprech end</w>
entra da
entrada /
entrada/ salida</w>
ent reg
ent ering</w>
enlaz o</w>
encrypt key</w>
enco der
enc ab
encab ezados</w>
enable /
enable/ disable</w>
en voltura</w>
en h
en ded
en _
emb l</w>
em pez
em ission</w>
ell y
elimin ar</w>
element tree</w>
element ary</w>
element ami</w>
ekv ivalent
eklent i</w>
ejecut able</w>
eg l</w>
ef f</w>
ed "</w>
echo ue</w>
e ye</w>
e w
e vi
e iro</w>
e co
e be
ebe vey
dv ukh</w>
dur um</w>
dur uk</w>
duplic ation</w>
dugum unu</w>
dro pping</w>
down time</w>
down loading</w>
down gra
doub le-
dopustim ym</w>
dopustim omu</w>
dondur ulen</w>
dondur mesi</w>
dogr ulam
document ee</w>
dob avlen
do ivent</w>
do ch
doch ern
diz ilerin</w>
distan cia</w>
dist s</w>
display ables</w>
disjun ction</w>
direktori iu</w>
direction ="
dir s</w>
dim shuffle</w>
dim array</w>
dig os</w>
diferen cias</w>
die ses</w>
dic ated</w>
diag on
di ri
di rac
di es</w>
dey im
devuel tos</w>
determin istic</w>
determin er</w>
det al
destruct ive</w>
deste klen
desh abil
dese mp
descript or_de_fichero</w>
descend ant</w>
des loc
des comprime</w>
depur acion</w>
deprec ate</w>
deni ed</w>
dem and</w>
deli ver
deleg ation</w>
dekodi ert</w>
deist vitel
degistirge sinde</w>
def un</w>
decre mente</w>
decompres se</w>
decode d-
decoded- time</w>
declar acion</w>
decimal formatsymbols</w>
dec ryption</w>
dec rypt
dec ro
debo guage</w>
debo gage</w>
de x
de e</w>
de dicated</w>
dd d</w>
dbplus_ open()</w>
db c</w>
datenbank server</w>
datein am
date interval</w>
date format</w>
datas ource</w>
datagram socket</w>
data }</w>
dat um
dat o</w>
dan nymi</w>
dan ce</w>
dam g
dah ili</w>
da st
d- in</w>
d'ent relacement</w>
d' environnement</w>
d sa</w>
d nei</w>
d m
d cc</w>
d ash
d ad
d ab
d ,</w>
c{other }</w>
c{f }</w>
c{ pattern}</w>
c{ path}</w>
c{ os</w>
c{ datetime</w>
c{ class
custom iz
cur v
ct rl+c</w>
ct l</w>
cross- entropy</w>
cross- correlation</w>
cre ator
cre ada</w>
cras h</w>
cour t</w>
coun ted</w>
corri ente</w>
corren te</w>
cop ula</w>
coordin ate
coordinate wise</w>
coord syscartesian</w>
coor ds</w>
cookiej ar</w>
conver ters</w>
conve x</w>
contra cting</w>
cont ours</w>
cont orne
cont enidos</w>
consi ders</w>
connection pool</w>
concent ration
con signa</w>
con s-
con n</w>
con e</w>
con du
compon ente</w>
compile- time</w>
compil ing</w>
compare and
compareand set</w>
comp ile
commit ted</w>
com oving</w>
com _*</w>
color bar</w>
colo ur</w>
colo n</w>
collection 's</w>
col _
coinciden cia</w>
codific ados</w>
co up
co sh</w>
co in</w>
co factors</w>
co digos</w>
clu ste
ciph ering</w>
ci z
ci ble</w>
chislo ,</w>
chiff re</w>
chi- square</w>
chem ins</w>
check points</w>
check pointed</w>
charg ement</w>
char list</w>
chang er</w>
chan ce</w>
ch op</w>
ch ap
certificat e
cens or
cel ui</w>
ce /
categ ory
car rega</w>
capt ure
cap tur
cap np</w>
candi date_
calist irilab
calis ma</w>
calendar 's</w>
cal ib
cal cu
cairo imagesurface</w>
cad ores</w>
c_ code</w>
c us
c ra
c ero</w>
c ds</w>
c ado</w>
bzip 2-
byp as
by li</w>
by "</w>
buyu k</w>
bun ch</w>
buil d
bri dge</w>
brea king</w>
br ute</w>
bound arguments</w>
boto 3</w>
bor rar</w>
bon ds</w>
bo x-
blue print</w>
block ettes</w>
ble u</w>
bl ack
bit string</w>
bir i</w>
binar y_
bil diril
big num</w>
bicem li</w>
bibliothe k</w>
biblio teki</w>
bi rer</w>
bernoul li</w>
bere ich</w>
ber kowitz</w>
benutzer definierten</w>
ben zer
bel le
begin n
be zi
be schrieb
be longing</w>
be fore
bazo i</w>
base- e</w>
base ml</w>
bar y
bag li</w>
bag lam
bag in</w>
b sgs</w>
b ras
b ordure</w>
b ido</w>
b ander
bander as</w>
b .
ay i
ay ant</w>
aver ages</w>
avan za</w>
av tomat
av el</w>
av atar</w>
auto covariance</w>
auto commit
auth oriz
aufru fen</w>
aufru f
attribut e
atsi ei</w>
atribut y</w>
ation -
at ro
at h</w>
assert ions</w>
asoci adas</w>
as_ iterable
as pects</w>
as n
arrayobject ::get
arrayobject::get iterator()</w>
arr ives</w>
argument en</w>
arg spec</w>
ard an</w>
arch ive
ar ti
ar t
ar siv
ar row
ar k
approxim ating</w>
app li
apc iterator</w>
ap i-
ap i
any more</w>
ansible module</w>
anot acion</w>
annot ating</w>
ander ungen</w>
and ert</w>
and -
anch or
analiz ar</w>
an k</w>
an iz
alway ssucceeds</w>
altern atives</w>
alf a</w>
aleator ios</w>
alan inda</w>
al ters</w>
al te</w>
al ongside</w>
aktuel l</w>
ak h
ajust a</w>
aj outer</w>
aio cb
age level</w>
affich er</w>
aff ects</w>
adverti ses</w>
adjust ing</w>
adi ciona</w>
addres s
actualiz ar</w>
activ o</w>
activ idad</w>
act uelle</w>
ack no
acept a</w>
accept_list_item_ start_
accept_list_ end_
accept er</w>
accept ()</w>
ac ente</w>
abstract expression</w>
absol uto</w>
ab i</w>
ab er</w>
a un</w>
a ser</w>
a part</w>
a ison</w>
a ir</w>
a h</w>
a dic
a cos</w>
a .
a ),</w>
` obj`</w>
__repr __()</w>
__ unicode__</w>
__ new
__ div__</w>
_ sys</w>
_ spec</w>
_ input</w>
_ functions</w>
_ f
_ errno</w>
_ dict</w>
] }</w>
\mathbb{z} _p
\ _
[1 ],</w>
[* required*]</w>
[ start</w>
[ k
[ index
[ :
@ {
> }</w>
= 0)</w>
= "</w>
: term</w>
: paragraph</w>
: http</w>
: drb
: c
99 %</w>
6. 7</w>
3 c</w>
2- dimensional</w>
2 つ</w>
2 **
2 '</w>
19 8
1 ],</w>
1 7</w>
1 7
1 ()</w>
0 x</w>
0 x
0 ],</w>
/etc/host s.
/etc/ passwd</w>
// service</w>
/ tensor</w>
/ python
/ e
. tzinfo</w>
. bz2</w>
. app</w>
. )</w>
--# include</w>
- s</w>
- bit</w>
* x</w>
* obj
* name*</w>
( with</w>
( vs</w>
( that</w>
( self[i</w>
( mod</w>
( k[,d])</w>
( direction="
'# '</w>
' level
' contain
' _
' ,
% m
$ _
" x
" running
" order</w>
! --#include</w>
類 似</w>
静 的</w>
除 算</w>
開 鍵</w>
遭 遇</w>
連 結</w>
輝 度</w>
認 識</w>
角 度</w>
補 完</w>
表 わす</w>
考 慮</w>
翻 訳</w>
組み合 わせ</w>
破 線</w>
演 算子</w>
注 記</w>
決 定</w>
正 しく</w>
次 元</w>
最 新</w>
書き込 ま</w>
書 記</w>
日 曜日</w>
文字 数</w>
指 示</w>
拡 大</w>
折 り返し</w>
手 法</w>
必 須</w>
復 号</w>
得 る</w>
平 均</w>
左 側</w>
左 上</w>
実 効</w>
始 め</w>
多 く</w>
増 や</w>
基 底</w>
埋 め
型 名</w>
取り除 い</w>
単 純</w>
前 景</w>
列 内</w>
列 値</w>
列 中</w>
切 り
分 散</w>
出 す</w>
公 開鍵</w>
個 々</w>
修 飾
使 える</w>
何 らか</w>
予 定</w>
中 止</w>
上 位</w>
一 般</w>
ン マ</w>
ワ ード
ワ ーカー</w>
ロ ール
レー ティ
レイ ヤ
レイヤ ー</w>
ルー チ
ルーチ ン</w>
ル ート
ル シ
ルシ ート</w>
リモート ファイル</w>
リ レーション</w>
リ ミット</w>
ユニ ーク</w>
モジュール オブジェクト</w>
メント リソース</w>
メモリ ブロック</w>
ミ キ
ミキ サ
マニュ ア
マニュア ル</w>
マ フ
マフ ォ</w>
マ スク</w>
ポ リ
ポ ラ
ボ ックス
ペ レーティ
ベ ージ
プロンプ ト</w>
プログ ラ
プロ ファイ
プロ バイ
プロバイ ダ</w>
ブロ ッキ
ブラ ウ
ビット グレースケール</w>
ビ ジ
パレ ット</w>
パッ チ
パッチ ファイル</w>
パス ワード
パイ プ</w>
ハンド ルオブジェクト</w>
デバッ グ
デコ レータ</w>
ディレクトリ エントリ</w>
ディ ング
テスト ケ
テキスト ノード</w>
テ ゴ
テゴ リ</w>
ット ダウン</w>
タイ トル</w>
セ ル
セ マフォ</w>
セ キュ
スペ ース</w>
ステート メントリソース</w>
スタ イ
スタイ ルシート</w>
ス ライ
ジ ン</w>
シー ク</w>
シャ ットダウン</w>
サービ ス
サンプル サイズ</w>
コン フィ
グローバ ル
グラ フィ
グ リ
グ ラム</w>
クライアント ライブラリ</w>
クス チャ</w>
クオ ート</w>
キュ ー
キャ ン
ガ ベージ
カレント ディレクトリ</w>
カスタ ム
カウ ント</w>
カ テゴリ</w>
オ ペレーティ
エン ジン</w>
ウ ンド
インタ フェース</w>
イテレータ インスタンス</w>
れ か</w>
の い</w>
の い
に対 応
どち らか</w>
と 同じ</w>
と づ
とづ い</w>
で も</w>
つ か</w>
ず れか</w>
じ る</w>
さ ず</w>
か し</w>
お り</w>
い ませ</w>
| a
zust and</w>
zusam men
zus at
zusat z
znachenii am</w>
zip- arkh
zip line's</w>
zh det</w>
zertifi kat</w>
zero !</w>
zer legt</w>
zeil en-
zeilen- history</w>
zeich net</w>
zat ron
zatron ut
zatronut ykh</w>
zapi sei</w>
zah len</w>
zah len
zadan nymi</w>
zadan nykh</w>
zadan ie</w>
z z</w>
z ten</w>
z map</w>
z eb
zeb on
z ashch
zashch ishch
z anim
yerlest iri
yeni den</w>
yan k-
yam a</w>
yaf_route_ static</w>
ya z</w>
y/ x</w>
y- we
y-we in
y-wein berg</w>
y vat</w>
y p</w>
y ol</w>
y o
y n
yn 00</w>
y 1
y1 <
y1< y2</w>
y ,</w>
y *
y '</w>
xy z</w>
xml_ document</w>
xml- name</w>
x1 <
x1< x2</w>
x code</w>
x *</w>
writ er}</w>
work group</w>
word list()</w>
wor t</w>
wor kar
wign er</w>
widget 's</w>
wi re</w>
who is</w>
which pred</w>
weg t</w>
we bri
webri ck</w>
wat er
wang /e
wang/e ez</w>
wal ker</w>
wait pid</w>
wa v</w>
w on
w ish</w>
w est</w>
w er</w>
w c</w>
w 3c</w>
w /o</w>
vyzvan a</w>
vyv ai
vyvai as</w>
vyso tu</w>
vy tal
vytal kiv
vytalkiv aet</w>
vy kh</w>
vy bran
vy bor
vybor ki</w>
vozvrashch aia</w>
vo l</w>
vo da</w>
virtual ...
virtual... --</w>
view ed</w>
verzeich ni
verzeich n
verzeichn is
verschied ener</w>
ver halt</w>
ver ="
vent ana</w>
vend or_
velich inu</w>
vel ce</w>
vector ized</w>
variable _
variable 's</w>
vari avel</w>
varch ar</w>
var s()</w>
var binary</w>
valu e()</w>
validat ors</w>
valid acion</w>
val ence</w>
val 1</w>
vac io</w>
v8j s</w>
v8j s
v8js ::
v uiut</w>
v uel
v khod
v dt
v (
utiliz arse</w>
utilisat eurs</w>
ut mp</w>
ut mp
ushch est
ushchest v
use addr</w>
uscul as-
usculas- minusculas</w>
uscri ption</w>
us sian</w>
url- encoded</w>
uri }</w>
ur ck
ur b
urb ance</w>
upgra de</w>
updat e
up stream</w>
up sample</w>
up loads</w>
unter st
unterst ut
unit es</w>
unit ary</w>
unist ro
unikal nyi</w>
uni byte</w>
ung ing</w>
un supported</w>
un scaled</w>
un parsed</w>
un necessary</w>
un locks</w>
un lock</w>
un ity</w>
un ion
un does</w>
umgeb ung</w>
um o
um ina</w>
ulti ruiushch
ul yen</w>
ul y</w>
ukazan nye</w>
ukazan nomu</w>
ukaz yvaet</w>
uid l</w>
uh r
ugol ni
ug ht</w>
uch ast
ubere inst
ubereinst im
ub set
u zhe</w>
u voir</w>
u spesh
u f</w>
u e
typ elib</w>
typ e_
two- phase</w>
two- element</w>
two phase
twophase ()</w>
turun dey
turundey se</w>
tun nel</w>
tu io</w>
tru e,</w>
trou ver</w>
tro v</w>
trip les</w>
triang ular
tri g</w>
tri ed</w>
tri dimensional</w>
tri angul
tras si
transport }</w>
transpo ses</w>
transparen cy</w>
transform e</w>
trans itions</w>
trans it
trans _
trail ing"</w>
tra ite</w>
tra du
tra ding</w>
tra cer</w>
tr uly</w>
tr atar</w>
topic distribution
top down
tokeniz e()</w>
toch ki</w>
to_ s</w>
to_ parse</w>
to_ json</w>
to ur
to st</w>
to go
togo ws</w>
tls ciphertext</w>
title case</w>
timestamp non
timestampnon ce
timestamp ()</w>
timest ep</w>
ti m</w>
ti enne</w>
ti ds</w>
throwerrnoif minus
thread -specific</w>
thread -safe</w>
thread -local</w>
the y
thand ler
text input</w>
text encoding</w>
text domain
term vector</w>
ter ms
terms component</w>
tensor array
ten ec
tempor al
tempor aire</w>
templ ated</w>
temp file</w>
tel les</w>
tek rar</w>
tek il</w>
tear down</w>
te iro</w>
te in</w>
tcp _
target -
tarayic iya</w>
tanim li
tam sayi</w>
tak zhe</w>
tak imi</w>
tail les</w>
tail able</w>
tag name</w>
tag ge
tag _
tab- completion</w>
tab lo</w>
ta ux</w>
ta ki</w>
ta k</w>
ta im
ta -
t sat
tsat er
tsater ich
t ren
t ob
t lenec
tlenec k</w>
t elle</w>
t b
t ap
t ain
t *
szh imaet</w>
synchron ize</w>
syn cs</w>
symboli cally</w>
sym links</w>
sy ll
switch -to-
swar ms</w>
svoist vo</w>
sv a
susp ended</w>
susp ended
susp end
sur umu</w>
sur faces</w>
suppres sed</w>
supp orte</w>
supp liers</w>
super var</w>
super fici
superfici e</w>
sup prim
sup ]</w>
summary writer</w>
sum _
sum (
suj et</w>
suit es</w>
suc ces</w>
substr ()</w>
subscrib es</w>
subject :</w>
sub- process</w>
sub trees</w>
sub range</w>
sub expressions</w>
su je
suje to</w>
su i</w>
su by
suby acente</w>
style db
styledb r
styledbr ushed</w>
sty ler</w>
struct ure
string- or-
stri ke</w>
stream_ filter_
stra l</w>
str zebon
str ptime</w>
str and</w>
sto re
stim ator</w>
stem ming</w>
ste i</w>
std err
std dev</w>
status ?</w>
stats models</w>
statist ical</w>
stat ically</w>
stat d</w>
start_ date</w>
start buffering()</w>
standardiz ation
standardization =true</w>
standar t
standar d-
stan tes</w>
stan for
stagn ation_
stagnation_ epoch
stagnation_epoch s()</w>
stabili z
st ur
st ime</w>
st elle</w>
st and</w>
st ability</w>
sscan f()</w>
ss im
sr c
sqlit e-
sql err
sql context</w>
spro to
sprit es</w>
splfileinfo:: is
spezifi zierten</w>
specifi e,</w>
speci aux</w>
spec 's</w>
spe eds</w>
sparse vector</w>
space- separated</w>
sp lob
sp line</w>
sp ins
spins blocks</w>
sp ing</w>
sp ent</w>
soz dizimi</w>
source list</w>
sour cen</w>
sort_ index</w>
sort ed_
sorted_ keys</w>
sorg u</w>
sootvetstvuiushch ei</w>
soobshch aet</w>
son 's</w>
soli ut
sol ver="
sok ete</w>
socket_ set_
socket_ last_error()</w>
socket_ accept()</w>
sob res
soap server
so_ re
so_re useaddr</w>
so uscription</w>
so u
so on</w>
so mb
so id</w>
so fer
sofer n</w>
sn iff</w>
smooth ed</w>
smo oth</w>
small "</w>
slush aiushch
slu zh
slo t-
ski sel</w>
skew ness</w>
site- local</w>
siral ama</w>
sint ak
sini fl
sin cron
simul a</w>
simpli fic
simple immutable
simpleimmutable entry</w>
simil ares</w>
sign er</w>
sig no</w>
sig ne
si o</w>
si em
siem pre</w>
si de
si cion</w>
shut down
shrif ta</w>
short ened</w>
sho w_
shir inu</w>
shif t
shel l-
shared variable</w>
shape =
shap e,</w>
shab lo
sh tein</w>
sh run
sh orth
shorth and</w>
sh est
shest n
shestn ad
shestnad tsaterich
sh e</w>
sg v1</w>
sg v0</w>
sev en</w>
seu il</w>
sett ing
set }</w>
set table</w>
session _
session .
servic egroup</w>
server }</w>
server ov</w>
serv erend
seq base</w>
sen al
seed =none)</w>
security options</w>
second }</w>
secon de</w>
secen e
sec -
search _
se us</w>
se u</w>
se tr
se of</w>
se ines</w>
se h
se e
se ch
se as
se al
se )</w>
sdo_das_ xml_document</w>
sdcal og
sdcalog istic
sdcalogistic classifier</w>
sci entifi
scientifi c</w>
schreib -
schnit t
schlussel -
schem el
sch ut
sch iz
schiz om
scen ario</w>
scal e
scale factor</w>
sc rolls</w>
sc p</w>
sayis al</w>
save_ wordlist()</w>
satur day</w>
satisfi ed</w>
satisfi ability</w>
sanit ize</w>
samp integrat
sampintegrat ed
sampintegrated client</w>
safe _
sab lon</w>
sa h
s_ len</w>
s_ i</w>
s/ arrays</w>
s' est</w>
s objekt</w>
s do</w>
s bras
sbras yvaet</w>
s auf</w>
s as
s ap
s als</w>
s [i]</w>
s ',</w>
rypt_generic ()</w>
rut as</w>
row -
rout er</w>
roug h
rough ly</w>
rot ating</w>
root object</w>
root _
rol led</w>
ro up
ro le
ro jo</w>
ro ff
ro c</w>
ro bo
robo ts</w>
rit as-
ritas- strzebon
ril an</w>
ri al</w>
rh sm</w>
rh o</w>
rf _
rez ultiruiushch
rewind iterator</w>
revi sion
rever se-
rev ()</w>
return transfer</w>
retro propag
retropropag acion</w>
ret ry
ret ained</w>
resum e
result proxy</w>
restri ct</w>
respon ding</w>
respect iv
resp ects</w>
resource }</w>
resol v</w>
resnet_ v
reshap es</w>
res sourcen</w>
res net</w>
res min
res me</w>
res izes</w>
requ is</w>
requ is
requ iring</w>
represent ative</w>
represent ational</w>
repras entation</w>
replic ation</w>
rep s</w>
renvo ie</w>
renomb ra</w>
renam ing</w>
ren t
remo val</w>
rem plac
rele aser</w>
reih en
regul ares</w>
regression results</w>
regres sions</w>
regexpchunk parser</w>
reg ar
reflection function</w>
refle ctor</w>
referenti al</w>
reemp laz
recursive iterator</w>
recuper acion</w>
recupe ree</w>
reco g
reci entemente</w>
rec y
rec o</w>
rec ente</w>
realiz uet</w>
realiz ation</w>
real name</w>
real -
real- valued</w>
reading command</w>
read_ and_
read gz
read er}</w>
read er's</w>
read dir</w>
re- route</w>
re z</w>
re xml</w>
re ve
re stored</w>
re positions</w>
re opens</w>
re nomme</w>
re member</w>
re mapping</w>
re located</w>
re jection</w>
re inicializa</w>
re inicia</w>
re g</w>
re form</w>
re dimension
re connect</w>
re compute</w>
re call
recall @k</w>
re alloc
re -</w>
rdoc -
raz resh
raz deli
ray le
rayle igh</w>
rasshiren ie</w>
random access
random _
rand 48</w>
ran sp
ran k-
rac cour
ra id</w>
ra g</w>
r ussian</w>
r r</w>
r n
r ms</w>
r m</w>
quickhash int
queuerun ner</w>
query _identifier</w>
query 's</w>
quantiz ed</w>
quant ite</w>
qu its</w>
qu ir
qu est</w>
qu el
qu and</w>
qpainter path</w>
q t
q standard
q rect
q point
q ?
py openssl</w>
py code</w>
py c</w>
py _name</w>
put _
pt_ returntransfer</w>
pspell_ save_wordlist()</w>
psevdon im
psevdonim om:</w>
psev do
pseu do</w>
pru fung</w>
proxy 's</w>
prover ku</w>
prover 9</w>
protsess u</w>
protoko la</w>
proto tipo</w>
proper ti
prop s</w>
prop name</w>
project ive</w>
proizoshedsh ei</w>
progres s
program matic</w>
produ ite</w>
produ ct
procedimi entos</w>
probabilist ic</w>
prob able</w>
pro ve
pro positional</w>
pro mise</w>
pro cur
priv ate_
print -
princi pio</w>
primary join</w>
pri sva
pri ces</w>
prepared request</w>
prep ended</w>
preobrazov anie</w>
pregun ta</w>
preferences get
predu ce</w>
predstavlen iia</w>
prediction s"</w>
preci sions</w>
prece ss
pre process</w>
pre fik
pre fetch</w>
pre cat
pre _
pra va</w>
pr une</w>
pr un
pr n</w>
poto ke</w>
post s</w>
post fix</w>
possib ility</w>
posledne m</w>
posled nii</w>
posix file</w>
position ing</w>
port ions</w>
pool ed</w>
[...]
