t h
r e
i n
th e</w>
a t
e r
c o
e n
i o
a n
s t
o f</w>
u r
a r
a l
e s</w>
o r</w>
e d</w>
i t
io n</w>
t o</w>
re t
in g</w>
o r
e r</w>
ret ur
r o
c t
i s</w>
s e
d e
l e</w>
f i
n s</w>
f or</w>
a m
i n</w>
an d</w>
i v
co n
u n
a s
d i
l i
e n</w>
e c
l o
u t
l e
retur n</w>
a n</w>
s t</w>
t r
a c
at e</w>
a b
e x
a t</w>
en t
m p
retur ns</w>
re s
o n
u l
th is</w>
a l</w>
p ar
at ion</w>
st r
m o
c h
v al
u s
a d
u m
e t
q u
c e</w>
ct ion</w>
f ro
g iv
m e
giv en</w>
fro m</w>
a p
val u
en t</w>
d at
w it
p o
i f</w>
wit h</w>
a s</w>
p ro
v er
n e
f or
th at</w>
w h
o b
n o
r i
o n</w>
t i
c al
a g
s i
c l
s p
e l
f un
i l
s e</w>
in t
ec t</w>
co mp
ob j
am e</w>
g e
li st</w>
r a
u t</w>
l y</w>
se t</w>
c re
ab le</w>
er s</w>
b y</w>
d o
m at
m a
t s</w>
i c
fun ction</w>
re n
u p
i d
t e
p er
al l</w>
i t</w>
io n
obj ect</w>
c e
co l
en s
fi le</w>
valu e</w>
io ns</w>
k e
cl as
st an
s h
co r
dat a</w>
s s
par am
ent s</w>
str ing</w>
d s</w>
d e</w>
p res
ge t</w>
b e</w>
i z
con t
s o
y p
v e</w>
for m
l in
s u
mo de
s er
ar i
th o
le m
i m
param et
at es</w>
p re
ap p
b o
c ur
t yp
a ct
th er</w>
on e</w>
clas s</w>
ar e</w>
n ame</w>
c t</w>
in g
e ct
l es</w>
de f
cal l
ar y</w>
ut e</w>
s ion</w>
i b
f e
o p
n um
g en
con ver
d u
in stan
p ut</w>
a in
me tho
mode l</w>
i g
i fi
ag e</w>
e m
ch ec
b e
int er
d ing</w>
cre ate</w>
at ed</w>
t o
ne w</w>
v ari
t ens
paramet ers</w>
' s</w>
iv e</w>
s c
in to</w>
u e</w>
a r</w>
i al
a d</w>
ur e</w>
sp ec
t er
se l
typ e</w>
ar g
co m
s y
w r
in it
c i
it s</w>
v i
metho d</w>
lo c
valu es</w>
an g
num b
ren t</w>
gen er
c es</w>
p l
ic h</w>
wh ich</w>
tr an
us ing</w>
mat ri
m e</w>
i st
ex t</w>
or d
for m</w>
re d</w>
h o
c h</w>
col um
i c</w>
an d
str u
it y</w>
in de
numb er</w>
no t</w>
m in
tr ue</w>
in t</w>
instan ce</w>
k e</w>
spec ifi
us e</w>
re g
re pres
e lem
tran s
u p</w>
at or</w>
di ct
w e
p a
re qu
ac h</w>
us ed</w>
b as
o ut
matri x</w>
v er</w>
sel f</w>
p r
e m</w>
p y
p at
ul t</w>
en ce</w>
g r
po s
wh en</w>
a m</w>
n am
l y
w or
l a
ar ra
su b
e ach</w>
or s</w>
ac e</w>
a f
k s</w>
s s</w>
i es</w>
re mo
it er
repres ent
ial iz
h e
call ed</w>
i mp
b u
wr it
w i
cur rent</w>
conver t</w>
t a
res p
l {
a v
ut es</w>
com m
t er</w>
fi el
e v
ad d</w>
t h</w>
i al</w>
e d
t ed</w>
con ne
u s</w>
con stru
e st
te st</w>
t able</w>
p y</w>
o l
m ul
inde x</w>
or y</w>
r u
in put</w>
am p
t w
h and
h as</w>
re ad
i d</w>
c ul
( )</w>
sh o
arra y</w>
f in
fi l
comp ute</w>
specifi ed</w>
p or
tens or</w>
def a
g ro
resp on
pat h</w>
dict ion
cont ain
py th
g et
er e</w>
: class</w>
t up
se ts</w>
lin e</w>
en d</w>
t e</w>
b ac
an y</w>
a ve</w>
arg um
er r
init ializ
p er</w>
se qu
c {
o ther</w>
chec k</w>
at tr
ke y</w>
lo g
ex pres
o p</w>
ke y
st at
d ate</w>
sc ri
f f
me ss
p t
at ions</w>
re ct
st s</w>
o per
ti me</w>
l ab
attr ib
it ion</w>
e g
st ate</w>
ad d
ul d</w>
co de</w>
as e</w>
qu er
re e</w>
il l</w>
gr ap
ex p
s es</w>
pyth on</w>
defa ult</w>
e qu
colum n</w>
ut ion</w>
o ut</w>
tw o</w>
s ed</w>
st ar
e l</w>
th e
par se</w>
cal cul
t ing</w>
r an
c an</w>
form at</w>
mul ti
po ly
w ill</w>
w e</w>
p ut
fe at
si g
re s</w>
fe ren
out put</w>
represent ation</w>
ect s</w>
h el
form ation</w>
p as
tr y</w>
pro ce
li c
fi r
po int</w>
ig h
pro du
in di
diction ary</w>
p h
b in
en d
sequ ence</w>
r ame</w>
di str
on ly</w>
t ext</w>
l s</w>
d er
n on
no de</w>
cre ates</w>
ter min
lo ad</w>
wh e
sho uld</w>
imp lem
distr ib
vari able</w>
re l
he ad
expres sion</w>
ac h
ab les</w>
v id
re cor
conne ction</w>
m ent</w>
pro vid
re ad</w>
constru ct</w>
en g
di ct</w>
at ive</w>
or e</w>
de scri
w id
fiel d</w>
w s</w>
tup le</w>
ing s</w>
s ing
no m
ru n</w>
n one</w>
se e</w>
di rect
st re
c at
n al</w>
whe ther</w>
se t
as t</w>
a il
poly nom
in formation</w>
ord in
g ra
con fi
po int
ion al</w>
hel per</w>
par am</w>
writ e</w>
n ing</w>
err or</w>
comm and</w>
fir st</w>
v ect
li ke</w>
grap h</w>
remo ve</w>
bas ed</w>
h ave</w>
elem ent</w>
b et
la y
comp utes</w>
obj ects</w>
du le</w>
p ac
cl u
un d</w>
o ver</w>
i r
s up
te mp
un i
s um
ver sion</w>
si b
d er</w>
_ _
op t
f o
ord er</w>
f act
ch ang
mess age</w>
co ordin
si z
di sp
co un
ar d</w>
s cal
quer y</w>
b y
o ver
stre am</w>
sing le</w>
s ame</w>
at t
e st</w>
we en</w>
s amp
bet ween</w>
gro up</w>
up date</w>
res ul
ex ec
lo ad
di m
nam es</w>
mo dule</w>
i s
i f
di f
bu il
te sts</w>
ma in</w>
c lo
b loc
ev ent</w>
def in
sy st
w a
bac k</w>
wh ere</w>
d es</w>
get s</w>
lin e
le ct
lab el
s o</w>
mp y</w>
elem ents</w>
wi se</w>
sh ap
l eng
de termin
contain ing</w>
int eg
so l
chec ks</w>
u m</w>
h t
ret ri
fin d</w>
tr ac
m an
gener ate</w>
m l</w>
initializ e</w>
distrib ution</w>
pro b
inter nal</w>
argum ents</w>
u g
fun ct
de p
c an
i p
ro o
por t</w>
ic al</w>
head er</w>
af ter</w>
in put
colum ns</w>
as so
n or
ge o
ex t
ser ver</w>
polynom ial</w>
lo w
pt ion</w>
a x
dim ens
cal l</w>
vari ables</w>
c ach
asso ci
syst em</w>
s ch
us er</w>
t y</w>
b ut</w>
requ est</w>
t ree</w>
siz e</w>
be en</w>
it em
dat af
recor d</w>
re ce
o d</w>
i mat
fi le
ex ist
ch ar
an ce</w>
al ly</w>
il ity</w>
cor respon
vi e
ma ke</w>
cont ext</w>
st e
p ri
- ></w>
multi p
u st</w>
attrib ute</w>
sib le</w>
w n</w>
f fi
le v
sy m
direct ory</w>
c um
at ing</w>
trans form</w>
in f
o k
leng th</w>
e valu
de le
bas e</w>
reg ist
ran do
hand le</w>
wor d</w>
ti me
t es</w>
m ar
e s
ur ce</w>
non -
integ er</w>
en c
star t</w>
im age</w>
f lo
add res
ma x
m et
m app
d ra
res ult</w>
p lo
dataf rame</w>
st o
j o
en co
conver ts</w>
di s
e _
calcul ate</w>
vect or</w>
app ly</w>
we igh
re pl
mat ch
lo g</w>
feat u
dat a
c li
iv ate</w>
re feren
ne l</w>
co py</w>
or t</w>
c le
est imat
or i
m on
wid get</w>
prob ab
shap e</w>
pos ition</w>
correspon ding</w>
comp le
el y</w>
bo o
ad ds</w>
ro w</w>
associ ated</w>
paramet er</w>
it em</w>
ffi ci
dat ab
respon se</w>
li st
ent ation</w>
resul ts</w>
confi g
n o</w>
f al
d o</w>
l ed</w>
fi c
s q
ke t</w>
id ent
e ffici
ac ce
w in
p t</w>
so me</w>
nor m
ex ce
ti m
[ x
n u
m ore</w>
geo me
v es</w>
sym bo
se ction</w>
f ul
indi ces</w>
datab ase</w>
b at
a u
y s</w>
se lect
proce ss</w>
pro per
n ed</w>
i r</w>
pr ivate</w>
k ing</w>
m s</w>
gra di
for mat
ch il
a st
over ri
o th
me m
point s</w>
fi les</w>
ly ing</w>
* *
ra i
per form</w>
z er
ver se</w>
pos it
im um</w>
i p</w>
d type</w>
stan d
ser ies</w>
addres s</w>
stru ct
hand l
conne ct
attrib utes</w>
arg s</w>
ag es</w>
' t</w>
u r</w>
pro to
k es</w>
f l
d ed</w>
@ param</w>
si mp
to k
th m</w>
par ti
char act
r un
pr int</w>
in e</w>
[x ]</w>
se ss
pas sed</w>
al g
win do
provid ed</w>
fi t</w>
ex amp
em ent</w>
do c</w>
t ar
nam e
feat ure</w>
e i
a in</w>
dat et
clas si
wi th
str ings</w>
rando m</w>
constru ct
col =
up dat
e ve</w>
de cor
cur s
vie w</w>
val id</w>
retri eve</w>
co effici
av ail
lev el</w>
alg ori
u al</w>
tr ain
m i
s par
ma p</w>
lin es</w>
le ction</w>
key s</w>
fil en
el l</w>
co l</w>
se con
do main</w>
ab le
vari ance</w>
nu mpy</w>
label s</w>
iter ator</w>
rece iv
iz ed</w>
im e</w>
bac k
form s</w>
wr app
ur l</w>
tens ors</w>
r ang
pr int
inf o</w>
avail able</w>
ap pro
th em</w>
s end</w>
proce ss
at ion
a use</w>
un der
item s</w>
ug h</w>
r d
w ar
s qu
pac k
d en
ch an
an t</w>
algori thm</w>
ro ws</w>
it ies</w>
vi ce</w>
tar get</w>
d iv
a ction</w>
roo t</w>
pa th
defin ed</w>
bloc k</w>
gener ates</w>
fal se</w>
cach e</w>
pos sible</w>
lab el</w>
att r</w>
argum ent</w>
ab out</w>
w as</w>
sch em
o m
k er
enc y</w>
sp ace</w>
n et
wor k</w>
requ i
pa ir
p i
under lying</w>
reg res
li ke
iz e</w>
it e</w>
inde x
ax is</w>
tens or
sig n
si de</w>
oth er
coun t</w>
so urce</w>
s ent
k no
funct ions</w>
di stan
coordin ate</w>
" ,</w>
un it</w>
f rame</w>
d _
samp le</w>
loc al</w>
like li
likeli ho
input s</w>
bo x</w>
: doc</w>
val id
th en</w>
sess ion</w>
requ est
ma y</w>
la y</w>
th ro
no des</w>
ei ther</w>
d a
bu ff
s co
represent ing</w>
do es</w>
determin e</w>
by tes</w>
s on</w>
pre dict
comp o
a ut
th ing</w>
plo t</w>
lo n
l ast</w>
h as
t ag
ser v
s av
par s
man ag
chang e</w>
al s</w>
stand ard</w>
pat ter
m ut
line ar</w>
ig n
chec k
us es</w>
sq l</w>
rang e</w>
oper ator</w>
likeliho od</w>
for e</w>
n ext</w>
inter f
fiel ds</w>
cor e</w>
be fore</w>
ac es</w>
loc ation</w>
do cum
cur ren
con v
al lo
u b
thro ugh</w>
in ser
buil d</w>
bin ary</w>
bat ch</w>
an other</w>
v al</w>
m ary</w>
geome try</w>
filen ame</w>
der iv
col or</w>
c ated</w>
me an</w>
coordin ates</w>
clu st
trac t</w>
specifi c</w>
regist er</w>
pair s</w>
oper ation</w>
en ding</w>
ex tr
c er
bo un
a se
uni qu
o ff
me tr
mapp ing</w>
m ust</w>
lo op</w>
iz ation</w>
in clu
ial s</w>
gradi ent</w>
cat eg
b i
se ar
exist s</w>
en try</w>
datet ime</w>
th an</w>
sy n
st ore</w>
fic ation</w>
e ver
ul es</w>
fun c</w>
en tr
s ions</w>
out put
ht t
handl er</w>
data set</w>
c ent
windo w</w>
ur ation</w>
pre v
a re
- like</w>
s parse</w>
re ct</w>
r at
lo ok
implem entation</w>
g e</w>
e ss
disp lay</w>
con d
clas ses</w>
: return</w>
t ion</w>
par t</w>
fil ter</w>
f ol
descri pt
aut o
produ ct</w>
e -
decor ator</w>
buff er</w>
with in</w>
the ir</w>
read y</w>
o k</w>
lay er</w>
l ate</w>
in verse</w>
c u
c r
as k</w>
w n
s cre
proto col</w>
res o
n ec
l at
gro up
f ail
en ds</w>
descri ption</w>
de pre
cont ro
comp ut
ac cor
zer o</w>
train ing</w>
ser ializ
uniqu e</w>
qu e
o us</w>
dif feren
chil d</w>
app lic
app li
wrapp er</w>
su m</w>
s ave</w>
ri g
read s</w>
overri de</w>
dele te</w>
at temp
_ _</w>
op tim
li m
f requ
au th
ul ar</w>
typ es</w>
struct ure</w>
o ur</w>
ne w
mo d
ho l
f r
calcul ates</w>
cal ly</w>
boo le
t ext
param s</w>
m ents</w>
f et
tr ace</w>
s or
rel ation</w>
re p
ic k
ang le</w>
th ere</w>
s li
mat ch</w>
m il
ic s</w>
g o
ful l</w>
exp ect
col lection</w>
t ly</w>
re du
qu o
op s</w>
mo de</w>
i l</w>
h t</w>
accor ding</w>
: py</w>
stat ement</w>
se g
referen ce</w>
re d
pas s
other wise</w>
e mp
comp on
o se</w>
instan ces</w>
distan ce</w>
chan nel</w>
y ing</w>
x ml</w>
tup les</w>
op en</w>
nec ess
k [x]</w>
ent ed</w>
be g
al i
t re
s core</w>
retur ned</w>
o c
m y</w>
iv al
ho st</w>
h y
en ces</w>
de red</w>
ap i</w>
u l</w>
spar se
no ti
max imum</w>
li c</w>
ev ents</w>
> >
: param</w>
us er
ta kes</w>
sp e
re act
or ig
necess ary</w>
im ate</w>
comp at
clo se</w>
c ase</w>
boole an</w>
samp les</w>
multip le</w>
fi x
exce ption</w>
equ ival
con stan
g lo
ex tract</w>
ta g</w>
rd d</w>
ma in
dep end
def er
coeffici ents</w>
cli ent</w>
>> ></w>
wi tho
witho ut</w>
st op</w>
pl ace</w>
pa rent</w>
opt ions</w>
o f
interf ace</w>
et s</w>
con str
ap s</w>
al ign
m er
iv ely</w>
indi c
cont ent</w>
ch un
al ready</w>
ag ain
act ive</w>
tok en
st y
receiv ed</w>
match ing</w>
ident ifi
i le</w>
exec ute</w>
depre cated</w>
de l
config uration</w>
si st
si mil
regres sion</w>
proper ty</w>
prev io
manag er</w>
grap h
ever y</w>
disp lay
curren tly</w>
compat ib
v e
u res</w>
sup por
ste p</w>
sear ch</w>
on g</w>
cl ause</w>
at ors</w>
again st</w>
v ar
s k
ne g
lin k</w>
ed ed</w>
call back</w>
ter ms</w>
t it
inter val</w>
writ es</w>
remo ves</w>
re curs
pre di
par ses</w>
pac ket</w>
load s</w>
in st
if y</w>
featu res</w>
estimat or</w>
equ al</w>
dra w</w>
compo s
appro pri
wor ds</w>
te st
qu an
probab ility</w>
le f
id s</w>
g re
cor p
sup port</w>
sp li
retur ning</w>
p e</w>
nam ed</w>
f y</w>
c ro
spli t</w>
p s</w>
mode l
ker nel</w>
glo b
frequ ency</w>
expect ed</w>
exist ing</w>
cul ar</w>
' ,</w>
t al</w>
repl ac
mess ages</w>
j ust</w>
int e
in al</w>
implem ent</w>
gener ator</w>
g er</w>
contain s</w>
b ase
weigh ts</w>
t _
sel ect</w>
quer y
patter n</w>
norm al
ne eded</w>
initializ es</w>
dimens ion</w>
descri b
am p</w>
se par
scal e</w>
scal ar</w>
po w
p ick
off set</w>
mode ls</w>
mo st</w>
htt p</w>
deriv ative</w>
b r
al ong</w>
) ,</w>
sum mary</w>
si an</w>
rai se</w>
no t
fo re
distrib ut
con n
c a
mul t
ma x</w>
kno wn</w>
examp les</w>
cu sto
col= "
ta ke</w>
sy mpy</w>
sp y</w>
n 't</w>
l l
fi x</w>
conn ect</w>
co variance</w>
ch o
wa y</w>
tr i
rig ht</w>
n d
mo n</w>
inte gr
corp us</w>
c ket</w>
an s</w>
( self</w>
t ur
res ol
repl ace</w>
re f
li sts</w>
g a
fo und</w>
c ell</w>
be ing</w>
a ver
per mut
metho ds</w>
lo ss</w>
in v
igh t</w>
ens ure</w>
e )</w>
do wn
d ro
cre ated</w>
st ac
ser vice</w>
produ c
pro x
pl a
pars er</w>
num er
n er</w>
match es</w>
log -
le ss</w>
scre en</w>
res id
pro j
per forms</w>
m a</w>
le ar
e }</w>
def init
d um
com bin
classi fi
the y</w>
p ret
mi ss
exec ut
cum ul
call s</w>
applic ation</w>
wh ose</w>
su ch</w>
select ed</w>
re al</w>
probab il
ob serv
gra m</w>
fact or</w>
emp ty</w>
do c
dif fe
charact er</w>
chang ed</w>
can v
s in
requi red</w>
rel ated</w>
recor ds</w>
net work</w>
look up</w>
f ree</w>
er ing</w>
diffe rent</w>
d on
appropri ate</w>
ter m</w>
sty le</w>
s '</w>
retri ev
p age</w>
or t
iv ari
e red</w>
cont ents</w>
com mon</w>
arra ys</w>
y i
y -
vect ors</w>
s }</w>
ro n
produ ce</w>
parti cular</w>
p ub
ivari ate</w>
examp le</w>
est imate</w>
as ser
add ed</w>
yi el
st or
simp le</w>
sign at
sh if
ro t
mem b
inser t</w>
de bu
al so</w>
valid ate</w>
temp or
secon ds</w>
ru le</w>
ra w</w>
que ue</w>
pre diction
polynom ials</w>
mo di
gener ated</w>
g ing</w>
equival ent</w>
al ph
wid th</w>
symbo l</w>
s m
pi x
ist ic</w>
equ ation</w>
da y</w>
d b
ad e</w>
x _
updat es</w>
u se
tr u
su it
su c
process ing</w>
no de
met ad
lef t</w>
ent ic
end ed</w>
ch es</w>
auth entic
at a</w>
align ment</w>
a red</w>
val i
vali dat
suc ce
sent ence</w>
ro py</w>
request ed</w>
ran k</w>
or dered</w>
ob j</w>
k er</w>
init ial</w>
ht ml</w>
fact ory</w>
f re
evalu ate</w>
constan t</w>
c al</w>
v ed</w>
u ally</w>
metad ata</w>
me di
key word</w>
imp ort</w>
f it
d y
confi g</w>
charact ers</w>
al low
ab sol
} ,</w>
v ing</w>
to tal</w>
mem ory</w>
h ist
h av
f on
err ors</w>
enco ding</w>
e ff
descript or</w>
contro l</w>
cle ar</w>
bo th</w>
ac t</w>
star ting</w>
s _
provid e</w>
norm al</w>
min imum</w>
k ed</w>
g u
flo at</w>
expres sions</w>
ent ity</w>
e ar
construct s</w>
c el
b it</w>
z y
vi a</w>
s ure</w>
l{ i
gr am
glob al</w>
g c
form ed</w>
ex tens
elem ent
div id
dimens ions</w>
di ag
c ar
b ro
attemp t</w>
temp late</w>
str i
st r</w>
st ed</w>
so cket</w>
simil ar</w>
sel f
rece ive</w>
pre dict</w>
opt ion
im al</w>
i ss
i cally</w>
f ul</w>
e t</w>
custo m</w>
ali as</w>
al l
absol ute</w>
* *</w>
str ing
spe c</w>
ro ut
resp ect</w>
reso urce</w>
pres ent</w>
per io
ob spy</w>
o l</w>
load ed</w>
l ec
jo in</w>
f a
clust er</w>
c le</w>
uni code</w>
time st
ti es</w>
t able
se q
schem e</w>
ri d</w>
pow er</w>
o s</w>
iz er</w>
entr ies</w>
curs or</w>
wa ys</w>
symbo ls</w>
stac k</w>
ru ns</w>
recurs ively</w>
orig inal</w>
mar k</w>
ir e</w>
in ste
do wn</w>
dimens ional</w>
cont in
allo w</w>
tok en</w>
roo ts</w>
remo te</w>
output s</w>
iter ate</w>
funct ion
enco ded</w>
defa ul
de vice</w>
cor rect</w>
categ or
ag g
ad ding</w>
= none</w>
w ard</w>
ta in</w>
sig n</w>
sco pe</w>
run ning</w>
probabil ities</w>
predict ions</w>
pre fix</w>
pas s</w>
ne t</w>
inste ad</w>
don 't</w>
bo und</w>
b it
as es</w>
ar o
ar ch
al o
un ti
suit able</w>
sto red</w>
sli ce</w>
simp li
s ion
matri ces</w>
i st</w>
has h</w>
exp r</w>
di r</w>
compatib le</w>
sp at
sho w</w>
s a
s -
re set</w>
prox y</w>
neg ative</w>
ig r
fact ors</w>
d ens
cond it
comple te</w>
ci sion</w>
call able</w>
as sum
appli es</w>
al ity</w>
unti l</w>
typ e
th read</w>
s )</w>
posit ive</w>
po p
p li
opt ional</w>
oper ations</w>
metr ic</w>
i o</w>
d r
construct or</w>
constr ain
by te</w>
beg in
ver ti
us ly</w>
t ers</w>
s ()</w>
po l
ne ed</w>
ma kes</w>
it 's</w>
instan ti
i python</w>
ho st
fon t</w>
fol low
fi ed</w>
docum ent</w>
den se</w>
d y</w>
coeffici ent</w>
classi fication</w>
chil d
aro und</w>
y o
t ask</w>
s ort</w>
s g
pack age</w>
no te</w>
n ul
m l
m ent
j son</w>
in cre
hy per
get _
gc d</w>
fet ch</w>
extr a</w>
do es
coun ts</w>
an not
schem a</w>
met h</w>
m in</w>
k w
io r</w>
f ra
d b</w>
chang es</w>
c s
c ed</w>
c ast</w>
act ual</w>
ab led</w>
2 d</w>
un its</w>
shif t</w>
s v
proper ties</w>
ph y
p ag
mo lec
m aps</w>
le x
implem ents</w>
g es</w>
featu res
fact or
exec ution</w>
bo dy</w>
: func</w>
y _
tw ist
sup pli
sist ent</w>
sin ce</w>
signat ure</w>
s af
react or</w>
path s</w>
obj ect
numb ers</w>
line ar
group s</w>
e ar</w>
comp res
comp il
comp ari
canv as</w>
c ut
b l
: meth</w>
u re
tag s</w>
t f</w>
stat us</w>
sp l
set t
sequ ences</w>
retriev es</w>
pa ir</w>
mon it
ho ok</w>
geome tr
ex ist</w>
el s</w>
does n't</w>
disp at
classifi er</w>
c k
w ing</w>
s /
re stri
re n</w>
pyth on
pl an
permut ation</w>
li b</w>
im ag
di sc
de vi
conv ol
contin u
compon ents</w>
col lect
child ren</w>
agg reg
trans l
se ed</w>
sc ap
s ent</w>
op en
nd array</w>
me as
indic ate</w>
fro m
f n</w>
f its</w>
equ ations</w>
en zy
em be
de c
c y
boun d
ax es</w>
aver age</w>
at e
_ name</w>
ul ar
squ are</w>
sor ted</w>
secon d</w>
s ur
ren der</w>
reg ion</w>
mod ules</w>
iter able</w>
head ers</w>
hand les</w>
d stream</w>
d ent
cor relation</w>
ci es</w>
bas ic</w>
at or
at o
as ci
argum ent
am b
al ways</w>
ad j
acce ss</w>
__ init
= 0</w>
yo u</w>
twist ed</w>
trans formation</w>
set ting</w>
ro ll
repres ents</w>
rel ative</w>
pa y
p ed</w>
n -
iter ation</w>
it ive</w>
inter ce
fix ed</w>
fiel d
en vi
defer red</w>
connect ed</w>
col= none</w>
cach ed</w>
bloc k
back end</w>
ad ing</w>
act iv
z one</w>
un der</w>
t a</w>
sig nal</w>
sett ings</w>
rel ation
read ing</w>
re le
ra p</w>
ra di
r f
po lic
om ial</w>
lon g</w>
lo cal
inclu ding</w>
fin ds</w>
embe d
cro ss
cond ition</w>
b its</w>
appro x
@ type</w>
= =</w>
ur ing</w>
the se</w>
s is</w>
rando m
pub lic</w>
po st
option ally</w>
la g</w>
l ing</w>
iv es</w>
inst al
in feren
extens ion</w>
en abled</w>
e scap
defin e</w>
c ap
valu e
tre es</w>
tran sp
token s</w>
tho se</w>
t ables</w>
regist ered</w>
print s</w>
po ol</w>
p n
le ast</w>
l ang
indi cat
e ds</w>
d f</w>
compari son</w>
co ok
categ ory</w>
c ut</w>
by te
allow ed</w>
^ 2</w>
timest amp</w>
suppli ed</w>
sol ve</w>
scri pt</w>
resid u
referen ces</w>
predi ction</w>
polic y</w>
pl ac
ph ase</w>
pass word</w>
p e
opt ion</w>
mer ge</w>
lon g
le t
lang u
im ation</w>
ga us
g rid</w>
fr ag
format s</w>
determin es</w>
dens ity</w>
definit ion</w>
de f</w>
d ence</w>
compos ition</w>
cer ti
ast ropy</w>
appli ed</w>
w rap</w>
to _
suppor ted</w>
so me
seg ment</w>
r ules</w>
o d
ma il
k -
in -
gro und</w>
flo w</w>
flo at
extr act
envi ron
ci r
cat alo
asci i</w>
am pl
w o
ver ify</w>
ur l
tur n</w>
t -
sub set</w>
st it
sh ed</w>
se lection</w>
rai ses</w>
previo usly</w>
plo t
pl at
parti al</w>
on al</w>
o ks</w>
nul l</w>
m igr
ke e
j av
ip v
int s</w>
identifi er</w>
ho w</w>
h d
ct ions</w>
c entr
c ation</w>
am es</w>
ag s</w>
ac cumul
a res</w>
= =
wo uld</w>
wh at</w>
ut ility</w>
sh ip</w>
s h</w>
rout ine</w>
r e</w>
quan t
pos sib
optim izer</w>
on ce</w>
ol d</w>
n ative</w>
mess ag
m ag
loc k</w>
lo w</w>
list en
k in
jo in
indicat ing</w>
he ight</w>
h ere</w>
gradi ents</w>
format ted</w>
for ward</w>
evalu ates</w>
en i
differen ti
di rect</w>
dep th</w>
debu g
cont ain</w>
con cat
compon ent</w>
chun k</w>
b ut
weigh t</w>
th res
ser ver
s d
s **</w>
reso ur
rat ional</w>
ra m</w>
pay load</w>
m ade</w>
it y
inter val
in side</w>
f ut
f lag</w>
concat en
bas is</w>
b re
as s</w>
app end</w>
act ually</w>
] ,</w>
= "
wh ile</w>
weigh ted</w>
u red</w>
u b</w>
trans forms</w>
tr ain</w>
thres hol
t en</w>
t arg
sent ences</w>
reg i
regi str
r n
point er</w>
non e)</w>
no thing</w>
ne sted</w>
mo dif
lim it</w>
implem ented</w>
il y</w>
has h
ful ly</w>
fin al</w>
featu re
ent ly</w>
el li
do t</w>
distribut ions</w>
de st
cr iter
comple x</w>
comp are</w>
cer tain</w>
an ds</w>
al ge
acce ss
= 1
2 -
0 0
** argument
writ er</w>
vi su
termin al</w>
sub class</w>
stor age</w>
sch e
s ens
previo us</w>
po ol
par t
name space</w>
n _
multi -
jo b</w>
inferen ce</w>
fail ure</w>
en cies</w>
div i
differen ce</w>
de code</w>
de co
d uring</w>
conv eni
contain er</w>
call ing</w>
authentic ation</w>
1 -
- -</w>
**argument s**</w>
sp ect
re ction</w>
r t
pro to</w>
p and
m b
kw args</w>
initializ ation</w>
ial ly</w>
h er
file -like</w>
f t
environ ment</w>
del ta</w>
de n</w>
d n
col l
catalo g</w>
c _
war ning</w>
vie w
ver ifi
un t</w>
tempor ary</w>
sub classes</w>
read able</w>
re port</w>
pop ul
poly g
po t
pn g</w>
pars ing</w>
p end
mult ivariate</w>
miss ing</w>
m ask</w>
lo ok</w>
g ree</w>
follow ing</w>
fl att
en o
em ents</w>
el se</w>
e ()</w>
dep ending</w>
de composition</w>
d -
col or
clas s
c ate</w>
buil ds</w>
begin ning</w>
asser t</w>
ang ular</w>
acce p
ac ro
( ),</w>
y thing</w>
wor ks</w>
w ant</w>
v o
to p</w>
tim es</w>
t op
s mo
r ing</w>
predict ed</w>
per im
of f</w>
metr ics</w>
le ading</w>
er _
dy nam
de gree</w>
contain ed</w>
confi dence</w>
certi fic
bloc ks</w>
allo ws</w>
adj u
__init __
] )</w>
y 's</w>
u le</w>
suppor ts</w>
stat ist
saf e</w>
s at
re -
r g
quan ti
pre cision</w>
possib ly</w>
p ing</w>
or ph
mo ve</w>
low er</w>
j ob
in place</w>
gener ic</w>
fil l</w>
describ ed</w>
conveni ence</w>
co er
be hav
- value</w>
writ ing</w>
wor k
wh it
tr ies</w>
text ure</w>
sum mar
sub stit
stre am
sol ves</w>
ro w
represent ed</w>
pri mary</w>
polyg on</w>
par tit
pand as</w>
pa ren
p an
noti fication</w>
multip ly</w>
mi x
m any</w>
it u
interce pt</w>
instal led</w>
fi g
exce pt</w>
ex perim
er -
defer red
de t
de sc
can on
be st</w>
ac y</w>
- wise</w>
use ful</w>
un ion</w>
succe ss
sh ort
se _
sc i
sc en
sav es</w>
resul t
pot ent
par ts</w>
p s
multip lic
molec ule</w>
is m</w>
instan ce
ig n</w>
i -
ge st</w>
g ed</w>
disc ret
de gre
ci ph
ar s</w>
ar g</w>
am e
' )</w>
wa it</w>
w ere</w>
tr ig
st op
se ed
s ite</w>
rf c</w>
ne igh
modif y</w>
log- likelihood</w>
li br
langu age</w>
l s
im ages</w>
ic k</w>
i {
fl ags</w>
evalu ated</w>
er }</w>
en able</w>
dum my</w>
divi sion</w>
di st
describ ing</w>
defin es</w>
constrain t</w>
bro ad
bo x
beg in</w>
b ec
at ely</w>
ar d
acro ss</w>
3 d</w>
valid ation</w>
trac e
spat ial</w>
sco res</w>
residu als</w>
rele ase</w>
reg ular</w>
read er</w>
re verse</w>
query set</w>
por t
part ition</w>
param s
par sed</w>
numer ic</w>
modi fied</w>
le g
io us</w>
inde pend
imp or
i me
hy po
hd u</w>
form ul
fa il</w>
exp lic
eng ine</w>
elli p
doc string</w>
dec imal</w>
cor rect
continu ous</w>
comput ed</w>
check point</w>
certific ate</w>
c s</w>
c ard</w>
bec ause</w>
ari es</w>
an k</w>
: type</w>
verti ces</w>
us h</w>
u ch</w>
transp ort</w>
statist ics</w>
sp aces</w>
se q</w>
s lo
relation ship</w>
rai sed</w>
provid es</w>
phy si
p ip
memb er</w>
load ing</w>
j ect</w>
iv er</w>
inter section</w>
in it</w>
in divid
ident ity</w>
i co
ge st
fig ure</w>
ev ent
er 's</w>
comm ands</w>
categor ical</w>
and /
and/ or</w>
al le
ain ed</w>
3 2</w>
( i</w>
z ip
trans formed</w>
sy s</w>
stat ic</w>
sig ned</w>
serializ e</w>
proto col
pre par
neigh b
mod ul
m y
l ag
j a
il s</w>
fin i
f ast
es /
ent ire</w>
do main
differenti al</w>
den o
degre es</w>
de cl
cur ve</w>
ct ed</w>
c f
arra y
are a</w>
ap p</w>
an ce
al y
@ return</w>
- level</w>
- 1</w>
( :class</w>
to ge
tensor flow</w>
syn ap
sub -
stat ements</w>
spec ial</w>
s ends</w>
resul ting</w>
remo ved</w>
provid er</w>
predi cate</w>
posit ions</w>
por tion</w>
plat form</w>
pac k</w>
m orph
lim it
libr ary</w>
li b
jav a</w>
hypo the
he ad</w>
g p
fut ure</w>
fra ction</w>
ext ended</w>
ex clu
estimat es</w>
ens ures</w>
ed _
direct ly</w>
d one</w>
connect ion
colum n
co de
b er
att ach
: see</w>
1 9
zer os</w>
z e</w>
writ ten</w>
w ord
vari able
var ious</w>
validat es</w>
trans action</w>
tr un
to ol
tit le</w>
star ts</w>
squ are
set params
setparams (self</w>
requi re
rat io</w>
oc cur
n a
mo ment</w>
ma il</w>
lo oks</w>
lear ning</w>
itu de</w>
it ional</w>
integ ers</w>
in valid</w>
if ying</w>
id e</w>
gener ators</w>
fre e
fil ter
f init
f -
exp on
exp an
est ab
estab li
ed ges</w>
ed ge</w>
e ction</w>
display able</w>
direct or
de ta
datet ime
dat es</w>
d up
cre dent
comp ile</w>
clo sed</w>
cle an</w>
bat ch
app lying</w>
an sible</w>
al loc
ab str
__init__ (self</w>
- free</w>
x ml
war n
verifi es</w>
t on</w>
symbo lic</w>
star ted</w>
st ates</w>
sq l
some thing</w>
sh ell</w>
s wit
regres s
registr y</w>
re main
quant ity</w>
pri m
pl ug
patter ns</w>
pass ing</w>
on to</w>
of -
n p</w>
mo use</w>
ma r</w>
m ul</w>
log ic</w>
li es</w>
h s</w>
fore ign</w>
enzy me</w>
en code</w>
eff ects</w>
dispat ch</w>
dis k</w>
di o</w>
di al
cre ating</w>
cook i
convol ution</w>
constr a
config ure</w>
con sum
con si
compres sed</w>
cent er</w>
c ast
bre a
au dio</w>
attemp ts</w>
al ized</w>
ab ility</w>
0 0</w>
/ /
( e</w>
~ astropy</w>
yiel ds</w>
trans ition</w>
trace back</w>
toge ther</w>
ti ent</w>
t ls</w>
s it
rot ation</w>
replac ement</w>
react or
quo tient</w>
produc er</w>
pre pa
plac e
pix el</w>
physi cal</w>
per man
ord ering</w>
o -
ne eds</w>
me ans</w>
me an
m ap
l{ deferred
lat er</w>
l iter
l amb
inter pol
instanti ates</w>
h um
h ub</w>
gaus sian</w>
g res
evalu ation</w>
en s</w>
e x</w>
diag onal</w>
con tr
chec king</w>
as set</w>
an aly
alph a</w>
add itional</w>
a _
[ 1
= true</w>
whit e
updat ed</w>
trans f
time out</w>
the an
test ing</w>
squ ared</w>
serv ic
separ ated</w>
seg ments</w>
se cur
scen e</w>
s ampl
request s</w>
reg ular
re co
print ing</w>
prepar e</w>
per cent
on e-
meas ure</w>
log ical</w>
l l</w>
individ ual</w>
hist o
gram mar</w>
g n
g f</w>
dra wn</w>
dra wing</w>
devi ation</w>
defaul ts</w>
d a</w>
constra ints</w>
comple ted</w>
compatib ility</w>
comm and
buil der</w>
boun ding</w>
b ran
am o
4 -
w are</w>
v ar</w>
um e</w>
u x</w>
trans late</w>
threshol d</w>
thean o</w>
sur f
sub graph</w>
spl it
smo oth
res h
rep e
redu ce</w>
que u
plan e</w>
path }</w>
p ur
p ending</w>
o g
ne ss</w>
mo d</w>
mail box</w>
ma th
m ach
loc ations</w>
input col=none</w>
input _
ing _
in fo
h s
ex act
dup lic
dum p</w>
cumul ative</w>
cross -
conver sion</w>
boun ds</w>
b a
auto mat
ato m</w>
ar ma</w>
= 1</w>
yiel d</w>
x **
user -
sub scri
str ip
square -free</w>
s l
rep r</w>
radi us</w>
pick le</w>
p k
oper ators</w>
monit or</w>
long s</w>
le av
l arg
inclu de</w>
hol der</w>
hist ory</w>
g am
formul a</w>
fit ted</w>
ex port</w>
ex it</w>
ex act</w>
err or
en e
em it
di st</w>
di r
de e
cro ss</w>
cl us
check point
ch ain</w>
c ent</w>
bu ck
be longs</w>
b ar</w>
6 4</w>
- of-
windo ws</w>
visu al</w>
ve lo
th ree</w>
ta b</w>
stand ar
set up</w>
seq record</w>
sci py</w>
s ing</w>
s ine</w>
repres ent</w>
repl aces</w>
re al
r yp
r ate</w>
pret ty</w>
prediction col="
prediction ",</w>
po se</w>
perio d</w>
per sistent</w>
nor m</w>
model 's</w>
iz es</w>
indic ates</w>
i de
h or
h al
fini shed</w>
f ast</w>
exec utes</w>
estimat ed</w>
enco der</w>
enc ryp
element -wise</w>
e /
dro p</w>
docum entation</w>
dis able</w>
dele ted</w>
d t</w>
criter ion</w>
comput ation</w>
cl s</w>
c p
but ton</w>
auth or
ar bit
ag r
( )
vi rt
v ol
un d
tri angle</w>
trans form
tr ail
t we
syst em
str um
sto res</w>
st do
so ft
simpli fy</w>
s sian</w>
regist ers</w>
rect angle</w>
re load</w>
proj ection</w>
produ ces</w>
pro per</w>
pro file</w>
pan el</w>
optim ization</w>
numer ical</w>
n an</w>
memb ers</w>
mapp er</w>
m arg
log ging</w>
lin ux</w>
interval s</w>
interf aces</w>
independ ent</w>
in strum
in d
i le
he ssian</w>
gre at
gam ma</w>
frag ment</w>
f er
et c</w>
e ous</w>
di c</w>
debu g</w>
de te
de si
d ers</w>
credent ials</w>
coll ect</w>
cl c</w>
cel ls</w>
canon ical</w>
behav ior</w>
bac ks</w>
av o
arbit r
an ch
acce pt</w>
ac count</w>
wor king</w>
w av
u ff
te red</w>
st er</w>
st d
spec ify</w>
simil ar
scal ing</w>
s on
qu ad
pla y
n i
m sg
m an</w>
lamb da</w>
i sol
i so
i se</w>
h igh
h an
f s</w>
exact ly</w>
equ ality</w>
en ce
em it</w>
ellip se</w>
deno min
dele tes</w>
con sistent</w>
comm ents</w>
cli ent
cle an
chan ne
can not</w>
arbitr ary</w>
amo unt</w>
am er
ad ap
ab o
[ i
( '
" )</w>
y ear</w>
we '
up per</w>
syn ta
str at
stat s</w>
so ur
s amp</w>
s =
ren '
random ly</w>
qu al
pro gres
potent ially</w>
pix els</w>
mapp ed</w>
m s
l{deferred }</w>
l{ _
log likelihood</w>
lin ks</w>
kin d</w>
key words</w>
it ly</w>
ipv 6</w>
inst all</w>
initializ ed</w>
im medi
if f</w>
hypothe sis</w>
gra d</w>
gener al</w>
flo ating</w>
fail s</w>
expan sion</w>
ex ter
en ed</w>
ei gen
distan ces</w>
director ies</w>
dep th
de cre
comput ing</w>
compos ite</w>
comp ar
comm ent</w>
ca uses</w>
bi as</w>
att ach</w>
annot ation</w>
al ter
adju st
a p</w>
1 d</w>
0 )</w>
white space</w>
w al
ve loc
u id</w>
transl ation</w>
trac es</w>
t ab
synta x</w>
sup er
su ffi
standar di
so le
shap es</w>
serializ ed</w>
serializ ation</w>
se ver
se mb
sche dule</w>
sat is
rn n</w>
ren' py</w>
red shift</w>
re store</w>
re por
process es</w>
per miss
p c</w>
p _
o t</w>
n e</w>
modul o</w>
min imal</w>
mat h</w>
m id
log ari
liter al</w>
lim its</w>
li g
l _
iter ates</w>
it ing</w>
iss ue</w>
init ial
ifi ed</w>
i er</w>
hav ing</w>
h du
g ate</w>
for ce</w>
fl at</w>
exce pt
ex p</w>
ent er</w>
down load</w>
dial ect</w>
cs v</w>
cre ation</w>
correct ly</w>
cont ent
condit ional</w>
co p
clust ering</w>
cl i</w>
can di
byte s}</w>
bin d</w>
arch ive</w>
alph ab
3 -
wrapp ed</w>
w s
w k
ver sion
valu ed</w>
us h
u i</w>
trail ing</w>
targ ets</w>
swit ch</w>
su mp
spl its</w>
sp r
sk y</w>
sh ar
set _
roll back</w>
ret r
resol ve</w>
recurs ive</w>
receiv er</w>
re ver
re sets</w>
re as
produc ing</w>
po st</w>
po s</w>
po p</w>
plot lib</w>
pack ets</w>
p se
p iv
o w
normal ized</w>
ne are
multiplic ation</w>
mat plotlib</w>
m _
lin k
lay out</w>
l en
job s</w>
inter n
index er</w>
i er
hel p</w>
h and</w>
file ids</w>
f ing
exp and</w>
execut ed</w>
escap e</w>
do ub
distribut ed</w>
discret e</w>
dest in
desi red</w>
ct s</w>
cr yp
con j
compil ed</w>
co uld</w>
clo ses</w>
ch ing</w>
ce l</w>
br a</w>
boo k</w>
bo ard</w>
b ar
as sign
abo ve</w>
= 2
- based</w>
yp e</w>
x 2</w>
w at
ver sions</w>
ver bo
veloc ity</w>
ti c
t ure</w>
t f
synap ses</w>
sum m
succe ss</w>
spar k</w>
si mul
sh ared</w>
sav e
rg b</w>
pret t
pre -
pip el
ob sole
o t
mo ving</w>
migr ation</w>
m en
l{ bytes}</w>
log istic</w>
li e</w>
lem ent</w>
le _
lay ers</w>
l en</w>
item __</w>
inv ent
initializ er</w>
inclu ded</w>
in sp
in clus
im _
ico n</w>
ho sts</w>
fing er
en um
en er
domain s</w>
dis connect</w>
dif f</w>
determin ed</w>
depend encies</w>
d ings</w>
c{ self</w>
conver ting</w>
cont ext
co ver
cli p
can cel</w>
bin omial</w>
be low</w>
as sign</w>
ar row</w>
wav e
warn ings</w>
updat ing</w>
un known</w>
un ivariate</w>
t k
surf ace</w>
stat ion
squ ares</w>
spec ifying</w>
sch ed
resour ce
reco gn
quad rat
proj ect
perman ence</w>
overri des</w>
out er</w>
op eng
openg l</w>
observ ation</w>
noti fy</w>
non- zero</w>
n l
mp y's</w>
metho d
marg inal</w>
main loop</w>
m as
leng th
leg acy</w>
l st
jo int</w>
ja co
it self</w>
is _
init i
in ver
histo gram</w>
handl ing</w>
gram s</w>
gener alized</w>
g y</w>
for war
filter ing</w>
fil ters</w>
features col="
featurescol=" features
featurescol="features ",</w>
end point</w>
du mp
dro p
do m</w>
d ge</w>
cooki e</w>
connect ions</w>
con so
con sist
co des</w>
clo se
cho ose</w>
ch ro
call backs</w>
at ives</w>
as sump
app ear</w>
alge bra</w>
agr ap
a z
a ware</w>
a )</w>
> =</w>
== ></w>
x -
wid gets</w>
w _
virt ual</w>
vect or
v oc
voc ab
ut h</w>
ur i</w>
tur ns</w>
transf er</w>
to -
t m</w>
t ions</w>
summar ize</w>
strat eg
specifi es</w>
sk ip
similar ity</w>
sc an
s r
resour ces</w>
resh ap
remo ving</w>
quer ies</w>
python 's</w>
pse u
progres s</w>
prett y-
predictioncol=" prediction",</w>
plo ts</w>
observ ed</w>
observ ations</w>
ob t
no tes</w>
messag e
l{ file
lst m</w>
lev els</w>
le t</w>
le m</w>
le a
lat est</w>
larg e</w>
key -value</w>
invent ory</w>
insp ect</w>
index ed</w>
in ner</w>
implem ent
handl ers</w>
giv es</w>
geometr ic</w>
fl ush</w>
fin der</w>
fi es</w>
f ur
f li
extract s</w>
exclu ding</w>
ent ropy</w>
ener gy</w>
enc y
ed it
e ag
dynam ic</w>
dr iver</w>
diag ram</w>
di rection</w>
deta ils</w>
descript ors</w>
der ing</w>
depend ency</w>
denomin ator</w>
defaul t
conver ted</w>
constrain ed</w>
comm it</w>
com e</w>
col= none)</w>
ar ti
app ear
ang les</w>
an ything</w>
an s
an imation</w>
ad o
act ions</w>
< ==></w>
z -
wh ene
whene ver</w>
ut c</w>
uni x</w>
to uch</w>
tag ged</w>
suffi x</w>
sub tract</w>
st u
st em
sp ac
sol ution</w>
sever al</w>
sess ion
separ ate</w>
sched ul
sav ed</w>
s "</w>
ro un
pseu do
pro pag
pro mp
pro gram</w>
prim itive</w>
pri me</w>
piv ot</w>
overri d
orig in</w>
or g
on _
object 's</w>
neare st</w>
met a</w>
matri x
mach ine</w>
load er</w>
le -
l u
kee p</w>
k en</w>
iz on
inv ok
inter active</w>
integr ation</w>
integr al</w>
index es</w>
i m</w>
hor izon
g l
fur ther</w>
fic ations</w>
f f</w>
expon ent
ex ts</w>
ent ities</w>
en velo
en do
elem wise</w>
el l
do ct
debug ging</w>
comm ut
coer ce</w>
clust ers</w>
clo ne</w>
char t</w>
categor ies</w>
c p</w>
b ra
b ig
b ,</w>
asser ts</w>
as h</w>
accep ts</w>
= '
: attr</w>
z y</w>
y et</w>
x 1</w>
wr aps</w>
we' re</w>
we b</w>
valu es
ut c
utc datetime</w>
un less</w>
un it
tw o-
trac k</w>
ta king</w>
t as
stem m
smooth ing</w>
sh a
semb le</w>
se is
s ending</w>
ro le</w>
rig ht
restri cted</w>
res ize</w>
remain der</w>
redu ced</w>
read -
pla y</w>
pi ec
per form
partit ions</w>
p db</w>
output col=none)</w>
oc c
obsole te</w>
multi index</w>
min utes</w>
men u</w>
mag ic</w>
ma king</w>
ma j
ma c</w>
m m</w>
ly -
let ter</w>
label ",</w>
l ass</w>
iz ing</w>
iter ations</w>
imp ort
gr ad
gest ure</w>
fet ch
effici ently</w>
e u
dra ws</w>
doub le</w>
do ing</w>
destin ation</w>
deriv ed</w>
depend ent</w>
defin ing</w>
de cision</w>
d ar
coun ter</w>
cor rection</w>
conso le</w>
com ing</w>
canv as
c m</w>
c amer
bra ic</w>
boo l</w>
avo id</w>
attach ed</w>
ato ms</w>
at om
assign ment</w>
an t
alge braic</w>
al _
act ivate</w>
ac cur
[ 0</w>
0 ]</w>
z [x]</w>
vol ume</w>
vocab ul
vocabul ary</w>
ver te
verte x</w>
vari ant</w>
var s</w>
ut ions</w>
user name</w>
us age</w>
uni form</w>
twe ets</w>
tre e
to l
time zone</w>
targ et
str ip</w>
ste p
stdo ut</w>
sparse tensor</w>
spar k
slo t</w>
select able</w>
requi res</w>
re st</w>
ra w
quo ted</w>
proper ly</w>
pre fix
place holder</w>
parti cle</w>
pack ages</w>
or y
op ens
on -
n um</w>
mon th</w>
mo ves</w>
mo t
min ute</w>
mar ked</w>
m ic</w>
m ic
log in</w>
log ger</w>
lea f</w>
lat ex</w>
label col="
labelcol=" label",</w>
jaco bi
inter pret
incre ment</w>
immedi ately</w>
ig no
ier arch
identifi ed</w>
h ierarch
h id
great er</w>
fo c
factor ization</w>
f d
exter nal</w>
experim ent</w>
except ions</w>
et a</w>
envelo pe</w>
eff ect</w>
ed }</w>
e val
e mail</w>
docum ented</w>
determin ant</w>
den se
de cryp
db api</w>
combin e</w>
cle ars</w>
ch em</w>
buck et
bo t
automat ically</w>
at ed
approx imate</w>
anch or</w>
an c
an -
al ig
al er
a k
\ l
( inplace</w>
~ obspy</w>
y 2</w>
wr t</w>
wor ker</w>
wh o
w ell</w>
v 2</w>
v 1</w>
us able</w>
uni code
un ct
tr a
te sian</w>
t ell</w>
ste ps</w>
star t
st ill</w>
sli ces</w>
sho wing</w>
sh uff
server s</w>
ser i
select s</w>
sc an</w>
sa c</w>
s en
replac ing</w>
replac ed</w>
re write</w>
re f</w>
proj ect</w>
pre ci
posit ion
pool ing</w>
permut ations</w>
partit ion
paren ts</w>
pack ed</w>
overrid den</w>
on es</w>
name '</w>
mo du
min im
l{i reactor
l{ twisted</w>
lon ger</w>
loc ated</w>
lo st</w>
lear n</w>
j ang
inter action</w>
inf init
in- place</w>
in e
imp lies</w>
i an</w>
ho mo
gener ating</w>
gen ce</w>
g l</w>
funct ional</w>
fet ches</w>
fail ed</w>
ever ything</w>
et te</w>
ent al</w>
display s</w>
di g
desc ent</w>
depend ency
decl ar
de mon
datetime index</w>
d d
ct ion
conj ug
condit ions</w>
comple tion</w>
co py
ciph er</w>
camer a</w>
c ause</w>
broad cast
bran ch</w>
bl ank</w>
b and
assum ing</w>
assum es</w>
an ces</w>
ad v
accumul ator</w>
a ug
a ren
__ get
[ ,</w>
2 00
- style</w>
( "
z ip</w>
we e
value error</w>
trig ger</w>
t k</w>
stat istic</w>
st ation</w>
sm all</w>
sk ip</w>
siz es</w>
sing ular</w>
si x</w>
short cut</w>
sh ort</w>
sampl ing</w>
s an
rot ate</w>
referen ced</w>
re cent</w>
query result</w>
produ ctions</w>
print ed</w>
prepa res</w>
pre ce
pr iv
pos ed</w>
plug in</w>
pl aces</w>
pipel ine</w>
par se
p adding</w>
on ly
ob tain</w>
ob server</w>
normal ize</w>
normal ization</w>
n ing
mult in
mar k
ma ke
kno wn
intern ally</w>
int ro
in ct</w>
imp lic
he x</w>
gp u
go ing</w>
g s</w>
fro n
flatt ened</w>
explic itly</w>
ex por
ex o
et ic</w>
eno ugh</w>
embed ding</w>
embed ded</w>
ed model</w>
ect ive</w>
e di
det ect</w>
de limit
de an</w>
d jang
cr it
contro l
content -
con centr
co or
ci p
chun ks</w>
chun k
check sum</w>
calcul ation</w>
calcul ated</w>
cal end
c ing</w>
c ases</w>
c ase
bin ding</w>
b on
b en
as y
as h
as c
ar c
approx imat
aler t</w>
ad just</w>
( x</w>
z o
with _
vi spy</w>
vi sible</w>
un used</w>
un register</w>
un pack</w>
un documented</w>
un ch</w>
to o</w>
time delta</w>
ti c</w>
syn set</w>
str ation</w>
st ro
spat ial
sor ting</w>
self '</w>
sc at
s low
restri ction</w>
res p</w>
ren dering</w>
regress or</w>
r t</w>
quadrat ic</w>
print er</w>
pos es</w>
pick ling</w>
phy lo
per si
par alle
p en
o s
new _
n up
multin omial</w>
ms g</w>
mot if</w>
morph ism</w>
max _
mag n
m it
m ime</w>
m es</w>
m ented</w>
look up
logari thm</w>
list _
k iv
jacobi an</w>
j _
inter net</w>
inser ted</w>
in _
host name</w>
he ur
hal f</w>
giv ing</w>
giv e</w>
g g
format ting</w>
fore st</w>
float s</w>
filen ames</w>
file system</w>
f am
ex change</w>
eu cli
eucli dean</w>
est s</w>
enzy mes</w>
end _
element wise</w>
e '</w>
do t
dist inct</w>
differen ces</w>
demon stration</w>
dee p
dataf r
d uration</w>
d ns</w>
d '</w>
cy cle</w>
correspon ds</w>
cop ies</w>
constan ts</w>
con se
col s</w>
co sine</w>
close st</w>
cl a
cho le
channe ls</w>
c m
bound ary</w>
bat ches</w>
b und
at iv
at ional</w>
at e_
assump tions</w>
as ed</w>
an ts</w>
an om
amb ig
am s</w>
alphab et</w>
all er</w>
ali ases</w>
aggreg ation</w>
a way</w>
2 2</w>
1 2</w>
) )</w>
( a</w>
( [
' self'</w>
x_ {
war ds</w>
wa iting</w>
vie ws</w>
vi sit
ur al</w>
u ous</w>
tru e}</w>
timest amp
the o
th reads</w>
th ings</w>
t p</w>
t an</w>
sym metric</w>
sv g</w>
su ite</w>
struct ures</w>
struct ured</w>
standardi z
specifi cation</w>
soft max</w>
sm alle
smalle st</w>
sens itive</w>
select or</w>
secon d
sd k</w>
sav edmodel</w>
run ()</w>
ro und</w>
resol ution</w>
resid ue</w>
ren dered</w>
ren ame</w>
referen ce
redu ction</w>
re posit
re ject</w>
ra y</w>
ra ther</w>
r pc</w>
qual ified</w>
py g
pro fil
pres er
po iss
pa use</w>
over l
org an
occur red</w>
obt ained</w>
nup ic</w>
no w</w>
neighb ors</w>
name }</w>
msg _
modu le
min or</w>
mic ro
metr ic
max iter
math b
mar ks</w>
m p</w>
m ight</w>
m ec
mec han
is ms</w>
in c
imag es/
images/ an
images/an im_
i cal
h ex
graph s</w>
graph ic</w>
function ality</w>
free dom</w>
fre q
fir e</w>
finger print</w>
fiel d_
fi er</w>
feature _
f ar</w>
ext end</w>
exp and
ev en</w>
et ree</w>
establi shed</w>
ed ge
dy a
display ed</w>
diction aries</w>
di ff
del iv
de v
dat ag
datag ram</w>
da ys</w>
d 's</w>
crit ical</w>
config ured</w>
condit ion
collect ed</w>
co s</w>
cl es</w>
chole sky</w>
cho ic
charact er
chan ge
car ds</w>
candi date</w>
can cel
broad cast</w>
b ank</w>
as ing</w>
as _
applic able</w>
ac k
abstr act</w>
abstr act
__ ()</w>
\ mathb
( or</w>
xml -
work ers</w>
unct u
unctu ation</w>
u po
upo n</w>
tra verse</w>
tr ad
tag ger</w>
t l
sv m</w>
substit ution</w>
sp an</w>
slow ness</w>
sig ns</w>
si d</w>
sequ ence
seed link</w>
scre ens</w>
sav ing</w>
run time</w>
roo t
ron g</w>
ro ll</w>
res er
reposit ory</w>
rel ations</w>
re ge
rege x</w>
rang es</w>
protocol }</w>
process or</w>
probab ly</w>
pr ior</w>
poiss on</w>
pl ain</w>
paralle l</w>
p unctuation</w>
p id</w>
oper ator
om ials</w>
og r</w>
off sets</w>
oc curren
non- negative</w>
no n</w>
na ive</w>
my sql</w>
molec ules</w>
model _
mo tion</w>
mechan ism</w>
m is
m ass</w>
li er</w>
let ters</w>
label ed</w>
l er</w>
kiv y</w>
k it</w>
k al
iter ating</w>
is h</w>
inv ol
instrum ent</w>
instance 's</w>
initial ise</w>
inclus ive</w>
in coming</w>
ign ore</w>
ident ical</w>
i red</w>
i li
hyper bo
hyperbo lic</w>
ho t</w>
hid den</w>
hand led</w>
g _
from _
fr ame
flatt en</w>
field 's</w>
fe ed</w>
fal se
f t</w>
f _
extens ions</w>
explic it</w>
execut ing</w>
estimat ors</w>
em er
el ast
eag er</w>
e tr
e q
e po
doct ests</w>
do ts</w>
dig its</w>
di gest</w>
deco der</w>
de v</w>
conse cut
comp at</w>
col ors</w>
cl au
cir cle</w>
centr al</w>
calend ar</w>
c lock</w>
bot to
authentic ated</w>
attrib ut
ar ily</w>
app ing</w>
ang ent</w>
an y
ain s</w>
ag e
add ition</w>
_ type</w>
[i ]</w>
=1 0</w>
} )</w>
zer o
y our</w>
y ]</w>
y )</w>
ws ]</w>
weigh t
w cs</w>
v m</w>
updat e_
ul ate</w>
u d
trun cated</w>
tri angular</w>
tr iv
to ns</w>
tensor shape</w>
temp l
stat e
spect r
siz ed</w>
sh ut
servic es</w>
seri es/
seg ment
sear ch
se e
se ct</w>
schedul ed</w>
s or</w>
s n
s lic
s in</w>
s ,</w>
require ment</w>
represent ations</w>
remo te
rect angular</w>
recogn ition</w>
read _
re lev
re construct</w>
re call</w>
quo tes</w>
qu bits</w>
promp t</w>
prob lem</w>
ph emer
perform ing</w>
per sist
pe er</w>
paramet er
param etr
p df</w>
p d
out side</w>
out -of-
occ ur</w>
o red</w>
noti fications</w>
new ly</w>
mon omials</w>
met ac
mem ory
me sh</w>
manag ed</w>
maj or</w>
magn itude</w>
ma ster</w>
m ac
l{ url
low er
loc k
lo op
listen er</w>
list }</w>
la zy</w>
la st
kno w</w>
kal man</w>
join s</w>
iss u
interpol ation</w>
int ext</w>
inser ts</w>
indi cated</w>
identifi ers</w>
ide al</w>
ib le</w>
i a</w>
hum an</w>
hum an-
hs p</w>
horizon tal</w>
h int</w>
h ig
go es</w>
get ting</w>
gen eous</w>
finit e</w>
fin e</w>
fil led</w>
experim ental</w>
escap ed</w>
er red</w>
equival ence</w>
e phemer
dya dic</w>
duplic ate</w>
djang o</w>
di m</w>
devi ance</w>
definit e</w>
criter ia</w>
construct ed</w>
consecut ive</w>
conjug ate</w>
concaten ate</w>
com es</w>
clo sing</w>
clau se
chang ing</w>
ch em
cent ered</w>
ce _
ca sts</w>
bu cket</w>
brea k</w>
bloc king</w>
ben ch
associ ate</w>
array -like</w>
analy sis</w>
align ments</w>
accur acy</w>
= none)</w>
= ></w>
: undocumented</w>
: math</w>
1 0</w>
1 0
1 /
- specific</w>
( x
y }</w>
y 1</w>
x x</w>
x 1
wk t</w>
who le</w>
valid ity</w>
v s</w>
user 's</w>
un cer
tru e
triv ial</w>
train ed</w>
tr ying</w>
th er
t x
success ful</w>
str }</w>
st ret
siz e
simpli fied</w>
sh allow</w>
se cre
scal ed</w>
saf ely</w>
ri s
ri ch
result ant</w>
respon ses</w>
relev ant</w>
read- only</w>
re direct</w>
ran ge
quo te</w>
quo te
pseudo -
provid ing</w>
produ ction</w>
process _
proce d
proced ure</w>
pr in
persi st</w>
per formed</w>
pat ch</w>
par agrap
ord ers</w>
or ing</w>
oper ate</w>
open ed</w>
od ds</w>
occur s</w>
multi cast</w>
mp z</w>
mid d
metac lass</w>
mer ges</w>
m uch</w>
low -level</w>
log its</w>
local e</w>
lo cally</w>
list ing</w>
le gen
l o</w>
j el
isol ating</w>
is n't</w>
ion _
invok ed</w>
inter medi
int ended</w>
ing /
ho ur</w>
hierarch ical</w>
heur istic</w>
head er
hand le
h it</w>
h il
gu ar
gen ous</w>
fr ames</w>
format ions</w>
fo ur
fir st
fin al
fil tered</w>
f ri
exponent ial</w>
emit ted</w>
e q</w>
du e</w>
drop ped</w>
div is
dispat ch
dest ro
del iver</w>
deep copy</w>
de sign</w>
de m
cut ting</w>
contain ers</w>
consum er</w>
consi dered</w>
con ti
car tesian</w>
buil t
buff ers</w>
brea ks</w>
batch _
b ri
b o</w>
b le</w>
b ed</w>
b all</w>
auto correlation</w>
at er
as sets</w>
appropri ately</w>
anom al
anomal y</w>
ambig uous</w>
alter n
ag ent</w>
af finit
adjust ments</w>
ad min</w>
access ed</w>
a -
@ see</w>
= false</w>
2- tuple</w>
y am
y '</w>
we st</w>
wave form</w>
w w
verbo se</w>
ut ils</w>
us ers</w>
trans pose</w>
tr uth</w>
tr ip
to po
to gg
tk int
tkint er</w>
time -
termin ate</w>
tempor arily</w>
tempor al</w>
table _name</w>
t or
t ely</w>
sy non
synon y
sum s</w>
sub tr
stu dent
stret ch</w>
strateg y</w>
std in</w>
st em</w>
st der
stder r</w>
ss h</w>
spark context</w>
sm aller</w>
simul ation</w>
si ds</w>
sho ws</w>
sho wn</w>
shap e
sh or
secre t</w>
s l</w>
s end
s 2</w>
ro ute</w>
right -
ri ch</w>
ri cal</w>
reshap e</w>
require ments</w>
re pr
re ach
rd kit</w>
r s
qu ater
quater n
pyg let</w>
pur poses</w>
pub li
ps d</w>
produc ed</w>
print able</w>
prin cip
pri mar
prev ent</w>
preci sion
pr s</w>
posit ional</w>
popul ation</w>
popul ate</w>
pk t</w>
perio ds</w>
per -
parametr ic</w>
pac ks</w>
p i</w>
p ad</w>
p -value</w>
p -
or tho
only *</w>
o ti
num _
norm ally</w>
n x
n ex
mon ot
mo des</w>
migr ations</w>
mapp ings</w>
m d
m -
ls l</w>
listen ing</w>
list ed</w>
li min
lex ical</w>
leav es</w>
la p</w>
ker ne
k _
j ect
j ar</w>
initi ate</w>
in her
h ado
gu i</w>
geometr y
geometr ies</w>
ga ther</w>
ga p</w>
g o</w>
g lsl</w>
g ame</w>
follow ed</w>
fl ush
fil l
fi cat
fast q</w>
fam ily</w>
fal l
f n
f fe
extract ed</w>
est imation</w>
ent ion</w>
en ables</w>
edit or</w>
e limin
e as
docum ents</w>
dict s</w>
descript or
deriv atives</w>
dat e
d ing
c{ true}</w>
conver s
contr ast</w>
consist ing</w>
connect ing</w>
concentr ation</w>
compo se</w>
comp ri
coll ap
cla uses</w>
cl ade</w>
ch e
cf ws]</w>
bund le</w>
buil ding</w>
bet a</w>
b al
assum ed</w>
ance st
alloc ate</w>
all -
addres s}</w>
act s</w>
a g</w>
_ {
] _</w>
\l dots</w>
< =</w>
5 6</w>
0 1</w>
/ o</w>
- to-
* ,</w>
( \
wid get
wee k</w>
wa p</w>
w ave</w>
vi sor</w>
v o</w>
us _
ur s</w>
tru e)</w>
tic ks</w>
the re
th eta</w>
text ual</w>
test _
ta x
ta ken</w>
t u
t an
system s</w>
sy mpy's</w>
success fully</w>
stor ing</w>
sto ch
stoch ast
ss l</w>
sor ts</w>
set /
series/ index</w>
select ()</w>
seed =none</w>
samp le
s war
s wap</w>
s sh
s al
s _</w>
s [
ro bu
robu st</w>
ris k</w>
receiv ed}</w>
re ally</w>
rd ds</w>
queu es</w>
pro port
priv ile
pol ar</w>
pla intext</w>
pick led</w>
ph r
pas ses</w>
p ul
p al
p ad
overl apping</w>
over lap</w>
out _
ori entation</w>
or de
or _
ol s</w>
nl tk</w>
ni ce</w>
mon th
modi fication</w>
mix ture</w>
medi an</w>
l{file path}</w>
l{ list}</w>
look ing</w>
log _
lo ws</w>
list box</w>
le ave</w>
l cm</w>
l 1</w>
k [
j as
it h</w>
inv o
integr ate</w>
instanti ate</w>
ing }</w>
ind entation</w>
incre ment
inclu des</w>
in o</w>
images/anim_ in_
igno red</w>
i ed</w>
ho oks</w>
guar an
guaran te
fun c
frag ments</w>
fol lows</w>
fer m
f graph</w>
f ac
establi sh</w>
epo ch</w>
enum er
en semble</w>
ed -
e ss</w>
divid e</w>
dele tion</w>
definit ions</w>
de _
dat as
dar k</w>
d x</w>
d ut
d types</w>
custo m
coor d</w>
cook ies</w>
convers ation</w>
connect s</w>
con fir
comp ares</w>
comm it
combin ed</w>
cle ans</w>
ch is
cent ers</w>
call er</w>
c lic
c c</w>
bench mark</w>
back ends</w>
b lo
aut h</w>
at ively</w>
at ed_
arti cle</w>
ar r
approx imation</w>
alter native</w>
allo c</w>
aggreg ate</w>
affinit y</w>
addres ses</w>
accep ted</w>
__ eq
[ cfws]</w>
@ k</w>
2 8
19 9
* internal</w>
( *
yp es</w>
xml- rpc</w>
wr ap
w sg
w er</w>
version added</w>
vari ation</w>
vari ance
v a
ut ed</w>
us ually</w>
ur ls</w>
uncer ta
uncerta int
un do</w>
transl ations</w>
trans formations</w>
timestamp s</w>
th read
t un
t ls
t exts</w>
t cp</w>
t angent</w>
stop ped</w>
star t_
sr c</w>
sq rt</w>
spr ite</w>
spectr al</w>
sp her
sp er
sour ces</w>
serializ able</w>
sen se</w>
secur ity</w>
se l</w>
schem eno
sche me
scat ter</w>
sc roll
s rid</w>
s al</w>
ro l
retr y</w>
resol ver</w>
resid ual</w>
res amp
repe at</w>
regress ive</w>
ref ers</w>
re lay
re direct
re ci
ra ster</w>
r hs</w>
qu it</w>
qu are</w>
profil ing</w>
process ed</w>
pro te
pre t</w>
posit ives</w>
plot ting</w>
pl us</w>
percent age</w>
partition ed</w>
par ser
pair wise</w>
pag er</w>
pack et
p ts</w>
p f</w>
p 1</w>
overri de
orde red
oper ating</w>
opens sl</w>
on e
object ive</w>
ob s-
nu mp
normal izes</w>
node 's</w>
neighb or</w>
nam e_
n ers</w>
n a</w>
mut able</w>
mon te</w>
mean ing</w>
mat mul</w>
make _
m u</w>
m at</w>
l{ireactor fd
lig ht</w>
lev el
lem ent
lear ning
la unch</w>
l u</w>
l ar
lar gest</w>
key ed</w>
iv al</w>
it er</w>
iso t
intermedi ate</w>
inf er</w>
index ing</w>
in s</w>
in n
in line</w>
in f</w>
im es</w>
ident ify</w>
id x</w>
ializ ed</w>
i rical</w>
human- readable</w>
htt p
homo geneous</w>
hdu list</w>
hado op</w>
h ib
gra y</w>
gp u</w>
go al</w>
g z
g se
g g</w>
g d
ful l
fre q</w>
four ier</w>
form set</w>
foc us</w>
fo ur</w>
fit ting</w>
fil ls</w>
ffe red</w>
fail ure
expres sed</w>
expand ed</w>
exp ects</w>
ex its</w>
evalu ating</w>
estimat or
en coun
encoun tered</w>
em its</w>
edi t</w>
div er
dis co
def s</w>
decre ment</w>
decor ated</w>
de -
dat at
d t
d on</w>
coun t
contro ls</w>
compo und</w>
co lo
co don</w>
char s</w>
ch al
chal leng
car lo</w>
c g
but tons</w>
bu ffered</w>
bro ker</w>
bound aries</w>
block ette</w>
back ground</w>
b and</w>
ax is
atom ic</w>
at s</w>
as signs</w>
appear s</w>
app _
ap er</w>
alo g
ag ed</w>
add r
adap ter</w>
access or</w>
ac qu
ac k</w>
a x</w>
__init __</w>
__get item__</w>
6 4-
5 -
2 )</w>
1 }
1 *
/ value</w>
** 2</w>
) :</w>
} s</w>
yam l</w>
x xx</w>
wsg i</w>
wh ite</w>
w x</w>
w le
vi de
ver y</w>
values ()</w>
url lib
uncertaint y</w>
tx t</w>
tru e_
trig ge
trigge red</w>
tr aver
tool s</w>
togg le</w>
tic k</w>
tensor _
tas ks</w>
t z
sub tensor</w>
str a
stat a</w>
st age</w>
ss er
specifi er</w>
so ck
sin k</w>
simp le
sig mo
sig ma
shut down</w>
sh ip
ser ve</w>
separ ator</w>
secur e</w>
sd ca
sdca optimizer</w>
scal ars</w>
sampl ed</w>
s ity</w>
s =none</w>
s 1</w>
ro les</w>
rg b
res net
res h</w>
requ ire</w>
rep ly</w>
ren am
regular ization</w>
reg ard
regard less</w>
redu ces</w>
reas on</w>
r type</w>
r h
r ation
quatern ion</w>
quanti z
quanti les</w>
qu ar
q [x]</w>
produ cts</w>
pri ce</w>
potent ial</w>
post g
postg is</w>
po ly</w>
permiss ions</w>
percent ile</w>
p ic</w>
p en</w>
override ]</w>
out-of- sample</w>
or ac
o ur
o o</w>
o m</w>
o de</w>
nor ing</w>
nex us</w>
new lines</w>
ne ver</w>
ne go
nego ti
name "</w>
n th</w>
n an
mult i</w>
monot on
monit ored</w>
mon ic</w>
mo unt</w>
min _
messag e}</w>
mer ging</w>
meas ures</w>
mas ked</w>
m f</w>
l{ireactorfd set</w>
lower case</w>
loc us</w>
ll er</w>
legen d</w>
lef t-
l d
l c</w>
l able</w>
ker }</w>
k l
iz ations</w>
issu es</w>
is o</w>
io r
intro du
inter pret</w>
index ed
in- memory</w>
in ary</w>
impor ted</w>
implement ations</w>
imag inary</w>
imag e_
il l
igr ams</w>
ig noring</w>
ic _
i j
i ers</w>
i '
hyper geometric</w>
ho me</w>
ho le</w>
hex a
hexa decimal</w>
hel p
h ub
h ide</w>
h et
gz f</w>
gu ess</w>
gl yp
gen bank</w>
function 's</w>
file 's</w>
fall back</w>
f d</w>
ex pl
equ als</w>
endo g</w>
enco ders</w>
en um</w>
emp irical</w>
eigen values</w>
e e
e b
dump ed</w>
dra g</w>
diver gence</w>
dis joint</w>
deta il
desc end
dee p</w>
de lay</w>
de l</w>
de al</w>
dd l</w>
datat ype</w>
d n</w>
cs r</w>
coun ting</w>
cont ing
constru ction</w>
comple tely</w>
compil es</w>
compar ing</w>
combin ing</w>
clo sure</w>
clause element</w>
chis quare</w>
character istic</w>
challeng e</w>
ch at</w>
cat ch</w>
canon ical
cach es</w>
c ss</w>
c ens
c df</w>
bin s</w>
bi g</w>
be s
be long</w>
base _
band width</w>
bal anc
back wards</w>
back ward</w>
ba y
b order</w>
b in</w>
b gzf</w>
aug mented</w>
as signed</w>
arg s'</w>
ar c</w>
ang e</w>
alloc ated</w>
ain ing</w>
adju sts</w>
adj ac
add _
a *
__eq __</w>
[1 ]</w>
=2 0</w>
3 0
- line</w>
- -
( which</w>
' other
| none</w>
zip line</w>
yiel ding</w>
y /
xml stream</w>
x** n</w>
wid e</w>
whe el</w>
we b
wat ch</w>
view port</w>
view box</w>
vide o</w>
v e_
un constrained</w>
un ary</w>
ul se</w>
u d</w>
transform er</w>
to do</w>
tim er</w>
th ms</w>
text lines</w>
te d_
tas k
tar info</w>
t z</w>
t str
t p
t ar</w>
syn c</w>
summar y
sub module</w>
stemm ed</w>
st ops</w>
spher ical</w>
spe ction</w>
sp here</w>
sk y
sing le-
signat ure
sign als</w>
sigmo id</w>
sho t</w>
shap e_
sh ares</w>
ser ial
self }</w>
seis mic</w>
se en</w>
scre en
sc h</w>
save point</w>
samp lin
s w
s le
sle e
roun ded</w>
ro gram</w>
rich textlines</w>
respon se
reser ved</w>
ref lect
reas on
re comm
re _
r r
qu ality</w>
py spark</w>
probabil ity
pro p</w>
pre view</w>
pre processing</w>
pre p
pr ior
pow er
po late</w>
play book</w>
plat form
pla ying</w>
piec e
piece wise</w>
pi l</w>
permiss ion</w>
paren t
paragrap hs</w>
packet |none</w>
p ick</w>
p ic
p ar</w>
output col=none</w>
orig in
ordin al</w>
orac le</w>
optim ized</w>
occurren ces</w>
o wn</w>
o v
o ct
numer ator</w>
node _
ne lement</w>
name spaces</w>
n }</w>
n ob
n grams</w>
multip lies</w>
multi- class</w>
mp f</w>
morph isms</w>
monit oring</w>
mon omial</w>
mo ti
mix ed</w>
min us</w>
min i
mini seed</w>
me mo
md 5</w>
match ed</w>
mapp ers</w>
man y
ma y
l{ ipv
log it</w>
loc ator</w>
loc ate</w>
load save</w>
lo c</w>
listen ers</w>
length s</w>
le 's</w>
l x
l d</w>
l ap
lap l
kno wle
key }</w>
ke d
k ml</w>
jas par</w>
j son
isol ation</w>
io ur</w>
invo ke</w>
interce pt
int 32</w>
inst all
in spect
in hib
inhib ition</w>
in format
impor ts</w>
imp ur
imp ulse</w>
i v</w>
i ce</w>
hol ds</w>
het er
hand sha
h ar
h app
gro eb
groeb ner</w>
go od</w>
get ter</w>
g ri
g mpy</w>
g li
g ates</w>
ft p</w>
fron t</w>
frequ encies</w>
fr am
fore ign
for ces</w>
fin ish</w>
file path</w>
file descriptor</w>
fil ling</w>
field_ name</w>
fe w</w>
false )</w>
fact s</w>
f u
f aces</w>
ext ent</w>
execut able</w>
er ship</w>
equ al
ephemer al</w>
encryp t</w>
e ther
dra w
dn n</w>
dn a</w>
divid es</w>
display ing</w>
disco ur
dim s</w>
di ag</w>
depre cation</w>
decryp t</w>
decor ator
deco des</w>
declar ation</w>
de ca
db result
db -
db- api</w>
d 1</w>
ct ypes</w>
cover age</w>
coun ter
correspon d</w>
cor ner</w>
contr ib
conting ency</w>
cont exts</w>
con sens
con f
compri sed</w>
compil ation</w>
comp li
comp lement</w>
combin ations</w>
collect or</w>
co st</w>
co set</w>
cm d</w>
clean up</w>
classi fy</w>
cl in
cir cu
ciph er
chro no
chro mo
choic es</w>
cho o
cel er
cast ing</w>
calcul ating</w>
c ates</w>
built in</w>
buil t</w>
buil d_
buck ets</w>
br ack
boo tstr
bit wise</w>
bin ar
behav iour</w>
begin s</w>
base line</w>
b {
b ul
b ivariate</w>
auto regressive</w>
at "</w>
asy n
assum e</w>
aren 't</w>
ar range</w>
app ends</w>
ans wer</w>
annot ations</w>
ancest or</w>
allow ing</w>
alig ned</w>
activ ity</w>
acqu ire</w>
acce pt
ac celer
a ws</w>
] ]</w>
\mathb b{
[1 ]_</w>
= 2</w>
: rtype</w>
2- d</w>
1 6</w>
1 5</w>
- >
- 2</w>
- 1
' key
} 's</w>
zo om</w>
zer o-
x )</w>
wk b</w>
wid th
w il
w ell
vo table</w>
verti cal</w>
validat or</w>
val s</w>
va ult</w>
v _
v 3</w>
ut ation</w>
uni fy</w>
uni form
un changed</w>
u al
tri m</w>
transform ers</w>
trans itive</w>
train s</w>
tr im
tol =1
tol=1 e-
token izer</w>
token ized</w>
to ol</w>
tho ok</w>
there 's</w>
theo ret
tensor 's</w>
templ ates</w>
t z-
synony m</w>
synap se</w>
sy mp
sv d</w>
sur v
sub samplin
subsamplin gr
sub process</w>
stra ight</w>
str __</w>
stop ping</w>
station ary</w>
standardiz ed</w>
st at</w>
st ab
spec ialized</w>
spe ed</w>
sp a
so und</w>
sky coord</w>
sing ular
simp ly</w>
si mult
simult an
si fier</w>
si des</w>
shuff le</w>
sh ado
shado w</w>
set ()</w>
se mi
sd cal
scal ar
run ner</w>
right- hand</w>
ri pt</w>
ri dge</w>
restri ctions</w>
res ume</w>
res um
rep o</w>
remo ve
relation ship
regular ized</w>
redu c
re m</w>
re am
qu ick
q t</w>
py 3</w>
py 2</w>
ps i</w>
proport ions</w>
propag ation</w>
princip al</w>
pretty- printed</w>
pres sed</w>
prefix es</w>
posit e</w>
pool er</w>
plan es</w>
plac e_
place_ holder</w>
ph ases</w>
per son</w>
per cent</w>
paren the
param =0</w>
p k</w>
p id
over load</w>
ortho g
ordin ary</w>
ordered dict</w>
ord er
optim al</w>
open ing</w>
op posite</w>
on line</w>
of ten</w>
o wn
not ation</w>
neg ate</w>
ne ss
nam ed
n- th</w>
n n</w>
n f</w>
n ext
n at</w>
mut ual</w>
mut able
moti fs</w>
modi fi
model_ fn</w>
mo st
mo ment
mo l</w>
min i-
met agrap
man ip
m c
l{ ist
l{ist ream
lookup s</w>
log (
lo ss
lin ked</w>
lag range</w>
la b</w>
key error</w>
key board</w>
key /value</w>
kerne ls</w>
join ing</w>
jo y
jel ly</w>
it es</w>
ir is</w>
ion 's</w>
interval =10</w>
inter polate</w>
input_ fn</w>
incre asing</w>
in- sample</w>
in version</w>
in ject</w>
ili z
ident ities</w>
id }</w>
i e</w>
i /o</w>
hol ding</w>
ho urs</w>
hash ed</w>
handsha ke</w>
h a
gse 2</w>
graph ics</w>
graph ical</w>
graph ic
go od
gli r</w>
get attr</w>
gener ation</w>
gener ally</w>
gaus si
g ain</w>
format ter</w>
fol der</w>
fe ed
fast a</w>
f p</w>
extr a_
ether net</w>
enco des</w>
embed dings</w>
e v</w>
dynam ically</w>
dut y</w>
doc ker</w>
disc ar
dimens ion
dev ic
dete ct
dep ends</w>
dem o</w>
dele ting</w>
data _
d st</w>
d 2</w>
cy cles</w>
convol ve</w>
control led</w>
contin ue</w>
conti gu
consens us</w>
concaten ation</w>
concaten ates</w>
con v</w>
con fli
con c
commut ative</w>
combin ation</w>
colum n_
clo ud</w>
clip board</w>
cli ents</w>
circu it</w>
cir cular</w>
chromo some</w>
cho ice</w>
checkpoint interval=10</w>
ch i
cent ro
car tan</w>
cap t
cach ing</w>
c k</w>
c /
c -
byte string</w>
bul k</w>
broadcast able</w>
bre vi
botto m</w>
bin dings</w>
bi o</w>
bi ject
batch ed</w>
balanc er</w>
b er</w>
b an
b ad</w>
att ained</w>
and _
al ter</w>
ag ing</w>
accumul ated</w>
ab s</w>
ab brevi
a_ n</w>
a b</w>
a /
__ str__</w>
__ set
__ repr
__ ,</w>
_ re
_ p</w>
_ from_
_ 0</w>
] [,</w>
@ doc</w>
: obj</w>
: args</w>
6 4
4- tuple</w>
2 4</w>
1- dimensional</w>
0 -
- separated</w>
- -></w>
+ +</w>
() )</w>
( see</w>
'key '</w>
' x
~ kivy</w>
x_ j</w>
x_ 0</w>
ww w</w>
ws er</w>
writ e
wr iter
windo w
wi shar
wishar t</w>
whe re
wa its</w>
visu als</w>
verti cally</w>
ve c</w>
var ying</w>
ut r
urllib 3</w>
up per
up load</w>
unicode }</w>
un ordered</w>
u n</w>
typ ically</w>
tru e/
trad ing
top ic</w>
tol=1e- 6</w>
tol er
time series</w>
time del
ti ed</w>
th un
th rows</w>
th on</w>
th at
tf decorator
tfdecorator -
tfdecorator- aware</w>
termin ation</w>
tensor array</w>
temp lat
tag }</w>
surv ival</w>
super visor</w>
summ ation</w>
subscri be</w>
sub group</w>
su b</w>
stru ct</w>
stro ke</w>
stream ing</w>
stdo ut
station xml</w>
standardi ze</w>
st rong</w>
st ing</w>
st ick</w>
sql ite</w>
split ting</w>
sparse _
sn ap
slic ing</w>
slee p</w>
simpli fication</w>
signat ures</w>
sign ifi
signifi can
sign al
sib ility</w>
sh are</w>
set ter</w>
separ ation</w>
secur ity
se tup
se man
schemeno de</w>
scal es</w>
scal er</w>
sc roll</w>
satis fy</w>
s un
s ke
s and
s *</w>
s (
run _
ro pic</w>
rn n
ri sch</w>
rgb a</w>
retriev ing</w>
respon d</w>
resp ective</w>
residu es</w>
resamp le</w>
res ampl
rep lic
relay ed</w>
relationship s</w>
registr ation</w>
reg ions</w>
reg exp
ref er</w>
recor ded</w>
recomm ended</w>
reci pi
re v</w>
re r</w>
re fl
refl ect</w>
ran k
radi ans</w>
ra is
rais ing</w>
qu ick</w>
qu a
propag ate</w>
produc ing}</w>
pro portion</w>
pretty- printing</w>
precision @k</w>
pre d</w>
por ts</w>
pl ying</w>
phylo gen
path way</w>
parti cle
parti ally</w>
par se_
pag e
pad s</w>
p yp
p ush</w>
p u
p on
p 2</w>
out come</w>
orthog onal</w>
or bit</w>
or ator</w>
ol d-
non zero</w>
non e
no te
no ise</w>
new -style</w>
ne utr
na /
na/ null</w>
my self</w>
multip le
multi plying</w>
modi fies</w>
mo v
min instance
mininstance sper
micro seconds</w>
metagrap h
mer ged</w>
memory in
me g
max memoryin
max im
manag ement</w>
ma int
m ed</w>
l{url path}</w>
l{ dn
l{ co
lu ence</w>
load ers</w>
list -like</w>
lex er</w>
leav ing</w>
le d
l ation</w>
l 2</w>
knowle dge</w>
key _
ke gg</w>
k l</w>
k ier</w>
k af
kaf k
join ed</w>
jav asc
javasc ript</w>
j in
iv ity</w>
iv e-
isot ropic</w>
ir d</w>
inver t</w>
interpret ed</w>
instrum entation</w>
input_ tensor</w>
inher it
inf luence</w>
indic ator</w>
in sensitive</w>
in equality</w>
import ant</w>
implic itly</w>
il ities</w>
ifi cation</w>
i reactor
ht ml
hol d</w>
ho li
high er</w>
hig h</w>
her mit
help ful</w>
hdu s</w>
h m
h ard
h ack</w>
gu ide</w>
great est</w>
geometry entity</w>
gen e
g it</w>
g aps</w>
g -
function graph</w>
fu z
fri end
friend ly</w>
fra ctions</w>
form al</w>
fli p</w>
fir ing</w>
fin ding</w>
filen ame
ff t</w>
fer red</w>
f q
f lex
f e</w>
f dist</w>
expres sion
expor ts</w>
expon ent</w>
exp ired</w>
exp ect</w>
exo genous</w>
exo g</w>
ex _
err ing</w>
err back</w>
er ly</w>
ent ially</w>
eno de
em an
elast ic
el b</w>
ec h
eas y</w>
ear ly</w>
e ding</w>
dr ag
down loads</w>
divis ors</w>
distribut ion
destro y</w>
describ es</w>
deliv ered</w>
delimit ed</w>
deco ding</w>
de st</w>
dbresult set</w>
data structure</w>
data /
d /
c{ l{
cy thon</w>
cut s</w>
cor r
cor ners</w>
cooki e
conver gence</w>
contigu ous</w>
construct ing</w>
config s</w>
con form
con f</w>
con ci
conci se</w>
compres sion</w>
compres s</w>
compos it
comp ared</w>
commut ation</w>
command -line</w>
column 's</w>
collect s</w>
co up
co ord
co ding</w>
check ed</w>
ch i-
ch ar</w>
ce ption</w>
categ ori
cap ture</w>
cancel led</w>
cach enode
c lock
c )</w>
bro wser</w>
blo b</w>
bin d
biject or</w>
ber t</w>
back trac
b yp
b _
aver aged</w>
auto -
associ ative</w>
as semble</w>
as k
arg s)</w>
applic ation
app s</w>
ap s
aggreg ation
ag ain</w>
af f
accep table</w>
ac he
ab ly</w>
a vi
__ del
_ to_
[x _0</w>
= true)</w>
: ref</w>
: name</w>
9 9
64- bit</w>
3- tuple</w>
2 0
2 /
1 8</w>
1 8
1 1</w>
1 )</w>
* args</w>
* )</w>
( if</w>
( as</w>
'other '</w>
' -
' '</w>
} }</w>
zip file</w>
z }
yp e
y a
y ="
x_{ k-
x s</w>
x l</w>
wor ld</w>
wi se
wh o</w>
wh ile
wat ch
war n</w>
wal k</w>
wa it
w rong</w>
w d</w>
vo table
vi sibility</w>
ver s</w>
ve red</w>
value '</w>
valu ation</w>
ut il</w>
ut f-
unit test</w>
un packs</w>
un jelly</w>
un -
ul ation</w>
ug ht</w>
u li
u func</w>
u e
tu key
trun cates</w>
tri ang
traver sal</w>
transp ort
tran si
tr av
theoret ical</w>
theo rem</w>
the mat
that 's</w>
th met
test case</w>
t- test</w>
t ally</w>
sub sequence</w>
sub query</w>
sub ject</w>
stu ff</w>
strip ped</w>
string -
str ic
stric t</w>
stor tion</w>
stochast ic</w>
stat ions</w>
stand ard
stab iliz
sser ver
specifi c
spec ies</w>
sparse series</w>
sp an
sour ce
so ns</w>
snap shot</w>
sli g
sl ash</w>
skip ped</w>
sig il</w>
si ded</w>
short -
sho w
sh es</w>
sh ad
set -like</w>
sess ions</w>
sent ence
sens or</w>
semi -
sear ches</w>
se m</w>
sc af
scaf fol
sc 3
sc3 ml</w>
sav e_
sal t</w>
s= false</w>
s mar
roll ing</w>
ro py
rever sed</w>
rever se
remo ve_
remain ing</w>
reg ion's</w>
reg exp</w>
reference frame</w>
ref resh</w>
redirect s</w>
receiv ers</w>
re order</w>
re la
rela x
re implemented</w>
re fine</w>
re cur
re cent
re action</w>
ran king</w>
r o</w>
quo ting</w>
qual ifi
qu bit</w>
q graphic
py xl</w>
put s</w>
pur pose</w>
pub lic
probab i
probabi list
pro files</w>
prev ents</w>
pre ferred</w>
pr un
popul ates</w>
play er</w>
pix map</w>
pip e</w>
pick le
pick lable</w>
phylo xml</w>
phr ase</w>
per spect
pe a
pas t</w>
pag in
p psd</w>
p print</w>
p g</w>
p b</w>
p aper</w>
out going</w>
or ange</w>
open pyxl</w>
old- style</w>
numb er
nu cle
nucle oti
non- empty</w>
no -
net work
ness -of-
ne ural</w>
n p
multiplic ities</w>
multip lier</w>
multi- line</w>
mp _
most ly</w>
mo ved</w>
minim ize</w>
midd le
metagraph def</w>
memo ized</w>
memb ership</w>
maxiter =1
maxiter=1 00</w>
mar ker</w>
map per
m us
m type</w>
m ite</w>
m al
l{ it
lx c</w>
log y</w>
log ged</w>
local _
load _
list en</w>
linear class
linearclass sifier</w>
lex ico
le x</w>
le ver
langu ages</w>
la zy
la w</w>
l as
kee ps</w>
kafk a</w>
joy stick</w>
jin ja
iv e
iter atively</w>
item )</w>
ir y</w>
ir reduc
ipv 4</w>
intercept =true</w>
instanti ation</w>
ing_ box</w>
ing -
ing "</w>
infinit y</w>
independ ence</w>
in validate</w>
in form</w>
imag e
im uth</w>
id le</w>
id ence</w>
ic ity</w>
hyper parameters</w>
histo grams</w>
her mite</w>
he av
he at
hd f
hash es</w>
h sp
h ints</w>
h ang
h ad</w>
h 2
guarante ed</w>
group _
gra b</w>
gr ade</w>
good ness-of-
go og
geo s</w>
geo queryset</w>
g mm</w>
g al
from clause</w>
fq dn</w>
format _
fo o
fix es</w>
fit intercept=true</w>
file }</w>
fi res</w>
feature sets</w>
factor y}</w>
factor ial</w>
f ying</w>
f o</w>
f ed</w>
f act</w>
f (
ex plan
ex it
event accumulator</w>
event _
eval _
et c/
escap es</w>
es )</w>
error }</w>
equal ities</w>
encryp tion</w>
en di
emit ter</w>
em on
elast ic</w>
eigen vectors</w>
eff ective</w>
ear th
e ul
duplic ates</w>
dro ps</w>
dro po
down loaded</w>
do ns</w>
dispatch er</w>
dis ables</w>
dis abled</w>
dict }</w>
dict -like</w>
di stortion</w>
di gest
di d</w>
dete cted</w>
detail ed</w>
det ach</w>
descriptor }</w>
delimit er</w>
dele te
dele g
decor ate</w>
debug ger</w>
de t</w>
de lay
datas um</w>
datafr ames</w>
datafr ame
dat e_
dat ac
datac enter</w>
da y
d io
d end
d ()</w>
c{ self}</w>
c{ name}</w>
curren t
cs c</w>
cre ator</w>
cp u</w>
coordin ator</w>
coordin ate
conv 2d</w>
contro ller</w>
content- type</w>
connect or</w>
confir m</w>
condition ally</w>
concaten ating</w>
compo sed</w>
compli ant</w>
comp ile
comm un
combin es</w>
com p</w>
colum n-
color 's</w>
collect ions</w>
collect ion
collap se</w>
co dons</w>
clock wise</w>
classifi ed</w>
class method</w>
check ers</w>
channe l
certi ficat
centr ic</w>
case -
can 't</w>
ca p</w>
c y</w>
c ++</w>
bro ken</w>
brack ets</w>
bound ing_box</w>
bootstr ap</w>
bo to
bo ok
big -
bes sel</w>
be come</w>
be am</w>
be ach
beach ball</w>
base 64</w>
backtrac k
b io
b )</w>
az imuth</w>
av at
authentic ate</w>
au c</w>
attr s</w>
at ure</w>
as set
ari thmet
ar clin
app_ label</w>
annot ation
am ong</w>
am ino</w>
am az
allow _
alig ne
algori thms</w>
al most</w>
aggreg ated</w>
activ ated</w>
a a</w>
_ p
_ matrix</w>
_ get_
_ fields</w>
] [
\mathbb{ z}
[ a</w>
[ [
? )</w>
= false)</w>
3 6
28 22</w>
2 3
1- d</w>
1 st</w>
1 2
1 00</w>
1 '</w>
// www</w>
/ etc/
- time</w>
+ 1</w>
* x
( from</w>
( for</w>
' name'</w>
" ),</w>
! =</w>
z ^2</w>
y min</w>
y max</w>
y l
y join</w>
x min</w>
x max</w>
x 0</w>
writ e}</w>
writ ers</w>
wrapp ing</w>
wrap per
word net</w>
wor ker}</w>
wit z</w>
win 32</w>
wh ate
whate ver</w>
well -
w x
w ign
w ich</w>
w el
w ants</w>
visit or</w>
ver b
variable _
vari ances</w>
valu e)</w>
validat ed</w>
v lib
vlib node
vlibnode ()</w>
v 0</w>
utf- 8</w>
ut ion
us ual</w>
us ion</w>
url lib</w>
upper case</w>
up s</w>
un specified</w>
un expected</w>
un defined</w>
um er
ud p</w>
type error</w>
type ()</w>
tup le
trip le</w>
transl ates</w>
trans lat
trans it
trac ks</w>
trac king</w>
tr ial</w>
top ic
top -level</w>
toler ance</w>
tls compressed</w>
time out
time ()</w>
threshol ds</w>
th row</w>
ter _
te mp</w>
target path</w>
ta il</w>
t ty</w>
t t
t or</w>
t el
t '</w>
syn ch
synch ron
swar m</w>
substit uted</w>
subsamplingr ate
sub tensor
sub sequ
sub resultant</w>
sub expression</w>
strip s</w>
strip ping</w>
stri ct
strict ly</w>
stream }</w>
stream s</w>
str id
st ub</w>
st aging</w>
st able</w>
ss l
spec ial
spatial reference</w>
sp ans</w>
son 's</w>
some one</w>
sol ver</w>
sol utions</w>
so ft</w>
slig ht
slight ly</w>
signature def</w>
sig ning</w>
sig int</w>
sib le
sh ut</w>
servic e}</w>
servic e
server _
serial numb
serialnumb er}</w>
ser ial</w>
sequence -to-
sequence-to- sequence</w>
send er</w>
self [
self -
self ,</w>
self 's</w>
se n</w>
se g</w>
se ct
sco pe
sco p</w>
sche ma
scal e_
sc arg
scarg le</w>
sc ans</w>
satis fies</w>
san ity</w>
sa y</w>
s= 32</w>
s },</w>
s u</w>
s low</w>
s ",</w>
ru le
row matrix</w>
rout in
roun ding</w>
rot ates</w>
ro nec
ronec ker
rnn cell</w>
rn a</w>
retriev ed</w>
response }</w>
respon sible</w>
resol ved</w>
requi red
request }</w>
replac ements</w>
ren d
remo ver</w>
rele ased</w>
regres sion
reg param=0</w>
reg ime</w>
ref erred</w>
redu ce
recur sion</w>
reason able</w>
read ings</w>
read ers</w>
reach able</w>
re w
re start</w>
re map</w>
re ly</w>
re index</w>
rd d's</w>
rd d
rd b
raw predictioncol="
rawpredictioncol=" raw
rawpredictioncol="raw prediction",</w>
ration als</w>
ran ks</w>
r y</w>
r hs
r ^
queu ed</w>
quant ities</w>
qu e</w>
q pa
qpa inter
provid ers</w>
proto s</w>
proj ects</w>
process_ request</w>
prob dist</w>
pro ver
pro file
prior ity</w>
primar ily</w>
prim es</w>
pres pon
pres ence</w>
prepa red
prece dence</w>
post er
poster ior</w>
post _
po les</w>
pid d
perspect ive</w>
perio dic</w>
pea k</w>
pd p</w>
par ab
parab ol
parabol a</w>
pa ired</w>
p le
p ear
p d</w>
p ,</w>
overri ding</w>
over write</w>
over hang
over all</w>
ov a</w>
or m</w>
open s</w>
op a
on g
om it
ob servers</w>
o th</w>
o sc
o meg
omeg a</w>
nx 3</w>
note book</w>
non- na/null</w>
non terminal</w>
node item</w>
node =1</w>
ni hil
net works</w>
nd frame</w>
name )</w>
n s
mus ic</w>
multi listbox</w>
mp ot
modul us</w>
mo us</w>
mo ments</w>
mix in</w>
mit ted</w>
mininstancesper node=1</w>
min info
mininfo g
mininfog ain
mininfogain =0</w>
middle ware</w>
midd le</w>
medi um</w>
meas ure
mean ing
me try</w>
me ij
mb =2
mb=2 56</w>
mb -
mb- scargle</w>
maxmemoryin mb=256</w>
maxiter =20</w>
max depth
maxdepth =
maxdepth= 5</w>
max bin
maxbin s=32</w>
math ml</w>
man _
ma themat
m id</w>
l{ serialnumber}</w>
l{ int
l{int }</w>
long itude</w>
log- transformed</w>
log- probabilities</w>
log- odds</w>
log like</w>
log ic
logic monitor</w>
lo west</w>
lo t</w>
lo ops</w>
lo mb-scargle</w>
linear ly</w>
line _
lin ed</w>
lever age</w>
leg al</w>
lear ned</w>
lapl ace</w>
lag -
lab e
l m</w>
l i</w>
kin es
kines is</w>
key word
key s()</w>
key -
kee ping</w>
ke pt</w>
k ur
k ronecker
k o
k lass</w>
iz e()</w>
iter able
it ect
itect ure</w>
ist ic
invol ving</w>
invol ved</w>
interpol ated</w>
inter act
integr and</w>
int 64</w>
instal ls</w>
initializ ing</w>
index _
ind ent</w>
in pu
in ear
in correct</w>
in compatible</w>
im mutable</w>
if y
identifi es</w>
ide mpot
id s=false</w>
i sed</w>
hyper search</w>
hub ble</w>
htt prespon
horizon tally</w>
hil bert</w>
hig he
hermit ian</w>
hel d</w>
he dro
hedro n</w>
he ap</w>
he al
hal f-
h uff
h _
gu ess
group er</w>
group by</w>
gradi ent
gr u
goodness-of- fit</w>
gn u</w>
glo b</w>
geometr ical</w>
geo graphic</w>
gen s</w>
gd al
gaussi an
gal ax
g mpy's</w>
fut ure
fro z
freq dist</w>
fra ct
forwar ding</w>
foreign key</w>
fo o</w>
flush es</w>
fin d_
fi red</w>
ferm i</w>
feature_ columns</w>
fal ls</w>
fa ke</w>
f- test</w>
f ps</w>
f er</w>
f all</w>
f ace</w>
f 5-
exist ence</w>
ex emp
ev al</w>
et ype</w>
es '</w>
er ase</w>
equival encies</w>
ent ial</w>
ent _
encryp ted</w>
enco de
enc aps
en ing</w>
en e</w>
en ame</w>
elem s</w>
ec h</w>
e lem</w>
e fs</w>
e c</w>
e 's</w>
dum m
dropo ut</w>
dra w_
dr s</w>
doc s</w>
disc ard</w>
diag no
di rdb
di c
determin ing</w>
determin ation</w>
dete cts</w>
depend ence</w>
dense matrix</w>
dens ity
dend rogram</w>
dele gate</w>
decl ared</w>
decl are</w>
dec ide</w>
de velo
de d
de compose</w>
de als</w>
da o</w>
c{ str}</w>
c{ key}</w>
c{ f
cut out</w>
cur ves</w>
cross- validation</w>
coup le</w>
corp us
conver sions</w>
continu ed</w>
conf usion</w>
comple x
comple ter</w>
compil er</w>
compari sons</w>
commun ic
col defs</w>
co vered</w>
co ver</w>
co t</w>
co o
co eff
clust er
cli ps</w>
classifi es</w>
cl ad
clad es</w>
chun ked</w>
ch ain
categori cal
capt ured</w>
canvas frame</w>
canonical ize</w>
calcul ator</w>
cachenode ids=false</w>
c c
c a</w>
c *
box ed</w>
block matrix</w>
block manager</w>
ber g</w>
be z
be comes</w>
b l</w>
b igrams</w>
b i</w>
ax ^2</w>
auto _
author ization</w>
attach es</w>
ation bounds</w>
asyn chrono
arithmet ic</w>
arch itecture</w>
ar ct
app ended</w>
ant i</w>
anch or
an umer
an ti
an sible
an nihil
ampl itude</w>
amaz on</w>
alph anumer
all _
align ment
af fine</w>
adv ance</w>
adjac ency</w>
activ ities</w>
activ ations</w>
accumul ationbounds</w>
access ing</w>
ac id</w>
a y</w>
a h</w>
a 1</w>
_ list</w>
_ ,</w>
^ {
\mathb b</w>
[ y]</w>
== ==
: returns</w>
4 0
3- tuples</w>
2 }
2 ]</w>
2 56</w>
19 8
1 6
0 '</w>
- up</w>
- first</w>
** n</w>
** kw
() }</w>
( x_
( x**
( using</w>
( m
' value'</w>
' c
" name"</w>
| x
z =0</w>
yl or</w>
ya ho
y- to-
y ear
x i</w>
x ^2</w>
wil d
width s</w>
while context</w>
weight col=none</w>
we' ve</w>
wave function</w>
wal king</w>
w ol
w ang
votable _</w>
vi si
verbo sity</w>
verb net</w>
vari ational</w>
ut il
user _
updat e()</w>
un signed</w>
un load</w>
un ification</w>
um p</w>
um in
u uid</w>
u fer</w>
u _
trun cation</w>
true/ false</w>
tri e</w>
tre ated</w>
transl ated</w>
trans ver
trans posed</w>
train _
trac ing</w>
topo logical</w>
tool box</w>
token 's</w>
time- varying</w>
tim ing</w>
th mic</w>
th ird</w>
tensor board</w>
tax on</w>
table 's</w>
tab ular</w>
tab s</w>
ta ylor</w>
ta u</w>
ta p</w>
t wit
t ech
t ain
swit ch
sw aps</w>
sun day</w>
success ive</w>
subscri bed</w>
sub sets</w>
sub modules</w>
sub m
su s</w>
su g
student ized</w>
student 's</w>
string }</w>
string -like</w>
stdout /
stat us_
stat ic
stac k
st imat
st d</w>
sserver factory</w>
ss c
ssc ene</w>
sql al
sqlal chem
sqlalchem y</w>
sq rt
specifi cally</w>
spec s</w>
spatial ite</w>
sparse matrix</w>
spa wn</w>
so lex
sm tp</w>
slo ts</w>
slic ed</w>
sli ce
sit es</w>
singular ity</w>
simul ate</w>
si l
sho ul
shif ted</w>
shar ded</w>
shap ed</w>
sh er</w>
sg s</w>
serializ es</w>
ser ves</w>
seq alignment</w>
sens it
select ables</w>
select _
second ary</w>
se ctions</w>
se c</w>
scre ens
scan line</w>
sat ur
sand wich</w>
sa ys</w>
sa ver</w>
sa fe
s st
s mil
smil es</w>
s m</w>
s i</w>
s d</w>
s c</w>
row _
row -wise</w>
routin es</w>
rot ated</w>
roll back
rol ls</w>
ro p</w>
ri er</w>
rf c
retriev al</w>
resol ution
resnet _
resampl ing</w>
repor ts</w>
repor ter</w>
repor ter
repe ated</w>
repe ated
repeated ly</w>
ren py</w>
regular polygon</w>
recor d
recent ly</w>
receiv ing</w>
read me</w>
read ing
re q</w>
re li
re current</w>
r up
r s</w>
r ings</w>
r f</w>
quick ly</w>
queu er
queuer un
quer ying</w>
quanti le</w>
quanti le
quadrat ure</w>
qua ke
quake ml</w>
python -
pul l</w>
protocol s</w>
pro ve</w>
pro b</w>
privile ge</w>
preser ve</w>
pres s</w>
predict s</w>
predict _
pre processor</w>
pr ufer</w>
pow ers</w>
post -
pool s</w>
poly morph
pol ar
point }</w>
point ing</w>
po six</w>
plug ins</w>
ple ase</w>
place hol
placehol ders</w>
piec es</w>
pi ed</w>
pi ct
phylogen y</w>
ph ant
phant ine</w>
persist ence</w>
perio do
periodo gram</w>
per pen
perpen di
per m
path 's</w>
pat ches</w>
pal ette</w>
pack er</w>
pa z</w>
p ush
p ure
p es</w>
p /
ow widget</w>
output _
organ isms</w>
or y_
optim ize</w>
optim iz
oper ates</w>
op _
one- hot</w>
ol d_
od 's</w>
occurren ce</w>
occ up
o usly</w>
o s-
o (x**
nucleoti de</w>
norm ali
nom ic</w>
nob s</w>
no ul
nl tk
neighb or
negoti ation</w>
neg atives</w>
neg ation</w>
name /
name ,</w>
name *</w>
my sql
multiple seqalignment</w>
multi set</w>
mp q</w>
mp c</w>
mov ement</w>
mon day</w>
moment um</w>
modif ying</w>
mo use
mo l
miss ion</w>
mis fit</w>
mi ses</w>
messag e-
measure ment</w>
me ant</w>
mat ter</w>
mat ic</w>
mapper property</w>
many to
manag ers</w>
man y-to-
maint aining</w>
mach in
mac ro</w>
mac e
ma co
ma -separated</w>
m time</w>
m ir
l{url }</w>
l{istream client
l{dn sserverfactory</w>
l{ unicode}</w>
lu str
loss es</w>
logari thmic</w>
load ()</w>
lo we
lo nomic</w>
lo n</w>
ll ing</w>
linear _
line string</w>
lin k-
lig ht
lex icon</w>
lef t
leav e-
leave- one-
lay er
lat itude</w>
larg er</w>
lag polynomial</w>
l sh</w>
l ive</w>
l hs</w>
l f</w>
kronecker delta</w>
known host
kin ds</w>
ker as</w>
k app
j un
j uli
j ection</w>
iter ative</w>
iter ation
iss ion</w>
io s</w>
invok ing</w>
interval index</w>
interpret er</w>
inter sect</w>
integr ated</w>
int elli
inser ting</w>
inpu thook</w>
inn er_
informat ional</w>
infinit e</w>
inf erred</w>
ind ented</w>
inclus ion</w>
in valid
in v</w>
in spection</w>
in oti
in equalities</w>
in du
in definite</w>
in ception</w>
import ance</w>
implement ing</w>
imp utation</w>
immedi ate</w>
images/anim_in_ out_
image_ func</w>
il lustr
ident ifying</w>
id x_
id f</w>
i- th</w>
i *
hypothe sized</w>
huff man_
httprespon se</w>
holi day</w>
ho lonomic</w>
hm mer
highe st</w>
hierarch y</w>
heav y</w>
head ing</w>
hash _
har monic</w>
h its</w>
group ing</w>
goog le</w>
glyp h</w>
glob al_
get text</w>
geo s
gene pop</w>
gaus s-
galax y</w>
g zip</w>
g ls</w>
g ate
funct io
frag ment
fract ional</w>
fr amer
framer ate</w>
fr ac
frac {
fore casting</w>
fore cast</w>
fol ding</w>
flex ible</w>
file _
fil l_
field _</w>
ferm ion
fe eding</w>
fast er</w>
f5- sdk</w>
f /
f ,</w>
expect ation</w>
exp ire</w>
execut e()</w>
exclu ded</w>
ever y
es p</w>
es _
er y</w>
er '</w>
ent ropy
ene ss</w>
endo genous</w>
enco dings</w>
em ulate</w>
elimin ation</w>
el ap
edge 's</w>
ed error</w>
ect -specific</w>
ec k</w>
ear th</w>
eag erly</w>
e mon</w>
e lect
e ight</w>
dump s</w>
dumm ies</w>
distr o</w>
disp er
discret ize</w>
dis connecting</w>
dis connected</w>
director y
direct ion
dir ty</w>
dio phantine</w>
ding ly</w>
dimension ality</w>
diff ers</w>
diff er</w>
dial ect-specific</w>
di alog
dialog ue</w>
dependency grammar</w>
density /
deferred }</w>
defer re
defaul t_
decor ators</w>
de- 9
de-9 im</w>
de serialize</w>
data sets</w>
dat um</w>
da emon</w>
da emon
d n't</w>
d mp_
d at</w>
c{ test
c{ tag}</w>
c{ other
c{ obj
cy cli
custom ized</w>
cu dnn</w>
cu be</w>
cross- validator</w>
cre ate
cover ing</w>
cor related</w>
copy ing</w>
cop ul
convol utions</w>
conver ter</w>
conv ention</w>
consum ing</w>
constan t
consist ency</w>
con ce
command 's</w>
comm as</w>
com ma-separated</w>
column_ with_
colum nelement</w>
color maps</w>
col li
coer ces</w>
co pied</w>
co don
co domain</w>
co der</w>
clip ping</w>
clic k</w>
cli p</w>
cle ar
clas s-
cir cum
ciph ering</w>
check er</w>
che by
char set</w>
cg i
cf g</w>
cap it
candi dates</w>
call ables</w>
calcul ations</w>
ca ught</w>
c are</w>
c ache
byp ass</w>
by ^2</w>
by -
bucket }</w>
bu g</w>
bran ches</w>
box es</w>
botto m-
boo t</w>
boo st</w>
bon d</w>
bo to</w>
bl ue
big- ip</w>
bi weight</w>
ber noul
bay es</w>
base estimator</w>
bas es</w>
bar y
bar rier</w>
band ed</w>
back prop</w>
b last</w>
avail ability</w>
auto reload</w>
author ity</w>
auth _
ation =true</w>
assump tion</w>
associ ation</w>
as king</w>
arc -
ar r</w>
appro ach</w>
applic ations</w>
appear ing</w>
app ending</w>
ap ro
annot ated</w>
analy z
an ova</w>
alphanumer ic</w>
alphab etic</w>
alph a
allo we
al g</w>
aggregation depth
add r</w>
add /
activ e
act ion
accumul ator
accor dingly</w>
acceler ation</w>
ab sor
ab ort</w>
__set item__</w>
__del item__</w>
__ div
_ value</w>
_ op</w>
\ in</w>
\ frac{
[i ]
[ virtual</w>
[ element</w>
[ 2]</w>
[ 1</w>
[ *
< <</w>
: parameters</w>
: arg</w>
: :</w>
8 -
4 3
2 0</w>
1 ]</w>
1 9</w>
1 4</w>
1 00
/ path
/ /</w>
- x</w>
- list</w>
- format</w>
- dependent</w>
+ c</w>
** **
* h</w>
* ]</w>
( p
( of</w>
( http</w>
( 1</w>
' msg</w>
' field
" an</w>
~ numpy</w>
} ;</w>
zy go
zip line
z- test</w>
z on
yaho o</w>
y z</w>
y l</w>
x- axis</w>
x /
writ e_
windo w_
whit en</w>
where "</w>
weigh ting</w>
we yl</w>
wa y
w th</w>
w as
was n't</w>
visu al
visi t</w>
vi sion
vi rt</w>
verifi ed</w>
verbo se
vari et
variet y</w>
valu e}</w>
validat ion
v pc</w>
ut ter
user- specific</w>
user- defined</w>
user auth_
ur is</w>
up sampling</w>
uniqu ely</w>
unicode __</w>
un set</w>
un pickling</w>
un iv
un ified</w>
un compressed</w>
ular integer</w>
ul ates</w>
u i
u handle</w>
u df</w>
tz- aware</w>
typ ing</w>
two- sided</w>
two- arg</w>
twit ter</w>
tukey 's</w>
tru sted</w>
trim med</w>
trig g
tri angles</w>
translat able</w>
transi ent</w>
tran eous</w>
tor sion</w>
topo logy</w>
token ize</w>
tok ens
to y</w>
to u
to sis</w>
ti p</w>
threshol d
the ory</w>
th re
th em
termin als</w>
tensor variable</w>
tech ni
te ar
tan h</w>
t ren
t r</w>
t on
t m
t ex
t cp
sym metry</w>
sy sc
sysc ar
syscar tesian</w>
sv n</w>
summ ing</w>
summ ed</w>
summ aries</w>
subtr acts</w>
subtr action</w>
substit ute</w>
subsamplingrate =1</w>
subm it</w>
sub- graph</w>
sub- classes</w>
sub strings</w>
sub s</w>
sub mitted</w>
sty le_
struct type
strip p
stripp ing"</w>
string type
stream ing
strateg y="
str ide</w>
stimat or</w>
step per</w>
stemm er</w>
state space</w>
stat s
stat e_
st }</w>
ss -
spr int</w>
spect ru
spectru m</w>
spat h</w>
sparse tensors</w>
sparse max</w>
sparse dataframe</w>
sparse array</w>
spac ed</w>
spac e-
sor t_
solex a</w>
skip s</w>
skip ping</w>
sk top</w>
simultan eous</w>
simpli fies</w>
simp le_
significan ce</w>
sigma _
sib ling</w>
si p</w>
si m
shor test</w>
shar ds</w>
sh visual</w>
sh ev</w>
sh are
sh ard</w>
serv ing</w>
separ able</w>
sentence _
sentence_ aligne
sentence_aligne d_
sentence_aligned_ corpus</w>
sensit ivity</w>
self[ i</w>
see k</w>
secon d-
second- order</w>
sear ching</w>
se ction
sdcal inear
sdcalinear regressor</w>
scri pt
screens hot</w>
scan ning</w>
satis fi
sat uration</w>
san e</w>
samp le_
sa -
s= none)</w>
s us
s sible</w>
s ive</w>
s cor
scor ing</w>
s a</w>
s ]</w>
s [i]</w>
s 3</w>
run options</w>
run n
rs a</w>
roo m</w>
ro n</w>
retur n_
ret e</w>
restri ction
resol ving</w>
reser vo
res izing</w>
required *]</w>
reporter }</w>
ren ders</w>
rel ational</w>
regexp chunk
reference d_
ref s</w>
ref s()</w>
ref resh
redu cing</w>
recor d_
recipi ent</w>
read line</w>
react ort
re x
re writes</w>
re starts</w>
re parameter
re lay</w>
re do</w>
re diction
re curren
recurren ce</w>
re calculate</w>
re ach</w>
ran k-
r l
rl +c</w>
quote d-
query }</w>
quar ter</w>
quanti ze</w>
qu as
quas i-
quasi- particle
quasi-particle ?</w>
qu arti
qgraphic sscene</w>
pyp i</w>
pt ion
pseudo- quotient</w>
prox y
prox ies</w>
prox ied</w>
prote in</w>
project ed</w>
probability col="
probabilitycol=" probability
probabilitycol="probability ",</w>
prob a</w>
pro of</w>
pro gram
privile ges</w>
print _
predict ive</w>
pre popul
pre fixed</w>
pre fetch
pre computed</w>
pre c</w>
pre c)</w>
pop 3</w>
pol l</w>
point wise</w>
po t</w>
po li
pl ast
pl an</w>
pk l</w>
pipel ine
piec e</w>
pidd le</w>
pick les</w>
pic king</w>
phr ases</w>
ph ar
perform ance</w>
per _
pen al
penal ty</w>
patter n}</w>
path _
pass ive</w>
parser 's</w>
parse re
pars ers</w>
parenthe si
pag ing</w>
pa use
p values</w>
p ure</w>
p r</w>
p ip</w>
p cap</w>
p ages</w>
p (
p '</w>
over loaded</w>
out lier</w>
out er
out comes</w>
our self</w>
ori ented</w>
organ ism</w>
ord an</w>
or g</w>
or bits</w>
oper ativ
operativ et
operativet ask
ong side</w>
on- sky</w>
on ev
omit ted</w>
om es</w>
object ive-
objective- c</w>
o(x** prec)</w>
o zygo
o virt</w>
o sed</w>
nump ar
numpar tit
noti mp
not *</w>
nor dic</w>
non- fixed</w>
no ps</w>
nltk 's</w>
new line</w>
new ick</w>
net string</w>
net mask</w>
neighbor ho
ne ws</w>
ne sting</w>
named tuple</w>
name server</w>
n mf</w>
n ic
n gram</w>
n d</w>
n av
nav ig
n at
n ary</w>
n ans</w>
n \
mut ation</w>
multip li
multi- dimensional</w>
multi processing</w>
multi line</w>
msg_ userauth_
mp rediction
mp math</w>
monoton ic</w>
mon key-
model f
modelf nops</w>
mod ularinteger</w>
mo d_
mil li
mi x</w>
message 's</w>
meij er</w>
medi a</w>
me shvisual</w>
me d
may be</w>
max -
matrix color</w>
mas ks</w>
mar sh
map s[
manip ulation</w>
man ually</w>
man ner</w>
man age</w>
mace 4</w>
m t</w>
m m
m k
m int
m ing</w>
m im
m as</w>
m 's</w>
l{ipv 6
l{ipv6 address}</w>
l{ipv 4
l{ipv4 address}</w>
l{file descriptor}</w>
l{co operativetask
l{ str}</w>
l{ log
l{ h2
l{ dns</w>
l{ dict}</w>
l{ client
l{ bucket}</w>
lowe ss</w>
log s</w>
log dir</w>
local s</w>
loc ation
lo sst
lo oo</w>
list 1</w>
link- local</w>
linear operator</w>
linear operator
lin enum
lig h
lic ens
lib svm</w>
li k
lik ely</w>
li f
lif ting</w>
lexico graphic</w>
lem mas</w>
lem ma</w>
leave-one- out</w>
lear ner</w>
le ast
least -
last _
lag range
label _
l it
l f
l an
l ac
kur tosis</w>
ko witz</w>
known _
known_ hosts</w>
k[ ,
k[, d
k[,d ])</w>
k- means</w>
k ick
k able</w>
juli an</w>
json -
jel ly
j vm</w>
j ump</w>
j d1</w>
j an
j ],</w>
iz able</w>
ity ="
iter items</w>
iter ables</w>
item s()</w>
item s
item __()</w>
it -
ir ls</w>
ir al</w>
ip ush
inver se_
inver se
interpol ating</w>
interpol ates</w>
intern al
interact ively</w>
inter rup
inter ior</w>
inter active
intelli g
int _
int 8</w>
inspect or</w>
inser t
inoti fy</w>
ine ss</w>
indic ation</w>
indexed slices</w>
increment ally</w>
incre ase</w>
inc idence</w>
in variant</w>
in complete</w>
impur ity="
impur ity</w>
implic it</w>
imp ute</w>
imp ro
imp osed</w>
im_ matrixcolor</w>
il es</w>
if ace</w>
id x
ib ility</w>
i }</w>
htt ps</w>
ht mprediction
hs v</w>
host _
homo morphism</w>
ho t
ho ok
hist ory
heter ozygo
heter os
hash_ bucket</w>
hash ing</w>
hash able</w>
happ ens</w>
ha c</w>
h n
h az
gro wth</w>
graph _
glob als</w>
glob ally</w>
get_ refs()</w>
geos geometry</w>
gen omes</w>
gd al</w>
g c</w>
g ar
g *h</w>
fuz zy</w>
funct or</w>
fron t
frequ ent</w>
free ze</w>
frame work</w>
fra ction
forwar ds</w>
for cing</w>
for ce
fol d
fo cal</w>
fl at
fit _
final ize</w>
file obj</w>
file /
file ()</w>
ff t
feature columns</w>
featu reset</w>
fail ures</w>
fa ul
f y
f struct
extract _
extr action</w>
ext en
expor ted</w>
exponent i
expan ding</w>
exp lo
execut or</w>
exclu de</w>
except ion
exce ss</w>
ex traneous</w>
ex pr
ex clus
event_ shape</w>
et tes</w>
et o
et er</w>
estimat ing</w>
ess entially</w>
er ti
er r</w>
equ i
end points</w>
enco der
en v</w>
en able
en _
emp t
em bl</w>
element tree</w>
element ary</w>
elap sed</w>
eg l</w>
e rend
e ps</w>
e f</w>
e ast</w>
dynam ic
duplic ation</w>
du al</w>
down time</w>
dot ted</w>
docum ent
display ables</w>
dispat ches</w>
discar ding</w>
direction ="
direct ional</w>
direct ed</w>
dir ac
dim shuffle</w>
dim array</w>
di v</w>
di sts</w>
devi ations</w>
determin istic</w>
dete ction</w>
det ach
descript ive</w>
descri be</w>
depth -first</w>
denomin ators</w>
deno ting</w>
decre asing</w>
deca y</w>
dec im
de sktop</w>
de sign
de serialization</w>
de queues</w>
de ce
datet imes</w>
data }</w>
dat agr
d m
d cc</w>
d ail
d "</w>
c{other }</w>
c{f }</w>
c{ pattern}</w>
c{ path}</w>
c{ os</w>
c{ datetime</w>
c{ class
c{ _
cy cle
ct rl+c</w>
cross- entropy</w>
credent ial
cr ash</w>
coun try</w>
coun ters</w>
cor relations</w>
copy ()</w>
copul a</w>
coordinate wise</w>
coord syscartesian</w>
coor ds</w>
conv ex</w>
consum e</w>
consi dering</w>
consi der</w>
connection pool</w>
confli ct</w>
condition al
concaten ated</w>
conc rete</w>
con stit
con e</w>
con d</w>
compar ator</w>
compar able</w>
communic ation</w>
color map</w>
color bar</w>
colo ur</w>
coer c
co n</w>
co moving</w>
co factors</w>
class 's</w>
cipher text</w>
choo sing</w>
choo ses</w>
cho sen</w>
checkpoint ed</w>
check points</w>
check _
cheby shev</w>
ch i</w>
ch ed</w>
cg i</w>
cens or
cel l
cap np</w>
cap ab
capab ilities</w>
call er's</w>
cal ib
c_ code</w>
c ub
c not</w>
c f</w>
c ds</w>
by "</w>
bound arguments</w>
boto 3</w>
boo sted</w>
bon ds</w>
bo ol
bo ard
blue print</w>
block ettes</w>
bl an
bit string</w>
binar y
bin d_
bet ter</w>
bernoul li</w>
ber kowitz</w>
base ml</w>
bas ically</w>
back ed</w>
b unch</w>
b sgs</w>
b il
b es</w>
b ad
ax is_
avat ar</w>
auto covariance</w>
attribut e
attemp ting</w>
att ention</w>
ativ e
at ro
asy m
ash es</w>
ash ed</w>
as_ iterable
as er</w>
as -
ar t</w>
approximat ing</w>
approximat ely</w>
any more</w>
ansible module</w>
annot ate</w>
and er
an on
alg o</w>
al read
al ongside</w>
al one</w>
al ign</w>
aggregationdepth =2
age level</w>
ag ent
adv ance
ach e</w>
acce ssible</w>
ac e
abstract expression</w>
ab i</w>
a head</w>
a ,</w>
__repr __()</w>
__div __</w>
__ unicode__</w>
__ new
_ time</w>
_ sys</w>
_ indices</w>
_ i
_ fn</w>
_ connection
] }</w>
\mathbb{z} _p
[1 ],</w>
[* required*]</w>
[ 0]</w>
@ {
> }</w>
= 0)</w>
= "</w>
: term</w>
: /
9 6
9 0</w>
8 6
40 4</w>
4 0</w>
2- tuples</w>
2 *
1 7</w>
1 3</w>
1 ()</w>
// service</w>
/ tensor</w>
/ python
- type</w>
- only</w>
- local</w>
* obj
* name*</w>
* (
( vs</w>
( self[i</w>
( mod</w>
( k[,d])</w>
( k
( direction="
' }</w>
' s)</w>
' re</w>
' level
' contain
' _
' ]</w>
' ,
% m
" order</w>
" %
| |</w>
| a
zipline 's</w>
zero !</w>
z map</w>
z ily</w>
z e
ze bon
zebon sk
y- we
y-we in
y-wein berg</w>
y y
y scale</w>
y n
yn 00</w>
y mous</w>
y 1
y1 <
y1< y2</w>
x1 <
x1< x2</w>
x/ y</w>
x y</w>
x *</w>
writer }</w>
writ e()</w>
writ able</w>
wild card</w>
wign er</w>
widget 's</w>
wi re</w>
wee k
wang /
wang/ ee
wang/ee z</w>
wal ker</w>
wa v</w>
w an
w /o</w>
w /</w>
vol um
vol at
volat ile</w>
verti ble</w>
ver sus</w>
ver ifying</w>
ver ="
vector ized</w>
vari ants</w>
validat ors</w>
validat or
validat ing</w>
val ence</w>
val 1</w>
v ol</w>
v io
v ent</w>
v dt
v ature</w>
v ^
v (
use less</w>
use _
ur lo
ur i}</w>
ur ck
ur b
urb ance</w>
up sample</w>
up grade</w>
uniform ly</w>
uni x
un supported</w>
un subscribe</w>
un packed</w>
un like</w>
un known
un ist
unist ro
un g
umin a</w>
ul tim
ultim ate</w>
ul l</w>
ub set
u id
uid l</w>
tz info</w>
typ e)</w>
tw op
twop h
twoph ase
twophase ()</w>
tur ned</w>
tun nel</w>
tu io</w>
true ,</w>
trip les</w>
trigg ers</w>
triang ular
tri g</w>
tri ed</w>
tre ats</w>
tre at</w>
transport }</w>
transform _
trans mission</w>
tr ust</w>
tr i</w>
tr ap
trap e
trape zo
tr ading</w>
topic distribution
top down
token ize()</w>
to st</w>
to go
togo ws</w>
tl sci
tlsci ph
tlsciph er
tlscipher text</w>
tit u
time step</w>
ti le</w>
ti l
ti ds</w>
ti cs</w>
ti cal</w>
ti al</w>
thun k</w>
thre e-
tho ugh</w>
them sel
themsel ves</w>
th us</w>
th in
th and</w>
text input</w>
termin ates</w>
termin ated</w>
tensor array
tempor al
templat e_
templ ated</w>
tel ls</w>
ted_ keys</w>
te d
target _
t- in</w>
t y
t parser</w>
t len
tlen eck</w>
t le</w>
t as</w>
system 's</w>
symbo li
symboli cally</w>
swar ms</w>
sus p
surf aces</w>
suppli ers</w>
sup er</w>
sup ]</w>
summary writer</w>
sum (
suit es</w>
succe eds</w>
substit utions</w>
substit utes</w>
subsequ ent</w>
subscri ption</w>
sub trees</w>
sub string</w>
sub expressions</w>
su ffici
sty ler</w>
stro kes</w>
stri ke</w>
str zebonsk
str p
strp time</w>
str and</w>
str al</w>
stemm ing</w>
std dev</w>
stats models</w>
statist ical</w>
start_ date</w>
standardiz ation=true</w>
stan for
stan ding</w>
st ur
st ic</w>
st er
st ability</w>
squ ee
sql context</w>
spr ites</w>
specific ations</w>
spec ially</w>
sparse vector</w>
space- separated</w>
sp line</w>
sp ing</w>
sour ce_
sor ted_keys</w>
sol ver="
sock et
so met
somet imes</w>
so id</w>
sn iff</w>
smooth ed</w>
smo oth</w>
slo t
ske w</w>
sit e-
simultan e
simultane ously</w>
simp ler</w>
similar ly</w>
short ened</w>
shor thand</w>
sho w_
shif t
share d
shared variable</w>
shape =
shape ,</w>
sha -
sh run
sh r
shr in
sh ell
sh ading</w>
sg v1</w>
sg v0</w>
sever ity</w>
set_ type()</w>
set }</w>
set -
session 's</w>
service group</w>
server }</w>
serv erend
serializ ing</w>
seq base</w>
seman tics</w>
seman tic</w>
seed =none)</w>
security options</w>
second }</w>
se s)</w>
se p</w>
se m
se eds</w>
se as
sdcal og
sdcalog istic
sdcalogistic classifier</w>
scroll ing</w>
scri pts</w>
schedul er</w>
sch iz
schiz om
scen ari
scenari o</w>
scat ter
scal ation</w>
satisfi ability</w>
san it
samp integr
sampintegr ated
sampintegrated client</w>
s_ len</w>
s/ arrays</w>
s- -
s th
s p</w>
s als</w>
s 's</w>
s ',</w>
run -
row -
rot ations</w>
root }</w>
ro utes</w>
ro le
ro c</w>
ri al</w>
rhs m</w>
rh o</w>
rf _
rew all</w>
reverse -
retri es</w>
retr ying</w>
ret ained</w>
resum e
result proxy</w>
resp ect
resource }</w>
resnet_ v
reshap es</w>
res net</w>
request -
request 's</w>
repor ted</w>
renam ed</w>
renam ed
ren der
ren ames</w>
remote _
remo val</w>
regression results</w>
regres sions</w>
regist er
regexpchunk parser</w>
referen tial</w>
ref erring</w>
recogn ized</w>
real ization</w>
real -
real- valued</w>
reading command</w>
read_ and_
read er}</w>
read er's</w>
re- route</w>
re z</w>
re strict</w>
re port
re member</w>
re main</w>
re jection</w>
re compute</w>
re call
recall @k</w>
re c
random _
ran sp
r y
r or</w>
r ms</w>
r it
rit as-
ritas- strzebonsk
r ation</w>
r an</w>
r ad
r a</w>
queuerun ner</w>
query 's</w>
quantiz ed</w>
quant um</w>
qu al</w>
qpainter path</w>
q t
q standard
q rect
q point
q l</w>
py openssl</w>
py _name</w>
prun e</w>
prover 9</w>
proto type</w>
project ive</w>
produ ct
probabilist ic</w>
prob lem
problem s</w>
pro positional</w>
pro j</w>
pro be</w>
primar yjoin</w>
pri ces</w>
preser ving</w>
preser ves</w>
pres um
pres ented</w>
prepared request</w>
prepar ation</w>
prepa red</w>
prediction s"</w>
predi cat
preci sions</w>
prece ss
pre process</w>
pre dece
predece ss
pr n
pool ed</w>
polymorph ic</w>
poli cies</w>
point list</w>
pli b</w>
plac ed</w>
pla ys</w>
pl ural</w>
pl ate
pl ain
pk g_
pip ing</w>
pic ks</w>
pi er
pier ce</w>
phar maco
pharmaco ph
pharmacoph ore</w>
ph d</w>
ph ase
perpendi cular</w>
perman ent</w>
percent iles</w>
percent -
pear son's</w>
path )</w>
pass word
param map</w>
pan els</w>
p )</w>
overhang ing</w>
over writes</w>
output ting</w>
out standing</w>
oth ers</w>
osc ill
os- release</w>
orig _
ord er_
option s}</w>
operator name
operatorname {
opa que</w>
op t</w>
op posed</w>
op /tensor</w>
onev s
one- line</w>
on ic</w>
od d</w>
obt ains</w>
obj c
o urce</w>
o ols</w>
o id</w>
o h
o ds</w>
o 's</w>
nx 4</w>
number s/arrays</w>
num expr</w>
nu mpy's</w>
np z</w>
notimp lement
normal ity</w>
norm als</w>
non- positive</w>
non- overlapping</w>
non- none</w>
non- default</w>
non- blocking</w>
non- blank</w>
non- ascii</w>
non ce</w>
node item)</w>
node def</w>
no- op</w>
no op</w>
no d
new s
net visor</w>
net /
ne ar</w>
nd arrays</w>
nan o
nam es
n_ clas
n_clas ses)</w>
n\ th</w>
n- gram</w>
n- dimensional</w>
n- d</w>
n y
n tab</w>
n t</w>
n me
n it
n c
n )</w>
mutable dens
mutabledens en
mutabledensen dimarray</w>
mut ator</w>
multip lexer</w>
multi class</w>
msg_ k
msg ,</w>
month s</w>
mod ular</w>
mo der
ml lib
mllib -local</w>
mini- batch</w>
min ant</w>
mid n
mi ce</w>
method ='
met a-
message received}</w>
messag ing</w>
mer ge
mem ory_
mem map</w>
meas ured</w>
matrix (
matrix( 2</w>
mat er
mark ers</w>
mark down</w>
mar ket</w>
manyto many
many-to- many</w>
mal tparser</w>
mail dir</w>
m urck
m un
m t
m q</w>
m er</w>
m entation</w>
m d</w>
m ang
m '</w>
l{it rial</w>
l{cooperativetask }</w>
l{_ parse
l{ message}</w>
l{ failure
l{ command
low er-
loop back</w>
lon gest</w>
location finder</w>
liter als</w>
lit tle</w>
list 2</w>
list 's</w>
linenum ber</w>
lin king</w>
lin ker</w>
limit ed</w>
limit _
lic en
licen se</w>
left- hand</w>
le d_
ld l</w>
las so</w>
label ing</w>
labe led
la zily</w>
l b</w>
l ags</w>
knownhost s
kno ws</w>
kee plast
k w</w>
k m
k ill</w>
k [x
job lib</w>
jo hn
john son</w>
jinja 2</w>
ja il</w>
j id</w>
j d2</w>
j ]</w>
i{ uri}</w>
iv e_
iter ated</w>
it ation</w>
irreduc ible</w>
ireactor core</w>
ir c</w>
ipush producer</w>
ip _
ion /
invalid ="
invalid=" error
invalid="error ")</w>
intro spection</w>
interactive shell</w>
integr ated_
integrated_ client</w>
integ er
instanti ated</w>
initi ated</w>
inherit ance</w>
ing_ tm</w>
info _
inf ers</w>
ine se</w>
index ers</w>
index /
increment al</w>
incre ments</w>
in vertible</w>
in validates</w>
in place
in ear</w>
in active</w>
impor ting</w>
impor ter
imp uted</w>
illustr ating</w>
ill umina</w>
igno res</w>
ident it
id "</w>
i' ll</w>
i res</w>
i reporter}</w>
i python's</w>
i es
i cre
hyper ny
htt plib</w>
hsp fragment</w>
hs d</w>
high ligh
heterozygo te</w>
heat map</w>
heal th</w>
he avi
hdf 5</w>
hard y-weinberg</w>
handle invalid="error")</w>
handle invalid</w>
h params</w>
h l</w>
h en
h all</w>
h all-
hall- kier</w>
gre en</w>
gre ed
grad weights</w>
gra yscale</w>
go t
glyp hs</w>
get /
gest ure
gen o
gen _
ge mm</w>
gdal raster</w>
gc f</w>
gate way</w>
g of</w>
g ens
g ce</w>
future __</w>
functio nelement</w>
full screen</w>
ful l_
forwar d_
fore casts</w>
fon ts</w>
foc used</w>
float 64</w>
float 64
float 32</w>
flo ps</w>
flo or</w>
fix up</w>
fix ed-
first }</w>
first -
file id</w>
fi rewall</w>
fi ci
fi c</w>
ff _
features ubset
fe eds</w>
fal se_
fa ke
f/ g</w>
f lin
f k</w>
f k
f bo</w>
f at
f [x]</w>
f **
extract ing</w>
exter n
expres ses</w>
expon ents</w>
expl ained</w>
exp (
execut ion
ex posed</w>
ex ec</w>
ex cel
ex c_
event ually</w>
eval resp</w>
eul er</w>
et ing</w>
est ate</w>
es }</w>
er o
equ ity</w>
equ ip
envi ron</w>
enumer ation</w>
enumer ate</w>
ent rez</w>
ent "</w>
endi an</w>
end_ date</w>
enable /
enable/ disable</w>
en queue</w>
en ci
emit ting</w>
em ac
ellip soid</w>
elastic net
el bo</w>
effici ent</w>
ec ed
eas ily</w>
e ver</w>
e mail
e f
drop ping</w>
draw polygon</w>
drag _
down sample</w>
doc strings</w>
dn n
divis or</w>
divid ed</w>
distrib ute</w>
dist urbance</w>
dist ing
disper sion</w>
discour se</w>
dis sect</w>
dis pose</w>
dis ordered</w>
dis jun
dis connect
dirdb m</w>
dirac delta</w>
dir s</w>
dim shuff
differenti ate</w>
diction ar
diagno stic</w>
di p</w>
devic es</w>
devic e
depre cate</w>
dependency graph</w>
dep end</w>
density/ critical</w>
dem and</w>
deferre ds</w>
defaul ting</w>
def er</w>
decryp tion</w>
debug -
de x</w>
dd of</w>
db ms</w>
datetime like</w>
datas ource</w>
datagr am
datab ases</w>
datab ase
data _</w>
data "</w>
da y's</w>
d_ n</w>
d- in</w>
d ur
d st
d pi</w>
d mp</w>
d ,</w>
c{test }</w>
c{ value}</w>
c{ second}</w>
c{ first}</w>
custo m_
cur vature</w>
cub ic</w>
ct x*</w>
ct cp</w>
cross- correlation</w>
cross over</w>
cro ntab</w>
cre ate_
cp us</w>
coun ted</w>
correct s</w>
cookie jar</w>
convol ving</w>
contrib ution</w>
conti g</w>
context manager</w>
constant s()</w>
consi sts</w>
connection }</w>
conj un
config ure
confi den
conc at</w>
con serv
con g</w>
con du
comput ational</w>
composit e
compo ses</w>
comple x-
comp are
command line</w>
com bo</w>
com be</w>
colo n</w>
col locationfinder</w>
coerc ion</w>
co variances</w>
co v</w>
co v
clu ste
classi fy
ciph ers</w>
chi- squared</w>
char t
change list</w>
change _
ch inese</w>
ch ance</w>
certificat e
certific ates</w>
centro ids</w>
centro id</w>
centr e</w>
ce il
catalo gs</w>
case- insensitive</w>
case }</w>
canvas widget</w>
call }</w>
call y-
call _
c z^2</w>
c ru
c nf</w>
c n
c asc
buil t-in</w>
bucket ized</w>
bri dge</w>
bran ch
br ush</w>
box -
bound field</w>
bottom- up</w>
bot tleneck</w>
boole ans</w>
boole an
book mark</w>
bloc ked</w>
bl ue</w>
bl as</w>
bil inear</w>
big ram</w>
bez ier</w>
be ams</w>
be ach</w>
batch_ size</w>
backtrack ing_tm</w>
ba ked</w>
ba ked
b ur
b st</w>
b s</w>
b last
b ands</w>
b -
b *
b '
aver ages</w>
av e
automat ic</w>
automat ed</w>
author ized</w>
atro us</w>
ator }</w>
ation _
asci i
as set/
arr ives</w>
ari ma</w>
arg spec</w>
arg _
arct angent</w>
arclin k</w>
arc minute</w>
app ly
app end
ant eced
ans i</w>
ans combe</w>
anon ymous</w>
anc y</w>
analy ze</w>
an imate</w>
an alog
analog ous</w>
am i</w>
altern ating</w>
alread y-
allowe d_
alignment _
ali as
al titu
al p
ak ritas-strzebonsk
ak a</w>
ak a
aka i
ag ree</w>
ag re
af ter
advance d
adju sted</w>
adjac ent</w>
addres s
add itive</w>
adap t
ad min
act ed</w>
accur ac
accumulator 's</w>
abbrevi ation</w>
ab sent</w>
ab s
a stral</w>
a rent</w>
a ic</w>
__repr __</w>
__ future__</w>
__ dict
_ vals</w>
_ set_type()</w>
_ names</w>
_ make_
_ lines</w>
_ iteration
_ graph</w>
_ eval_
_ at
^{ -1
^{-1 }</w>
^ 2)</w>
\ xi</w>
\ operatorname{
\ eta</w>
\ _
[ inf</w>
[ ]</w>
[ :
[ '
@ returns</w>
> s</w>
> ,</w>
< twisted</w>
86 01</w>
7 -
7- 4
7-4 22</w>
5 0</w>
5 '</w>
4- tuples</w>
36 7-422</w>
3 9
3 6</w>
200 0</w>
2 ^
2 =
2 ,</w>
2 ()</w>
2 '</w>
1} ]</w>
199 1</w>
1 _
1 =
1 +
0 ],</w>
0 =
0 5</w>
/ test</w>
/ *</w>
- text</w>
- p</w>
- info</w>
- 9</w>
*obj *</w>
* this</w>
* t
* not*</w>
* ctx*</w>
) [
) *
(x *
(\ alpha</w>
([ element</w>
( that</w>
( same</w>
( name</w>
( like</w>
( in</w>
( e
( c{
( (
'x '</w>
' obj
' month
' model
' /
" x
" predictions"</w>
" app_label</w>
! )</w>
} -
} ()</w>
} (
|x |</w>
{ likelihood</w>
zo om
zero s_
zeros_ like</w>
z }</w>
z yp
zyp per</w>
z lib</w>
z _p</w>
yp lot</w>
yo u
you 're</w>
year ',</w>
y_ true</w>
y e</w>
x** b</w>
x yz</w>
x ili
xili ary</w>
x gettext</w>
x avi
xavi er</w>
x [y]</w>
x 4</w>
x 3</w>
wrapp ers</w>
wrapp ed
work around</w>
with -
win ner</w>
wi se_
wi k
wh at
well- formed</w>
week day</w>
we ak
watch er</w>
wa ke</w>
w ness</w>
w -
vo tes</w>
visual ization</w>
visit ed</w>
visit ()</w>
vision ing</w>
virt ual
view _
vi e</w>
version _
verifi cation</w>
variable def</w>
var char</w>
value ,</w>
validation error</w>
v^ h
v^h ,</w>
v sids</w>
v n
v mid</w>
v gg</w>
v ening</w>
v ec
v cs</w>
v as</w>
v ary</w>
utter ances</w>
ut ze</w>
ut s</w>
ut ing</w>
user_ obj</w>
user- supplied</w>
use *</w>
us um</w>
urlo pen</w>
ur y</w>
update_ weights</w>
up stream</w>
unit ary</w>
unit _
under sto
understo od</w>
unct ive</w>
un quoted</w>
un observed</w>
un normalized</w>
un necessary</w>
un ion
un equal</w>
un ds</w>
un determined</w>
un delete</w>
un conditional</w>
un caught</w>
um b
ug h
ud d_
udd_ utility</w>
u model</w>
u int8</w>
u g</w>
u err
uerr e</w>
u ent</w>
u ary</w>
u als</w>
u _{
tz- naive</w>
tz ct</w>
type ="
type (
two- phase</w>
tun ne
true_ positives</w>
trim s</w>
tren d</w>
tre es
transver sals</w>
transp aren
transit ions</w>
transf er-
transfer- encoding</w>
tran s</w>
train /test</w>
trading algorithm</w>
tr y_
tr ns</w>
tr ials</w>
tr ashed</w>
tr an</w>
tr af
traf fic</w>
tr ade</w>
tor us</w>
tor sions</w>
top _
top -
tool bar</w>
token ization</w>
to tic</w>
to /
tls memory
tlsmemory bio
timedel ta
tim ed</w>
til ity</w>
ti ck
threshold =0</w>
three- letter</w>
th read-
th ing
th etic</w>
th er-
th -
tf d</w>
tf _
tex tw
test region</w>
test er</w>
test ed</w>
ter m
templat e
temp er
temper ature</w>
ted_ value)</w>
techni qu
tear down
te redo</w>
te ?)</w>
task context</w>
tan eous</w>
table -
ta umodel</w>
t_ length</w>
t_ k
t_ jacobian</w>
t_ 1</w>
t text</w>
t test</w>
t on-
t ms
tms i</w>
t be
t ation</w>
t aper</w>
synchron ize</w>
syn thetic</w>
syn sets</w>
syn cs</w>
syn chrono
symp ify
symbo l
sy s_</w>
sy s
sy m</w>
sy l
sv m
sur rounding</w>
sur ro
suppor t
suppli er</w>
super set</w>
super imposed</w>
sup pressed</w>
sup pres
sup er-
summar izing</w>
sum er</w>
sum _
suffici ently</w>
substit uting</w>
sub- field</w>
sub net</w>
sub net
subnet s</w>
sub corpus</w>
sub clusters</w>
sub clas
su it</w>
su be
style_ dict</w>
sty les</w>
stringtype (),</w>
string _
string /
strid es</w>
strid ed</w>
stor agelevel</w>
step size</w>
step size
stepsize =0</w>
std err
stat ically</w>
stat a
stanfor d
standardiz ation</w>
stabiliz er</w>
st enci
stenci l</w>
st ar</w>
st ages</w>
st -
sser tation</w>
sr c
split ter</w>
spect rogram</w>
spe eds</w>
spe ech</w>
spe a
sparse_ column_with_
sparse max-
sparsemax- loss</w>
sparse column</w>
sparse block
spar sity</w>
span (
sor t
sol ve
soft max_
sock _
so on</w>
so lic
so f
smo other</w>
sm tp
slo pe</w>
sli ding</w>
sl client</w>
sl ashes</w>
ske wness</w>
sk o
size =1</w>
site- local</w>
single- line</w>
sing let
singlet on</w>
sing le
simpli fications</w>
simple st</w>
sim als</w>
significan t</w>
sig ma</w>
sig ch
si o</w>
si g</w>
si de
shrun k</w>
short- hand</w>
shif ts</w>
shif ting</w>
shad er
sha 1</w>
sh el
sh e
sett ing
session ,</w>
serverend point</w>
server -
server 's</w>
seri es
sequ entially</w>
sequ ential</w>
seq feature</w>
sent in
sentin el</w>
sens es</w>
sen sible</w>
seis mo
seis an</w>
seed link
seedlink connection</w>
see ks</w>
secon dar
seas onal</w>
search _
se x
se tr
se linux</w>
se cu
se cted</w>
scroll -
scri minant</w>
sco red</w>
sco pes</w>
sci k
scik it-
scikit- learn</w>
schemeno de
schemenode )</w>
scheme link
schemelink )</w>
schem es</w>
sch utze</w>
sch re
scalar _
scal ing
scal aren
scalaren coder</w>
scaffol d</w>
sav e()</w>
satis fying</w>
sal t
safe _
sa- p
sa-p ss-
s_ to_
s_ inputhook</w>
s_ i</w>
s/ attributes</w>
s wi
s r</w>
s q</w>
s protocol}</w>
s na
s n</w>
s [,</w>
s 3
run }</w>
run ning
rs as
rs \_
row s/
rout er</w>
root of</w>
roo ted</w>
rol led</w>
rig h
ri eman
rieman n</w>
rever ses</w>
retur n
retr ives</w>
ret aining</w>
resul t_
restriction batch</w>
respon ding</w>
resource variable</w>
resolution receiver</w>
resol ver
resnet -
res sive</w>
res _
represent ative</w>
report lab</w>
repor ting</w>
reparameter ization</w>
rep s</w>
rep et
renamed ?</w>
remote '</w>
rele ases</w>
rel ate</w>
regress ors</w>
reg ori
regori an</w>
reg ex
reflect ions</w>
reflect ing</w>
reflect ed</w>
referen cing</w>
redu ce_
red und
recor ding</w>
reco ver</w>
reci pro
recipro cal</w>
real name</w>
real location</w>
reactort cp
reactortcp }</w>
reactor }</w>
reach ed</w>
re- enable</w>
re used</w>
re storing</w>
re st
re set
re located</w>
re cycle
re create</w>
re build</w>
re ap</w>
rdd [</w>
ration al
rat ios</w>
rank data</w>
range (
random state</w>
random ized</w>
random access
randomaccess dbresultset</w>
ran ked</w>
radi ation</w>
radi an</w>
rad io
ra y
r^ k</w>
r r</w>
r are</w>
r ap
r am
r ac
r 2</w>
quote _
quick menu</w>
qualifi er</w>
qu and
quand l</w>
qu ad</w>
q }
q widget</w>
q i
q ft</w>
q expr</w>
q action</w>
python 2</w>
pyg ame</w>
py o
pyo s_inputhook</w>
py lab</w>
py lab
py code</w>
py capnp</w>
py _
push es</w>
pur suit</w>
pur ge</w>
pul ls</w>
publi sh</w>
publi cl
publicl y</w>
pseudo- division</w>
protocol 's</w>
promp ts</w>
project state</w>
project ions</w>
progres s
profil er</w>
probabilist ic
pro visioning</w>
pro t
pro site</w>
pro ps</w>
pro position</w>
pro posed</w>
pro grams</w>
pro d
pri cing</w>
pret ti
presum ably</w>
prepopul ated_
prepopulated_ fields</w>
prep ends</w>
prep ended</w>
prep end</w>
prefix }</w>
prediction col</w>
predict_ proba</w>
predict ors</w>
precision -
precision- recall</w>
precess ion</w>
prece ding</w>
pre- processing</w>
pre mises</w>
pre fetch</w>
pre feren
pre amb
preamb le</w>
pre _
pr f</w>
power shell</w>
position ing</w>
position ing
positioning receiver</w>
posit ive-
port un
port fo
portfo li
portfoli o</w>
por tal</w>
pop (k[,d])</w>
poly hedron</w>
point 's</w>
po ller</w>
plug in
play back</w>
platform -specific</w>
pla us
pl te</w>
pix el
pict ure</w>
pi *
phy li
phyli p</w>
persi sts</w>
permiss ion
perio dic
perio d
period index</w>
per- class</w>
per son
per ators</w>
per ator</w>
pe p</w>
pe op
pe g</w>
pause producing}</w>
patter n
pass through</w>
parsere lement
parenthesi sed</w>
parent /
parent 's</w>
parameter ized</w>
par ted</w>
pand as
pagin ate</w>
pa id</w>
p- values</w>
p un
p tic</w>
p thook</w>
p stack</w>
p si
p p
p inv</w>
p ill</w>
p em</w>
p em
pem -format</w>
p c
p added</w>
ow ned</w>
ow base
owbase widget</w>
overl aps</w>
over loading</w>
out s</w>
out file</w>
our ce
other _
other ,</w>
oscill ator</w>
os c</w>
ortho graphic</w>
orph an
org /
or v</w>
or ot</w>
or '</w>
optimiz e
optimize doc
oper ands</w>
oper and</w>
opens sl
opens ource
op portun
op f</w>
one- dimensional</w>
one hot
on o
on line
on al
ol ve</w>
off setr
of _
od [y]</w>
od ==
od== y</w>
oct ets</w>
oct et</w>
oc ations</w>
obsole te?)</w>
obj s</w>
ob serve</w>
o w</w>
o v</w>
o gr
numpartit ions</w>
numer ically</w>
num diff
numdiff tools</w>
nul l
noti fier</w>
noti fied</w>
normal izing</w>
none ):</w>
non- public</w>
non- missing</w>
non negative</w>
non -</w>
node id}</w>
no perators</w>
nic ely</w>
next _
new_ r</w>
new er</w>
neutr ino</w>
neutr al</w>
network 's</w>
ne ib
nd data</w>
nat ural</w>
nano seconds</w>
n- dim</w>
n- 1</w>
n val</w>
n v</w>
n utation</w>
n r</w>
n m</w>
n ist</w>
n g</w>
n dim
n b
n ))</w>
multiplic ative</w>
multi part</w>
multi label</w>
multi dimensional</w>
msg_ new
mp v3</w>
mp math
mon key</w>
mol key</w>
modifi ers</w>
model admin</w>
mode lin
mo vie</w>
mo ff
moff at</w>
ml reader</w>
mis c</w>
minim ized</w>
mini- seed</w>
min ib
minib at
minibat ch</w>
min al</w>
min /
milli seconds</w>
migr ation
midn ight</w>
micro -
micro- averaged</w>
mi me
metric name</w>
method *</w>
met ain
metain fo</w>
message- id</w>
message paths</w>
meaning 's</w>
mean _
me t</w>
me ll
mell in</w>
me et</w>
me 's</w>
may be
maxim ize</w>
max imal</w>
mathemat ical</w>
marsh al
marshal led</w>
mark up</w>
mar king</w>
mar ge
mapp ing
map _
manytomany field</w>
mang led</w>
man ual</w>
man ning</w>
maj or
machin ery</w>
ma ker</w>
ma f</w>
m- th</w>
m ip
m flops</w>
m b</w>
m ation</w>
m acro
macro s</w>
l{it ransp
l{istreamclient endpoint</w>
l{istream serverendpoint</w>
l{i resource}</w>
l{i resolutionreceiver</w>
l{i reactortcp}</w>
l{i positioningreceiver</w>
l{_parse server}</w>
l{ true}</w>
l{ tlsmemorybio
l{ record_
l{ mail
l{ knownhosts
l{ add
ly- qualified</w>
lu n</w>
ls b_
lsb_ release</w>
lookup _type</w>
lookup _
look back</w>
lon ging</w>
log_ de
log_de t_jacobian</w>
log- log</w>
log g
log file</w>
local -
local- part</w>
lo se</w>
listen }</w>
linear ity</w>
line visual</w>
line -
limit_ choic
limit_choic es_
limit_choices_ to</w>
limit ations</w>
likeliho od
libr aries</w>
li fy</w>
li fet
li ed</w>
len (self</w>
len (
legen dr
legendr e</w>
learning "</w>
le u</w>
le ad
lay er's</w>
lat er}</w>
lapl ac
laplac ian</w>
lag- polynomial</w>
lag uerre</w>
la ze</w>
la id</w>
l mq</w>
l at</w>
l asso
l ar</w>
l -
kick ed</w>
key code</w>
kee pal
kee p_
ke _
k ra
k on
k im</w>
k il
k b</w>
k 2</w>
k 's</w>
json- serializable</w>
job id</w>
jan uary</w>
jaco bi</w>
j_ 3</w>
j_ 2</w>
j_ 1</w>
j peg</w>
j ordan</w>
j ones</w>
j d</w>
j ac
jac card</w>
j -
iter ators</w>
ist ics</w>
ist ically</w>
ir f</w>
ir ation</w>
inv ocations</w>
introdu ced</w>
interrup t</w>
interpret ation</w>
internal "</w>
inter vening</w>
inter leave</w>
inter actions</w>
inter -
int able
intable hdu</w>
instanti ating</w>
instan taneous</w>
inst aller</w>
input s[i]</w>
input format</w>
input /
inner_ flatten</w>
inn er
initial _
inherit ed</w>
ing- point</w>
ing e</w>
infinit e
infinite simals</w>
indu ced</w>
individ uals</w>
indicat ors</w>
indi cies</w>
indi ce
indexed base</w>
index ables</w>
increment ing</w>
in st</w>
in lined</w>
in j
in i
in 's</w>
in '</w>
import ances</w>
impor ter</w>
imp lied</w>
imp l
images/anim_ out_
igr am
igram collocationfinder</w>
ig mpv3</w>
ifi d</w>
if -
idempot ent</w>
id ing</w>
id al</w>
id /
id ()</w>
icre gres
ico perator</w>
i' th</w>
i x</w>
i se
i cally-
i an
i )</w>
hyperny ms</w>
hyper search
hyper parameter</w>
http /
htmprediction model's</w>
host name
hor ner</w>
ho ur
ho c</w>
hmmer 2</w>
high light</w>
high -
hid es</w>
heteros ce
heterosce d
heterosced ast
heavi side</w>
header /
header/ data</w>
head er}</w>
head er_
he dr
he ar
hear tbe
hdu list
hdf store</w>
haz ard</w>
has n't</w>
has ht
has attr</w>
handl er
h yp
h ull</w>
h ue</w>
h at</w>
h ard</w>
h am
h ack
group element</w>
gre p</w>
gre eting</w>
graph def</w>
graph ,</w>
graph 's</w>
grad es</w>
glob al
gl orot</w>
geo graphical</w>
geo de
geode tic</w>
geo centric</w>
gener ate_
ge tho
gar b
garb age</w>
g tk</w>
g regorian</w>
g one</w>
g mt</w>
g ml</w>
g id</w>
g ,</w>
fut ures</w>
function /
function/ method</w>
funct ools</w>
ful ly-qualified</w>
ful filled</w>
froz en</w>
froz en
front end</w>
from key
frequ enc
frequenc y-
freq dists</w>
free groupelement</w>
free group</w>
fre es</w>
frame buffer</w>
frame 's</w>
format ted_value)</w>
form sets</w>
form 's</w>
for tran</w>
for _
for -
fol low</w>
fol ds</w>
fol d</w>
flush ing</w>
float ing-point</w>
float _
flin n
fli ps</w>
flatt ens</w>
flatt en
fix ture</w>
fit s
fini sh
finger prints</w>
fin d
fill na
filename ,</w>
file/ directory</w>
file path's</w>
file handle</w>
fig ures</w>
field metainfo</w>
ff t_length</w>
ff ff</w>
fet ching</w>
fermion icoperator</w>
fer tility</w>
feed er</w>
feature location</w>
fe at</w>
fd r</w>
faul t
fat eman
fateman 's</w>
fam il
fa ker</w>
f_ 4</w>
f- net</w>
f- measure</w>
f we</w>
f st
f resh</w>
f n_
f la
f el
fel d</w>
f ar
f a</w>
f =1</w>
f )</w>
exten de
ext {likelihood</w>
ext ends</w>
expor t_
explic it
explan ation</w>
expl ains</w>
expect ing</w>
exp iry</w>
exp ires</w>
exp iration</w>
exit _
exemp lar</w>
execut ion_
exce pthook</w>
ex pose</w>
ex am
every where</w>
evalu able</w>
eval f</w>
ev t</w>
et ag</w>
estimator param
estimator _</w>
estimat e
establi sh
es m
es "</w>
err score</w>
equival ents</w>
equip ment</w>
equ iv</w>
enzy me's</w>
entropy _
entropy_ with_
entr y
ent ion
ent ail
ens uring</w>
eng th</w>
eng in
end point}</w>
encode ()</w>
en et</w>
en am
enam e}</w>
embed ding
emac s</w>
em i
em ent
elect ro
elastic ache</w>
el ength</w>
el 's</w>
eigen state</w>
edge *</w>
ed )</w>
e ye</w>
e specially</w>
e sian</w>
e scalation</w>
e of</w>
e ast
e ]</w>
duplic ated</w>
down loading</w>
down grade</w>
dot s)</w>
don or</w>
domain -
doct est</w>
do t-
dn n-
distan ce
dispat ching</w>
disp lac
discret ized</w>
dis cover
dis able
directory ?</w>
direct ive</w>
differenti ation</w>
dict _
diag onal
di ssertation</w>
di ss
di scriminant</w>
di gamma</w>
di dn't</w>
di alo
dialo g</w>
di a</w>
device spec</w>
dev /
detect or</w>
detach ed</w>
det ren
destro ys</w>
design ated</w>
descript ions</w>
descend ents</w>
desc ended</w>
deriv ation</w>
depth s</w>
depre cat
den se_
den ied</w>
den ame</w>
deliv er
default dict</w>
decryp ted</w>
deco ded</w>
deco de_
declar ative</w>
declar ations</w>
de signed</w>
de serialized</w>
de register</w>
de quantize</w>
de lim
de fici
de du
de composed</w>
de ci
de bi
de activate</w>
date offset</w>
datagram protocol}</w>
data set
data received}</w>
dail y</w>
da yplot</w>
d x
d s
d mf</w>
d h_
d ge
d fs</w>
d base</w>
d ask</w>
c{obj }</w>
c{class },</w>
c{ write}</w>
c{ root}</w>
c{ rdd[</w>
c{ protocol}</w>
c{ nodeid}</w>
c{ message}</w>
c{ log
c{ id}</w>
c{ get
c{ deferred}</w>
c{ contain
cycli c</w>
cut off</w>
cul ar
ct ive</w>
cs rf</w>
cross _
cre d</w>
cre at
cr ash
cp p</w>
counter -
coun t_
coo sys_</w>
coo _matrix</w>
contrib utions</w>
contr action</w>
context }</w>
context )</w>
content- length</w>
content type</w>
consum es</w>
conserv ative</w>
connection lo
connection _
connect }</w>
connect able</w>
confir mation</w>
configure ()</w>
config ures</w>
config spec</w>
config _
condu ct</w>
concentr ation
concentration =none</w>
con tract</w>
con s
con ll</w>
con form</w>
comput e()</w>
comput ations</w>
compon ent
complex- valued</w>
compile -time</w>
compat _
comp an
comp act</w>
comm ission</w>
comm ent
combin ator
column- wise</w>
column _name</w>
color ing</w>
colli sions</w>
collap sed</w>
col span(
col _
coer ced</w>
coer ce_
code ml</w>
code *</w>
co x</w>
co v_
co sets</w>
cluster ings</w>
clo se_
clo ned</w>
clip per</w>
clip ped</w>
clear ()</w>
clean -up</w>
classify ()</w>
classifi er
class- level</w>
circum circle</w>
ci o</w>
chunk string</w>
chro me</w>
chi- square</w>
chem draw</w>
checkpoint ing</w>
channel }</w>
chain map</w>
ch root</w>
ch op</w>
ch at
ch ains</w>
cgi ='
cgi=' http</w>
cf ws</w>
cf run
cens ored</w>
ceil ing</w>
ce le
cat ing</w>
car ry</w>
cap tion</w>
cap able</w>
canvas /
canvas/ window</w>
call later}</w>
calib ration</w>
c_ k
c- log-log</w>
c v</w>
c usum</w>
c sm
c sc
c rootof</w>
c data</w>
c dao</w>
c ave
c are
byte sio</w>
buil d()</w>
buil d
bu gs</w>
broadcast ing</w>
bri ll</w>
box- cox</w>
box }</w>
boun ded</w>
boun ce</w>
boo ts</w>
board 's</w>
bo m</w>
bo dy
bo de</w>
binary =false</w>
bin ned</w>
bi sect
bi directional</w>
bi as
ber tzct</w>
be red</w>
be longing</w>
be fore
be a
bea con</w>
bay esian</w>
batch_ join</w>
base_ estimator_</w>
base scheme
base 64-
ban ner</w>
baked query</w>
b read
b or
b laze</w>
b intablehdu</w>
b ing</w>
b ifid</w>
b b
b ars</w>
b are</w>
b ]
avo ids</w>
avo iding</w>
auto scaler</w>
auto commit</w>
auto ",</w>
author ities</w>
aug ment</w>
au xiliary</w>
attrib dict</w>
attr __</w>
attach ment</w>
att ention
atom id</w>
ation ,</w>
ate /
at ory</w>
at h</w>
at ext</w>
asynchrono usly</w>
asynchrono us</w>
asym metric</w>
asy mp
associ ating</w>
associ ates</w>
assign ments</w>
asset 's</w>
asser t_
as_iterable =true</w>
as signing</w>
as set_
as semb
arti cles</w>
arr ival</w>
arg s}</w>
ard d</w>
arch ive
arch iv
arc- eager</w>
ar ch</w>
approximat es</w>
app ed</w>
ap i
any where</w>
anteced ent</w>
anom aly
annihil ate</w>
ang er</w>
ancest ors</w>
analyz es</w>
analy se</w>
an ced</w>
amp box</w>
altitu de</w>
altern atives</w>
altern ate</w>
all- reduce</w>
all __</w>
alignment_ info
al }</w>
akai ke</w>
aggreg ates</w>
agg ressive</w>
ag e_
aff ects</w>
adjust ment</w>
adjust ed
addr -
addr- spec</w>
addr '</w>
adap t</w>
ad ed</w>
ad -
ad- hoc</w>
activ ation</w>
activ ates</w>
act u
accumul ate</w>
access ion</w>
access es</w>
accept ing</w>
ac knowledge</w>
ac count
absor ption</w>
absol ut
abs ence</w>
able _
able '</w>
a part</w>
a ^2</w>
a 2</w>
a '</w>
__new __</w>
__init__ }</w>
__ iter
__ call
__ all__</w>
__ )</w>
_ sparsecolumn</w>
_ mul</w>
_ match
_ file</w>
^ e</w>
^ 2
] })</w>
] |
\l dots)</w>
\ n
\ inf
\ alpha
[i] =
[i]= y</w>
[[ structtype
[ prn
[ inter
[ idx
[ f</w>
[ cnot</w>
@ internal</w>
> '</w>
=1 )</w>
= true
= 0],</w>
< path
< interfaces</w>
< /
96 5</w>
8 0</w>
7 5</w>
6 39
639 -
639- 3</w>
6 0</w>
5 8</w>
5 5</w>
5 12</w>
5 0
4 6</w>
4 4
4 )</w>
30 2</w>
3 x3</w>
3 ]</w>
3 2-
32- bit</w>
3 2
3 +</w>
3 )</w>
3 '</w>
23 1</w>
2 },</w>
2 x2</w>
2 965</w>
2 8</w>
2 1</w>
19 7
19 6
18 0</w>
1 }</w>
1 x1</w>
1 7
1 3
1 's</w>
0 x
0 ,</w>
0 **
/python cook
- y</w>
- related</w>
- n</w>
** kwargs</w>
* text
* p</w>
* edge*</w>
* dist
* code*</w>
(m y_
(e g</w>
() :</w>
( with</w>
( when</w>
( uhandle</w>
( to</w>
( the</w>
( obsolete?)</w>
( l
( ff
( attr</w>
( 3</w>
( 1/
'contain '</w>
' year',</w>
' th
' tag
' t'</w>
' second
' remote'</w>
' path
' new
' m'</w>
' l
' in'</w>
' dict
' d</w>
' ;
' :
' 0'</w>
' *
' ),</w>
%m %
% %
" }</w>
" updated</w>
" t
" internal"</w>
" deleted</w>
" b
" "</w>
! !
~ sqlalchemy</w>
}( j_1</w>
} {
{ h_
{h_ z}</w>
{ group</w>
{ %</w>
zip ped</w>
zip path</w>
z- file</w>
z z</w>
z sh</w>
z os</w>
z h
z a</w>
z ]</w>
z ]
z] /
ype ="
yiel ded</w>
y_ rate</w>
y_ i</w>
y- frequency</w>
y- euler</w>
y r</w>
y on
yon d</w>
y ed</w>
y ]
y] [x_0</w>
y ,</w>
y "</w>
xml- seed</w>
x_{k- 2},</w>
x_{k- 2}
x_{k-2} ]</w>
x_{k- 1}]</w>
x_{ 2}
x_{ 1}
x_ i</w>
x_ i
x_i **
x_ high
x_ 1</w>
x port</w>
x iv</w>
x for
xfor d</w>
x b</w>
x ^2)</w>
x +
x *
x '</w>
ww w-
www- authenticate</w>
wrapper session</w>
word _
wor k-
with '</w>
with "</w>
window spec</w>
win 32
wik i</w>
wign er
widget description</w>
wi d</w>
who m</w>
whe el
wh y</w>
wh i
well record</w>
wel ls</w>
weight s
weights "),</w>
we ver</w>
we red</w>
we l</w>
wave forms</w>
wat ches</w>
warn ing
warn (
warn( msg</w>
war g</w>
wan ted</w>
w p</w>
w ls</w>
w in</w>
w d
volum es</w>
vo wel</w>
vo ip_
voip_ play</w>
vio lation</w>
view values()</w>
view ed</w>
view /
vi z</w>
vi sion</w>
vi dia</w>
ver ify
vector _fields</w>
vector ]</w>
variable_ scope</w>
variable s_
variables_ initializer</w>
variable -
variable '</w>
vari es</w>
var s
var _
values _</w>
values '</w>
value =
value *</w>
value "</w>
valu e_
val 2</w>
va ul
vaul ted</w>
v s-
v on</w>
v l
v in</w>
v in
vin cent
vincent -
vincent- akritas-strzebonsk
vincent-akritas-strzebonsk i</w>
v g</w>
v en</w>
v el</w>
v el
v ect</w>
v ech</w>
v d
v ander
vander mon
vandermon de</w>
v ac
vac ancy</w>
v _{
v ])</w>
v 6</w>
v 4</w>
v '</w>
ut ta</w>
ut ke
utke po
utkepo hl</w>
ut er</w>
ut e'</w>
user- specified</w>
user name/
username/ password</w>
us sian</w>
us ly-
us /
us -
urllib 2</w>
update_ time</w>
updat e
updat able</w>
univ er
unistro k
unistrok et
unistroket emp
unistroketemp late</w>
uniqu e_
uniform ly-
uniformly- distributed</w>
uni pro
uni forms</w>
ung ari
ungari an</w>
uncer tain
uncertain ties</w>
un wraps</w>
un wrap</w>
un transformed</w>
un sorted</w>
un roll</w>
un ranking</w>
un quote
un pickle</w>
un implemented</w>
un freeze</w>
un evaluated</w>
un does</w>
un conditionally</w>
un batch</w>
un available</w>
un ar
ul ></w>
u var
u u
u ow
uow transaction</w>
u ents</w>
u ck
tz /
tz/ date
tz/date util
typ ical</w>
typ e}</w>
typ et
typ es
twe et</w>
twe edi
tweedi e</w>
tur ning</w>
tur ing</w>
tup le_
tup '</w>
tunne l
tukey hsd</w>
tt l</w>
try_ coerce_
try_coerce_ args</w>
trun cate</w>
true_ negatives</w>
trip let</w>
trig ono
trigono metric</w>
tri b</w>
trees =20</w>
tree bank</w>
tree 2</w>
tree 's</w>
tre ating</w>
tre as
treas ury</w>
trav el</w>
trapezo idal</w>
transver sal</w>
transparen tly</w>
transp arent</w>
transit ion
transform_ input</w>
transf erred</w>
trans verse</w>
trans poses</w>
tran scri
train er</w>
train able</w>
trad ing_
trading_ calendar</w>
trad ed</w>
trace backs</w>
tr ip</w>
tr igrams</w>
tr ick
trick y</w>
top ics</w>
tool tip</w>
tool kit</w>
ton 's</w>
token _
togg les</w>
toge ther
together "</w>
to/ from</w>
to wards</w>
to ward</w>
to pos
topos ort</w>
to ok</w>
to mic</w>
to col</w>
tl sp
tlsp la
tlspla intext</w>
tit les</w>
timeout }</w>
timedel tas</w>
timedel tain
timedeltain dex</w>
time- dependent</w>
time }</w>
time zon
time _
thun ks</w>
thread- safe</w>
thread pool</w>
thread ed</w>
ther- format</w>
the y
the ad
th umb
th ub</w>
th and
tf record
textw rap</w>
text }</w>
text ures</w>
test suite</w>
test case}</w>
ter nary</w>
ter m-
ter -
tensor type</w>
tensor info</w>
tensor head</w>
tensor datum</w>
temp file</w>
techniqu es</w>
teardown }</w>
te d/
ted/ accessed</w>
tax on
taxon om
taxonom y</w>
target column</w>
tag s/attributes</w>
tag -
table t</w>
table -level</w>
ta up
t_k )[
t rot
t ity</w>
t ings</w>
t in
t grep</w>
t g
tg rep
t en
t act
tact ically</w>
t 1</w>
t 0</w>
t ,</w>
system -
synony ms</w>
synchrono usly</w>
syn tactically</w>
syn cre
syncre p
syncrep lic
symp y_
sym s</w>
sym metr
sym links</w>
syl lab
syllab les</w>
sy spath</w>
sw apping</w>
svm light</w>
surro gate</w>
surf ace
surface ?</w>
sur round</w>
sur ds</w>
suppres ses</w>
super se
superse ded</w>
sup p
sum es</w>
sum -of-
sum-of- squares</w>
sum (a</w>
sug gest</w>
sug ge
success ors</w>
succe eded</w>
subsequ ently</w>
subscri ption
subsamplingr ate</w>
sube lem
subelem ents</w>
sub tree</w>
sub sumes</w>
sub structure</w>
sub script</w>
sub s
sub result
subresult ants</w>
sub range</w>
sub matrix</w>
sub groups</w>
sub graphs</w>
sub directory</w>
sub components</w>
sub command</w>
sub cluster</w>
sub circuit</w>
su res</w>
su i</w>
su file</w>
su do
sty led</w>
sty le
stur m</w>
stro ke
string/ int</w>
string '</w>
streaming context</w>
stream 's</w>
strateg ies</w>
str _vals</w>
stop producing}</w>
stop _
stochast i
stochasti ct
stochastict ens
sto re_
ste ps
ste p_
ste in's</w>
ste ad
stdout/ stderr</w>
status_ code</w>
state ful</w>
stata 's</w>
stat ing</w>
stat ic_
star tup'</w>
star red</w>
stanford parser</w>
stan za</w>
stac ked</w>
stabiliz ers</w>
st ub
st ron
stron g
st on</w>
st er_
ster_ secret</w>
st ay</w>
st ated</w>
st amp
stamp s</w>
st a/
sta/ l
sta/l ta</w>
st _
st ',</w>
ssh channel}</w>
ssh -
ss l_
sr c_
squee z
sql it
split -
split- adjust
split-adjust ed-
split-adjusted- as
split-adjusted-as of-
split-adjusted-asof- date</w>
specific ity</w>
spec if
specif ed</w>
spe ar
sparse tensor
sparse segment
sparse dense
sparsedense c
sparsedensec wise
spac e
sp y/
sp iral</w>
sp in</w>
sp h
sp el
son -
solic it
sol ving</w>
sol vers</w>
sol ar</w>
soft plus</w>
soft max
socket io</w>
sock ets</w>
so abi</w>
smar t
sm ir
sm all
slot name</w>
slo p
slop py</w>
sli der</w>
sli de</w>
sl ug</w>
sko lem
siz e)</w>
sin h</w>
signal manager</w>
signal )</w>
sigma 2</w>
sigch ld
sig m</w>
sib lec
siblec lu
sibleclu ster
si ms</w>
si mp</w>
si mon
simon y</w>
si de_
side_ effects</w>
si c</w>
shut s</w>
shuff ling</w>
shrin k
shoul dn't</w>
shoul d_
short ens</w>
short en</w>
shor ter</w>
she et</w>
shape= [2]</w>
shad er</w>
sh ub</w>
sh d
shd u</w>
set/ update</w>
set <
set *</w>
session transaction</w>
session log</w>
server- side</w>
serv o</w>
serial ised</w>
seq s</w>
seq map</w>
seq 2</w>
separ ators</w>
separ ating</w>
sent im
semi- definite</w>
select_ related</w>
select ors</w>
select ion_
select "</w>
seismo gram</w>
seis mic
seismic phase</w>
segment 's</w>
security association</w>
section -
secondar yjoin</w>
search ed</w>
se ven</w>
se tester</w>
se sui</w>
se i
sei shub</w>
se em
seem s</w>
se d-in</w>
se cts</w>
sd r</w>
sd ca</w>
scri bed</w>
scope 's</w>
sco ped</w>
schre i
schrei er-
schreier- sims</w>
schizom ers</w>
schem as</w>
scen e
scatter plot</w>
scan ned</w>
scal e/
scale/ b
scale/b zero</w>
scaffol ds</w>
sc rat
scrat ch</w>
satur day</w>
satur ation,</w>
satis fied</w>
sat ell
satell ite</w>
sanit ize</w>
sampl er</w>
salt remo
saltremo ver
sa y's</w>
s_ with_
s/ 1
s- expression</w>
s( s[,</w>
s pot</w>
s no
s ni
sni ff
s itu
s if</w>
s ftp</w>
s feat</w>
s ents</w>
s end_
s dialog</w>
s df</w>
s aver
s anger</w>
s ame
s ac
sac p
sacp z</w>
s ?</w>
s =true</w>
s (),</w>
s ')</w>
runn able</w>
run- start</w>
run ge
runge -
runge- k
runge-k utta</w>
rule *</w>
rr header}</w>
rows/ cols</w>
rout ing</w>
rout ing
routing function</w>
rout e_
rollback _
role set</w>
rol ite</w>
ro wid</w>
ro s</w>
ro bo
robo ts</w>
right most</w>
righ ts</w>
ri b
rh n</w>
rgb 8</w>
rg ba
rgba 8</w>
rew 's</w>
reverse d
reversed __()</w>
rever ts</w>
rever t</w>
return_ annotation
return_annotation '</w>
retri es
ret r</w>
ret ains</w>
resume producing}</w>
resum ing</w>
result }</w>
resul s</w>
respect ing</w>
resource identifier</w>
resource 's</w>
resol ves</w>
resol vers</w>
resnet_v 1()</w>
reservo ir</w>
reservo ir
res che
resche dule</w>
require d_
request- host</w>
request ing</w>
request ></w>
request '</w>
requ is
represent able</w>
repr ()</w>
replic as</w>
replac e_
repet ition</w>
repe ats</w>
repe ating</w>
rep p</w>
renam ing</w>
remo tely</w>
remain ing
remaining data}</w>
reli ably</w>
rele aser</w>
relax ed
relation als</w>
relation 's</w>
rel ated
reg ard</w>
refresh ed</w>
referenced_ table_name</w>
referenced_ column_
referenced_column_ name)</w>
ref ra
ref '</w>
redund ant</w>
rect angles</w>
recor d's</w>
recipi ents</w>
receiv es</w>
read_ csv</w>
read- write</w>
read iness</w>
read /
read/ write</w>
react ions</w>
re- initialize</w>
re writing</w>
re vision</w>
re view</w>
re ve
re stores</w>
re stored</w>
re pos</w>
re p</w>
re orders</w>
re ordering</w>
re me</w>
re loads</w>
re loaded</w>
re ject
re impl
re fin
refin ement</w>
re drawn</w>
re constructs</w>
re connect</w>
re c</w>
re b
reb ird</w>
re arrange</w>
re ap
re 's</w>
rdd [
rdd[ vector]</w>
ray le
rayle ig
rayleig h</w>
rang ian</w>
rang ed</w>
random symbol</w>
ran 's</w>
ram say's</w>
radio _fields</w>
ra w_
ra f</w>
r v</w>
r ussian</w>
r py
rpy c</w>
r d</w>
r ating</w>
r ates</w>
r ace</w>
r ]</w>
r 1</w>
r '</w>
q} (\alpha</w>
queu e
query _
que t</w>
quatern ions</w>
quarti les</w>
quar t</w>
quantiz ation</w>
quan tit
quad ran
qua ke</w>
qu it
qu in
qstandard item</w>
qrect f</w>
qpoint f</w>
qpainter path)</w>
qi con
qicon )</w>
qgraphic s
q tool
q r</w>
q q</w>
q line
q dat</w>
q color</w>
q _
python app</w>
python 3</w>
py tz/dateutil
py tables</w>
py side</w>
py rolite</w>
py qt
py opengl</w>
py n
py mol</w>
py )</w>
put mask</w>
pure -
pun k
public key
public _
publi sher</w>
publi sh
pub key</w>
pt r</w>
pseudo- remainder</w>
pseudo inverse</w>
pseudo _
ps g</w>
ps a</w>
prover command</w>
protocol switch
prote ction</w>
prote cted</w>
proport ional</w>
proper ti
proper t
propag ates</w>
program ming</w>
produ cer
producer }</w>
prod (
proce s
prob s</w>
prob it</w>
prob able</w>
prob _
pro p
pro of
pro le
prole ptic</w>
pro d</w>
pro c</w>
priv at
privat ec
privatec erti
print ()</w>
princip le</w>
previo usly-
pretty- printer</w>
preser ved</w>
pres se
pres pl
pres entation</w>
prefetch _
preferen ce</w>
prediction col=none</w>
predict ing</w>
predi cates</w>
predecess or</w>
pre_ dissect</w>
pre defined</w>
pr n</w>
pr e</w>
pot ent</w>
post_ validate</w>
post script</w>
post gres
postgres ql</w>
post fix</w>
possib ility</w>
positive- definite</w>
position )</w>
pos -
port strategy</w>
pop en</w>
polyg on
poly s</w>
poly (
polic y
polar (
polar( 2*
point s_
point ed</w>
point _
po sts</w>
po ps</w>
po lling</w>
po ll
plug -
plot 's</w>
play ers</w>
plaus ible</w>
platform -dependent</w>
plan ar</w>
plain -text</w>
plac ement</w>
pl us
pl ate</w>
pkg_ resources</w>
pk cs
pict ures</w>
pi /
physi cal
phylogen etic</w>
phase -based</w>
ph red</w>
ph ra
ph on
phon etic</w>
persist ed</w>
permut ed</w>
perman ently</w>
perm ute</w>
periodic activ
periodicactiv ity
perio di
periodi cally</w>
per tur
per son's</w>
peop le</w>
pen n</w>
pear son</w>
pe er}</w>
pe e
pay load
path_ item</w>
path name</w>
pat ching</w>
pat ch
password }</w>
pass words</w>
pas sed-in</w>
partition er</w>
parti cles</w>
parti cip
parserelement }}</w>
pars able</w>
parenthe ses</w>
params ,</w>
param ters</w>
param _</w>
param _
paragrap h</w>
par simony</w>
par quet</w>
pagin ated</w>
page info</w>
pack age
pa sted</w>
p wd</w>
p value</w>
p pf</w>
p list</w>
p ing}</w>
p il
p g
p de</w>
p ca</w>
p b
p an</w>
p ain
pain t</w>
p add
p [i]</w>
p 10
p10 8-
p108- 10
p108-10 9</w>
p 0</w>
p ",</w>
own ership</w>
own er's</w>
own er
ow ning</w>
overrid able</w>
overhang s</w>
over loads</w>
over determined</w>
over -
output format</w>
out-of- order</w>
out site</w>
out lined</w>
out er-
our sql</w>
other frame</w>
os x</w>
orphan ed</w>
orph ans</w>
origin ates</w>
ori ents</w>
ori ent
org/ ab
org/ab s/1
ordin ar
ordinar y-frequency</w>
order ing
ord er-
order- sensitive</w>
or th
or m
or "</w>
option }</w>
optim izations</w>
opt parse</w>
opportun ity</w>
operator }</w>
operator pd
open al</w>
open ()</w>
opa que
op tical</w>
op list</w>
op e</w>
op defs</w>
onevs rest</w>
one- vs-
one- sided</w>
one- offset</w>
on- time</w>
on run
on /
on/ off</w>
on '</w>
om it</w>
ol mo
olmo g
olmog or
ol dest</w>
ol d'</w>
oh mach
ohmach i</w>
offsetr ang
offsetrang es</w>
off set
off line
off er</w>
occur ring</w>
occup ied</w>
object ></w>
object /
ob s</w>
o xford</w>
o self}</w>
o _
o ',</w>
nump y-
numb uck
num user
num trees=20</w>
num item
num hasht
num bered</w>
num "</w>
nul ls</w>
nul lable</w>
ns message}</w>
notimplement ederror</w>
noti ce</w>
not -
normali sed</w>
normali se</w>
normal _
non- volatile</w>
non- unique</w>
non- terminal</w>
non- recursively</w>
non- numeric</w>
non- nan</w>
non- na</w>
non- interactive</w>
non- existing</w>
non- equality</w>
non- comment</w>
non- central</w>
non terminals</w>
non lin
nonlin loc</w>
non inclusive</w>
non e}</w>
node }</w>
node list</w>
no un</w>
no minal</w>
no _
nme apro
nmeapro tocol</w>
nl loc
nit ers</w>
new ton's</w>
network x</w>
neighborho od</w>
neigh bo
neib s
negoti ate</w>
neg ates</w>
nec kl
ne west</w>
ne stimator</w>
ne o
ne i
nei ther</w>
ne ed
nd array-like</w>
nc bi</w>
name_ _</w>
name/ domain</w>
name >
name> 01</w>
name ',</w>
nam ing</w>
nam ely</w>
n_ jobs</w>
n_ classes</w>
n vidia</w>
n summary
n k
n ick
nick name</w>
n es</w>
n dims</w>
n c</w>
n ats</w>
n ,</w>
n "</w>
mysql -
mun ging</w>
multipli ers</w>
multip les</w>
multi- level</w>
multi- index</w>
multi- column</w>
multi part
mul tit
msg_new keys</w>
msg_k ex_
msg_kex_ dh_
msg_kex_dh_ g
msg_kex_dh_g ex_
msg s</w>
mpmath 's</w>
monoton icity</w>
monoton ically</w>
monot one</w>
monkey- patch</w>
monit ors</w>
module -level</w>
module 's</w>
modi fier</w>
modi fications</w>
model_ dir</w>
model view</w>
mode li
mode "</w>
mod_ path</w>
mod (p
mo ses</w>
mo ls</w>
mo ire</w>
mo bi
ml writer</w>
miss ing
mip map</w>
minim izing</w>
min/ max</w>
min ute'</w>
min max
min doc
min divi
mindivi siblecluster
min al
min =0</w>
mim etype</w>
migr ate</w>
micro benchmark</w>
mi g</w>
mi ?</w>
metric spec</w>
method }</w>
met ers</w>
memory_ and_
memory_and_ dis
memory_and_dis k
mem o</w>
mem cached</w>
med line</w>
meaning ful</w>
me ets</w>
mc ne
mc d</w>
maybe _
max iter</w>
max heap</w>
matrix symbol</w>
mater ial</w>
mas ked
marg in
margin als</w>
maps[ 0]</w>
map_ widget</w>
map s=none</w>
manip ulate</w>
man 's</w>
make_ linear_
make file</w>
major ity</w>
maint ain</w>
mag ics</w>
mag ic
machin e-
machine- readable</w>
ma ster_secret</w>
ma g</w>
m_ gradweights</w>
m u
m se</w>
m r
m nist</w>
m map</w>
m le</w>
m io
m box</w>
m 1</w>
l{mail service}</w>
l{knownhosts file}</w>
l{itransp ort</w>
l{istreamclient endpoint}</w>
l{i message
l{h2 stream}</w>
l{h2 connection}</w>
l{deferred }s</w>
l{command }'s</w>
l{co operator}</w>
l{_ ed
l{_ed nsmessage}</w>
l{ thread
l{ response}</w>
l{ request}</w>
l{ reactor</w>
l{ pickle
l{ none}</w>
l{ node}</w>
l{ first
l{first error}</w>
l{ don
l{don e}</w>
l{ datagramprotocol}</w>
l{ client</w>
l{ channel</w>
l{ call
l{ amp
ly- separable</w>
lx d</w>
lower case
losst ype="
losst ype</w>
loop ing
looping call}</w>
look ed</w>
logari thms</w>
log- values</w>
log- space</w>
log( exp</w>
log( det</w>
log o</w>
local time</w>
local ized</w>
local ize</w>
local izable</w>
loc king</w>
load balancer</w>
load "</w>
lo ses</w>
lo se
ll able</w>
list_ display</w>
list s/
link sdialog</w>
link item</w>
linear regressor</w>
linear ly-separable</w>
linear ize</w>
linear combin
linear -only</w>
line aren
linearen tity</w>
line )</w>
lin ker
lin g
limit ing</w>
likeliho ods</w>
like -
light weight</w>
licens ed</w>
li ft</w>
li fe</w>
lf w</w>
lf sr</w>
lexico graph
lev 's</w>
len( remover</w>
len field</w>
lement ary</w>
least- squares</w>
lear ns</w>
le y</w>
le s
le ap</w>
le '</w>
layer ,</w>
lay er_
lat in</w>
lamb dif
lagrange 's</w>
lag rangian</w>
labeled tensor</w>
label_ keys</w>
label -based</w>
la un
l_ open</w>
l xml</w>
l vm</w>
l utkepohl</w>
l uid</w>
l r</w>
l man</w>
l ives</w>
l as</w>
l anc
lanc zos</w>
l a</w>
l 2-
kw ds</w>
kw args'</w>
known -
known- good</w>
kno ts</w>
kl (
kin etic</w>
key_ id</w>
key store</w>
key ing</w>
key =
key= value</w>
key "</w>
kerne l
keeplast checkpoint</w>
keepal iv
ke yp
ke l</w>
kapp a</w>
k- neighbors</w>
k xml</w>
k x_
k warg</w>
k pc</w>
k olmogor
k not</w>
k nn</w>
k means</w>
k m</w>
k i
k de</w>
k =
k 1</w>
k )</w>
join _type</w>
join (
join '</w>
jo st</w>
jo int
jinja 2/
jinja2/ _
jinja2/_ compat</w>
jelly able</w>
jav ardd</w>
jas par
j- th</w>
j }(j_1</w>
j edi
j db
jdb c</w>
j ar
j )</w>
i{ sock_
i{ ping}</w>
i{ oself}</w>
iz ed_
iz a-
iza- formatted</w>
iv it
ivit a</w>
itu des</w>
iter values</w>
iter keys()</w>
item size</w>
item 's</w>
it ions</w>
it ates</w>
issu ed</w>
isol ate</w>
iso surface</w>
iso curve</w>
is nan</w>
is f</w>
ireactor time</w>
ir rational</w>
ir ing</w>
ir i</w>
ipv 4
ip chat</w>
ion "</w>
io error</w>
io b</w>
invol ves</w>
invo ke_
introdu ce</w>
intermedi at
intermediat est
intermediatest or
inter sects</w>
inter p
intellig ently</w>
intellig ent</w>
integr ity</w>
inte rest</w>
int r</w>
int act</w>
instance state</w>
instance _
install ation</w>
instal led_
inser tion</w>
inser ted/accessed</w>
inser t_
input s)</w>
input pattern</w>
input data</w>
inn er-
inj ects</w>
initializ or</w>
init ion</w>
init _
ini ",</w>
ing ly</w>
informat ive</w>
info _</w>
info ()</w>
info '</w>
inferen ces</w>
inferen c
inferenc etype</w>
indexed rowmatrix</w>
index ]</w>
index ():</w>
incre ases</w>
inclu de_
inc subtensor</w>
inc subtensor
in variants</w>
in sures</w>
in scribed</w>
in line
in i</w>
in gest</w>
in file</w>
in dent
in consist
in c</w>
impurity=" variance
impurity=" g
impurity="g ini",</w>
impor table</w>
impor t_
implement or</w>
imp er
imag es
im spec</w>
im ap
il ton</w>
il leg
igno re_
ifi es</w>
if y_
identit y_
identifi cation</w>
ident ity
idempot ency</w>
id do</w>
id _,</w>
id 's</w>
ical features</w>
ic v</w>
i' m</w>
i thub</w>
i q</w>
i i</w>
i ee
iee e</w>
i 18
hypothe ses</w>
hypersearch job</w>
hyper plane</w>
hub er's</w>
http client
html _
html -
ht m
hsp s</w>
hour ',</w>
host names</w>
host mask</w>
host group</w>
host 's</w>
homo gene
ho wever</w>
ho using</w>
hmmer 3</w>
hm mer</w>
heteroscedast icity</w>
hen sel</w>
hel lman</w>
heat map_widget</w>
heartbe at</w>
heal th
header ()</w>
head '</w>
he res</w>
he li
he igh
he ap
heap pop</w>
hdulist ,</w>
hdu 's</w>
hav en
haven 't</w>
hash table</w>
has _
has "</w>
happ en</w>
han kel</w>
ham ilton</w>
half- matrix</w>
h w
h ungarian</w>
h mm</w>
h l
h ipchat</w>
h ie</w>
h err
herr man
h ence</w>
h emi
hemi sphere</w>
h at
h ap
h amp
hamp el's</w>
h -
guarante e</w>
gse 1</w>
gru block
grublock cell</w>
group s()</w>
group ed</w>
group ()</w>
gro ws</w>
gro und
gri p</w>
gri moire</w>
gri d
greed y</w>
gre y
gre en
gram ian</w>
gr un
gr ab
gpu _
go t</w>
gl u</w>
get subscri
get peer</w>
get new
geo json</w>
geno me</w>
gener ic
gener ated_
gener ate
gen e</w>
ge m
gaussi ans</w>
g_ pt</w>
g_ 2</w>
g- function</w>
g r</w>
g p</w>
g old</w>
g iza-formatted</w>
g ithub</w>
g f_
g en</w>
g ap
g 2</w>
g 1</w>
function ing</w>
function -like</w>
func '</w>
fstruct 1</w>
fst ab</w>
fromkey s(s[,</w>
from file</w>
fro b
frob eni
frobeni us</w>
frequency- dependent</w>
fre e_
fram e}</w>
fram e-
fraction -free</w>
fra c</w>
fr inge</w>
forwar d/
forwar d
forward "),</w>
formul ation</w>
formul as</w>
formul a
format ters</w>
format ed</w>
format ("
format(" verbose
force index
for- loop</w>
for }</w>
for k
for get</w>
for b
fon t
fn ])</w>
fn 2()</w>
fn 1()</w>
float }</w>
fl uent</w>
fl ag
fk 4</w>
fits diff</w>
fit ter</w>
fit shdu</w>
first- order</w>
fini shes</w>
fin d()</w>
fill_ value</w>
fill ',</w>
filen am
file writer</w>
field sets</w>
ficat ion
fi ve</w>
fi sher</w>
fi rebird</w>
fetch er</w>
fetch ed</w>
fermion ic</w>
fer mi?</w>
feed able</w>
featuresubset strategy="
feat struct</w>
fe a
fea ther-format</w>
fd sn</w>
fault planes</w>
fast basic</w>
far field</w>
famil y="
false }</w>
failure }</w>
failure _
failure_ callback</w>
fail u
factor y's</w>
factor ing</w>
factor ies</w>
fac ility</w>
fac il
fac *
fa ult</w>
f y_
f val</w>
f pr</w>
f p
f low
f es</w>
f ect</w>
f ct</w>
f ash
fash ion</w>
f 1</w>
f 1
f **</w>
f '</w>
extra_ context)</w>
extern al
external -
external- command</w>
exter ior</w>
extende d_
ext reme</w>
ext '</w>
expression ,</w>
expres s</w>
exponenti ates</w>
exponent ial
explo iting</w>
explan ations</w>
experim ent
expect ed_
expect ations</w>
exp( -
exp t</w>
exp _
exp_ polar(2*
exemp lify</w>
execution_ options</w>
execution context</w>
exclus ive</w>
excel writer</w>
exce l</w>
examp le
exam ine</w>
exact '</w>
ex prs</w>
ex portstrategy</w>
event multiplexer</w>
evalu ator</w>
evalu ator
evaluator =none</w>
ev ol
ev idence</w>
ev en
et ical</w>
estimatorparam maps=none</w>
estimator =none</w>
establish ment</w>
est er
est _
esm tp
es ()</w>
es !</w>
error list</w>
error ></w>
error ('
er_ spec</w>
equi dimensional</w>
equ ities</w>
epo ch
epoch s</w>
entropy_with_ logits</w>
entail s</w>
ent ity
ent ions</w>
ent i
ent ers</w>
ent ered</w>
ent e
eng ine
eng da
endo g
endi an
endian ness</w>
end_ position)</w>
encaps ulates</w>
encaps ulate</w>
en han
en er</w>
en closed</w>
empt y_
emit ters</w>
embed d
embedd ing_
embe ds</w>
em ission</w>
em ent_
elimin ate</w>
element wise
element ()</w>
electro ns</w>
elasticnet param=0</w>
eigen value</w>
eg gs</w>
eff ect
edit linksdialog</w>
edit able</w>
ed iting</w>
ed '</w>
ed "</w>
ec ho
earth quake</w>
earth 's</w>
e_ id</w>
e wkt</w>
e wkb</w>
e set</w>
e sc
e psg</w>
e intr</w>
e ff</w>
e arg
earg erly</w>
e ad</w>
e a</w>
e ^
dynam ic_
dy ^2</w>
dur bin</w>
dup _
dup_ decompose</w>
dt mf</w>
dt d</w>
drag_ drop</w>
down load
dot (
domain- literal</w>
domain }</w>
do min
dnn linearcombin
dm i</w>
djang o's</w>
divid ing</w>
divi sible</w>
disting ui
distan t</w>
dist utils</w>
dist -info</w>
display hook</w>
display _
display /
display/ edit</w>
displac ement</w>
dispatch ed</w>
disp _
discret ization</w>
discover y</w>
discour setester</w>
discour aged</w>
discar ds</w>
dis sected</w>
dis cre
discre pan
dis counted</w>
dis continu
dis ab
dirdb m
dir /
dir ())</w>
dimshuff le
dimension less</w>
digest _from_
digest_from_ file()</w>
differen tly</w>
diction nary</w>
dict able</w>
di ge
devi ator
deviator ic</w>
determin istically</w>
detect _
detail s_</w>
desi re</w>
descriptor }s</w>
descriptor s_</w>
descend ants</w>
descend ant</w>
desc ending</w>
dependency span</w>
dependency processor</w>
depend ents</w>
dep lo
dense vector</w>
dense matrix(2</w>
den i
den est
deliv ery</w>
delimit ers</w>
delim iter
delete _
deleg ating</w>
delay ed</w>
delay ed
default =
default '</w>
def ers</w>
decre ase</w>
decor ates</w>
deco ders</w>
decim als</w>
deci sions</w>
deca y_rate</w>
debug- dumped</w>
debug wrappersession</w>
debug tensordatum</w>
debi ased</w>
de struct
de sc</w>
de convolution</w>
de compress</w>
db results</w>
db al</w>
day ',</w>
datetime )</w>
date_ list</w>
date util</w>
datafr am
database /
data -dependent</w>
data -
data '</w>
daemon ization</w>
d type
d ts</w>
d tp</w>
d streams</w>
d start
d solve</w>
d sent</w>
d m</w>
d dt</w>
d c</w>
d ance</w>
d am
d ag
d )</w>
c{l{ parserelement}}</w>
c{ unicode}</w>
c{ teardown}</w>
c{ result}</w>
c{ query}</w>
c{ prefix}</w>
c{ ipushproducer</w>
c{ i
c{ float}</w>
c{ file
c{ false}</w>
c{ data}</w>
c{ c
c{ "
cycli cally</w>
cy clo
cyclo tomic</w>
cy cl
cycl ing</w>
cut tings</w>
custom izations</w>
current ly-
cur sesui</w>
cur l</w>
ction _
ct ing</w>
ct c</w>
csm _
csc /
csc/ csr</w>
cs rf_
cryp to
cru de</w>
cross_ entropy_with_logits</w>
cross es</w>
cross entropy
cro ps</w>
cre ated
cr lf</w>
cr c
cr /
cover s</w>
cov_ params</w>
counter- clockwise</w>
correct ed</w>
corpus reader</w>
cor r</w>
coordinate matrix</w>
coordin at
conver ti
conver ters</w>
conveni ent</w>
conv entions</w>
contro lling</w>
contro l_
context ual
context _
content _
cont ()</w>
constr ain</w>
constit uents</w>
constan t-
conso li
consi der
connectionlo st}</w>
connection wrapper</w>
connection cre
connection 's</w>
connect ()</w>
conform ing</w>
conform ers</w>
config ur
config parser</w>
config obj</w>
confiden ce
cond context</w>
conce pts</w>
conce pt</w>
con trib</w>
con st</w>
con sequ
con gru
con currently</w>
con current</w>
con curren
comput e_
compres sor</w>
compos ing</w>
compo und
compli ance</w>
complex ity</w>
compar ators</w>
compan ion</w>
comp lementary</w>
comp ass</w>
commut ator</w>
commit ted</w>
commit _
commit '</w>
comment ary</w>
command s()</w>
comm ented</w>
comm a</w>
combinator ial</w>
com sumer</w>
com b
com /
com/ help</w>
column_with_ hash_bucket</w>
column- based</w>
column default</w>
colum noperators</w>
color ized</w>
color =
color= colors</w>
colli des</w>
collection _name</w>
collect _
col=" item
col lin
col late</w>
col "</w>
codon seq</w>
co loc
co incidence</w>
co efs</w>
co eff</w>
co dename</w>
co ch
coch ran's</w>
co -
clu b</w>
clo ne
clip board's</w>
clin ker
client job
client _
client 's</w>
clic king</w>
clic kable</w>
clean ups</w>
clean ing</w>
classifi cat
classi cal</w>
clas s_
cir cular
cip he
chunk score</w>
chun ker</w>
child 's</w>
chil des</w>
chi ef</w>
chi 3
chem icalfeatures</w>
checkpoint dir</w>
check box</w>
chec ker}</w>
chart 's</w>
character istics</w>
channe l_open</w>
change set</w>
ch y-euler</w>
ch ri
ch rf</w>
ch iral</w>
cgi ?
cgi? datetime</w>
certificate options}</w>
cell 's</w>
cele st
cave ats</w>
categorical _
categorical_ column_with_hash_bucket</w>
categor y
case- normalized</w>
cap turing</w>
cap ac
canvas _
canvas 's</w>
cancel led
cancel lation</w>
call ers</w>
call back
calend ars</w>
cal e</w>
cal c_
cache -
cache- control</w>
cach er</w>
ca used</w>
c_k n}</w>
c_ {
c {</w>
c wd</w>
c se</w>
c r</w>
c ks</w>
c itation</w>
c b</w>
c au
cau chy-euler</w>
c ash</w>
c ame</w>
c ^2</w>
c 1</w>
c '</w>
c ",</w>
byp as
by key</w>
but ton
build_ index():</w>
buil der
bucket ing</w>
broadcast ed</w>
broad casts</w>
bread th
brack et
br ings</w>
boolean _
boo sting</w>
bo ston</w>
block size</w>
block rollback</w>
blo b
blan k
bl ur</w>
bl unt</w>
bl ending</w>
bl ack
bit mask</w>
bind_ to_
bin ds</w>
bin /
big query
big gest</w>
bi clustering</w>
bi cluster</w>
bi ases</w>
bet a-
bench marks</w>
begin _
be yond</w>
be st
batch wise</w>
batch -
base64- encoded</w>
base hdu</w>
base debugwrappersession</w>
base -2</w>
bary centric</w>
ban k
ban an
back war
back off</w>
back azimuth</w>
back -
ba g</w>
b_ n</w>
b z
b us
b sd</w>
b scale/bzero</w>
b pf</w>
b orders</w>
b nf</w>
b n</w>
b ic</w>
b ene
b b</w>
axis =
av i</w>
av g</w>
auto detect
auto covariances</w>
auto correlations</w>
auto call</w>
author izations</w>
aug ment
attribute error</w>
attribut ename}</w>
attemp ted</w>
attach _
ation s()</w>
ate "</w>
at las</w>
at e}</w>
asyn cio</w>
asymp totic</w>
asset/ date</w>
asset finder</w>
asser t
asc ending</w>
as_ graph_
as ked</w>
as cent</w>
array '</w>
arra y_
arra y-
arg_ scope</w>
arg max</w>
arclin kxml</w>
arch ives</w>
arc- standard</w>
arc second</w>
ar xiv</w>
ar ranged</w>
ar ity</w>
ar ff</w>
approximat ed</w>
appro x_
apply _
application -level</w>
appear ances</w>
app '</w>
ap op</w>
ap is</w>
ap i-
ap er
anti divisors</w>
ans wered</w>
annotation 's</w>
annot ating</w>
ang le-
ang le's</w>
and rew's</w>
and -
anchor point</w>
an p</w>
an isotropic</w>
an imat
an ag
anag er</w>
an /
amo del</w>
alp has</w>
allow able</w>
alloc (
all ()</w>
alignment_info ,</w>
aligne dsent</w>
al way
al ive</w>
ak i</w>
agre ement</w>
aggregationdepth=2 )</w>
aggregationdepth=2 ):</w>
aggreg ations</w>
agg ed</w>
age info</w>
ag o
ag inst</w>
ag ging</w>
ag e-
after wards</w>
aff ect</w>
af ter_
af t</w>
adv ances</w>
admin s</w>
adjusted array</w>
adapt ively</w>
adap ted</w>
ad joint</w>
ad am</w>
activ estate</w>
accept or</w>
acceler ate</w>
ac counting</w>
abstract document</w>
abbrevi ated</w>
ab or
a/ d</w>
a* x**b</w>
a u</w>
a ead</w>
a c</w>
a **</w>
a ",</w>
_{ p</w>
_iteration phase-based</w>
_get_ dense_
_connection record</w>
__iter __()</w>
__init__ ()</w>
__get item
__get attr__</w>
__dict __</w>
__del item__()</w>
__ }</w>
__ reversed__()</w>
__ name__</w>
__ len
__ class
_ wrapped
_ test
_ targetcolumn</w>
_ spec</w>
_ solve</w>
_ size</w>
_ signal</w>
_ sequence
_ remainingdata}</w>
_ path</w>
_ or_
_ invert</w>
_ hypersearchjob</w>
_ head</w>
_ format</w>
_ dispatch</w>
_ d
_ collect_
_ check_
_ build_
_ alloc
]| [
\operatorname{ wigner
\mathbb{ q}(\alpha</w>
\frac{ 1}
\frac{1} {h_z}</w>
\ }</w>
\ {
\ frac</w>
\ cong</w>
\ \
\ *</w>
\ *
[x ]
[i +
[ s]</w>
[ overrides</w>
[ n
[ k
[ encoder</w>
[ 3]</w>
[ ,
[ "
@ "</w>
? "</w>
> </
> :
> 0</w>
> )</w>
> "</w>
==== ====
= none):</w>
= conf</w>
= '</w>
< http</w>
: mod</w>
9 9</w>
8 6</w>
7 +
7+ :</w>
5 a</w>
5 3
53 22</w>
5 1</w>
4 x4</w>
4 th</w>
4 1</w>
3 5</w>
200 5</w>
20 4
2- dimensional</w>
2 })</w>
2 d
2 6</w>
2 5</w>
2 55</w>
2 40</w>
2 3</w>
2 00</w>
2 **
199 4</w>
199 2</w>
19 -
1- based</w>
1 },</w>
1 s</w>
1 ],</w>
0- d</w>
0 x</w>
0 /
0 -based</w>
0 -1</w>
0 *
0 's</w>
// arxiv</w>
/ l
/ dev/
/ data/
- version</w>
- ups</w>
- s</w>
- output</w>
- i</w>
- exp</w>
- compatible</w>
, *
, "</w>
+ =</w>
**kw args)</w>
**kw )</w>
** integer</w>
*( "</w>
* y
* value*</w>
* type
* rule*</w>
* g
* :
* ,*
* ("
*(" ,"</w>
) [x]</w>
) /
(x_ low</w>
(x ^2</w>
(direction=" forward"),</w>
(direction=" backprop</w>
( without</w>
( w
( val</w>
( used</w>
( so</w>
( not</w>
( n_
( field</w>
( default=
( default</w>
( date_list</w>
( column_name</w>
( arg
( and</w>
( after</w>
( >=</w>
( =</w>
( 1-
( 0=
( 0</w>
( #
'tag s'</w>
'second ',</w>
'path '</w>
'obj s'</w>
'month ',</w>
'level '</w>
'field s'</w>
'field name'</w>
'dict '</w>
'c 2'</w>
'c 0'</w>
'_ '</w>
': '</w>
'/ '</w>
', '
'* '</w>
' with</w>
' variable'</w>
' to_
' th</w>
' text
' save
' s'</w>
' return_annotation'</w>
' request'</w>
' old'</w>
' minute'</w>
' kwargs'</w>
' i
' hour',</w>
' header
' head'</w>
' g
' func'</w>
' exact'</w>
' day',</w>
' addr'</w>
' 1'</w>
' +
' ')</w>
%% script</w>
% }</w>
% m</w>
"x "</w>
" with"</w>
" where</w>
" select"</w>
" num"</w>
" insert</w>
" in
" has"</w>
" finished</w>
" created</w>
" <
‘ و
‘و ’</w>
è re</w>
~ user</w>
~ sympy</w>
~ mp
~mp l_
~mpl_ tool
~mpl_tool k
~mpl_toolk its</w>
~ matplotlib</w>
~ a</w>
~ /</w>
}{ dx
}{dx }</w>
}- mode</w>
} },</w>
} ]</w>
} "</w>
|a |</w>
|a |
| |
| v
|v )</w>
| ,</w>
{ }</w>
{ scalar</w>
{ k-
{ field_name</w>
{ \alpha
{\alpha }</w>
{ <
{ (k
{(k 1</w>
{ '
zoom ing</w>
zon e/
zone/ record</w>
zip s</w>
zh a</w>
zero- dimensional</w>
zero- based</w>
zero ed</w>
zero _
zero -value</w>
z]/ (\
z]/(\ check</w>
z- scores</w>
z view</w>
z order
z ope</w>
z om
z iness</w>
z in</w>
z i
zi par
zipar ch
ziparch ive</w>
z eta</w>
z es</w>
z en
zen ith</w>
z _p
z_p (
z _file</w>
z +1</w>
ype rex
yperex pon
yperexpon ential</w>
ype p
ypep ti
ypepti de</w>
year s</w>
ya a
yaa ay</w>
y_ param</w>
y/ scipy</w>
y- values</w>
y- map</w>
y- coordinates</w>
y- based</w>
y u
yu le-
yule- walker</w>
y nam
y file</w>
y ester
y embedding
yembedding helper</w>
y cycle
ycycle s'</w>
y _</w>
y [i]</w>
y ></w>
y =0</w>
y =
y -like</w>
y +
y+ z+1</w>
xml- compatible</w>
xml stream}</w>
xml stream
xmlstream factory</w>
xml rpc</w>
x_{2} ^2</w>
x_{1} ^2</w>
x_{ p</w>
x_{ n
x_{n }
x_high )</w>
x_ u
x_u )*
x_u)* x_
x_u)*x_ 0**
x_u)*x_0** i</w>
x1 3</w>
x1 2
x1 1</w>
x1 **
x1** i
x1**i 1
x1**i1 *</w>
x- y</w>
x- values</w>
x- removal</w>
x- forwar
x-forwar de
x-forwarde d-
x- e</w>
x+ y+z+1</w>
x** m</w>
x** 2</w>
x** 2)</w>
x replace</w>
x range</w>
x path</w>
x p
xp xi</w>
x opt</w>
x ls
x i-
x header()</w>
x eter</w>
x es</w>
x a</w>
x [i]=y</w>
x =0</w>
x ,</w>
x '
wx r
wx python</w>
wx app</w>
writer iface</w>
write able</w>
writ eto
wrapper }</w>
wrapper /
wrapper/ hook</w>
wrap _
work ing_
working_ set</w>
work hor
workhor se</w>
work flow</w>
work flo
workflo ws</w>
work day</w>
work book</w>
word net
word er
worder *</w>
word /
word -
wor ker
wol fo
wolfo witz</w>
wol fe
wol f</w>
with- trashed</w>
with- statement</w>
with std
withstd =true</w>
with minmax
with mean
withmean =false</w>
with ing
withing ro
withingro up</w>
wit em
witem s()</w>
window_ type</w>
window size</w>
window 's</w>
windo wing</w>
win sor
win r
width ,</w>
widget registry</w>
wi shes</w>
wi secon
wisecon v
wi s
wi resh
wiresh ar
wireshar k</w>
wi pe</w>
wi at
wiat k
wiatk ow
wiatkow sk
who is</w>
white spaces</w>
white spac
whitespac e}</w>
whit ener</w>
whit ened</w>
whi che
whiche ver</w>
where as</w>
wheel -version</w>
well- known</w>
wel ch</w>
web service</w>
web server</w>
web logo</w>
web gl</w>
web -
weak ly</w>
we dge</w>
we a
wd ]
wav elength</w>
wat er
water mark</w>
warn ing/
warning/ error</w>
war p</w>
war ns</w>
wang -
wang- ry
wang-ry zin</w>
wal r
walr us</w>
wal ks</w>
wal d</w>
wal d-
wait records</w>
wait _
wait_ random_
wa re's</w>
wa ker</w>
wa ker
w_ add</w>
w u</w>
w on
won 't</w>
w m</w>
w int
w ed</w>
w c
wc spr
wcspr m</w>
w [i]</w>
w 2</w>
w 1</w>
votable spec
votablespec error</w>
vocab size=1</w>
vo ting</w>
vo te</w>
vo ip</w>
vo ic
voic ing</w>
vn ic</w>
vl an</w>
visu alized</w>
visit _
visit_ struct
visit_struct u
visit_structu red
visit_structured ()</w>
vision ed</w>
virtual env</w>
virtual "</w>
virt ually</w>
view/ selection</w>
view keys()</w>
view behavior</w>
view ()</w>
vie witems()</w>
vi spy/
vi gen
vigen ère</w>
vi -
vi- c
vi-c ivita</w>
version_ info</w>
version ed</w>
version changed</w>
version ?</w>
verify ()</w>
verbose =conf</w>
ver tor</w>
ver son</w>
ver man</w>
veloc ities</w>
vel "</w>
vector x
vector size</w>
vector ial</w>
vector _to_
vector_to_ matrix</w>
vector -
vec =none</w>
ve_ hypergeometric</w>
ve y</w>
ve /
vdt valu
vdtvalu eto
vdtvalueto o
vdt param
vars /</w>
variance power
variancepower =0</w>
variance col</w>
variance ></w>
variance -
variance- covariance</w>
variable s/
variable s)</w>
variable s
variable option}</w>
variable expression</w>
variable ,</w>
variable )</w>
variable 's</w>
vari ations</w>
vari ates</w>
vari ate</w>
var s_
var s/
vars/ <
value= float
value=float ("
value=float(" nan
value=float("nan "),</w>
value decomposition</w>
value ',</w>
valu ed
validator ()</w>
validator 's</w>
validat e_
val '</w>
v_{ 1}</w>
v_ i</w>
v( inplace
v xopt</w>
v t
v rr
v router</w>
v m
vm ware's</w>
v ious</w>
v ig
vig kl
vigkl as</w>
v i</w>
v gg
v ents</w>
v ent
v end
vend or</w>
v bo</w>
v ad
vad er</w>
v able</w>
v 3-
v 1_
v1_ 5-
uvar int
uvarint field</w>
uu ]|[
ut ran
utran sl
utransl ations()</w>
ut or</w>
ut om
ut iliz
ut ilities</w>
ut ili
utili ze</w>
ut 1</w>
ut 1-
ut1- utc</w>
user_ ns</w>
user- visible</w>
user- space</w>
user- shared</w>
user- friendly</w>
user- created</w>
user ids</w>
user col</w>
user [:
user[: pass
user[:pass wd]
user /
use_ tz</w>
use k</w>
use col
usecol s'</w>
us no</w>
us '</w>
url 's</w>
url '</w>
ure 's</w>
ur us</w>
ur se</w>
ur nam
urnam ent</w>
ur cating</w>
update_ fn])</w>
updat ed
up t</w>
up per-
up loads</w>
up lo
uplo a
uploa ded
uploaded file</w>
up link</w>
up grades</w>
up down
updown 2</w>
up coming</w>
up casts</w>
up cast</w>
up ac</w>
up <interfaces</w>
unti l
unquote ()</w>
unix time</w>
univer se</w>
univ ention</w>
unit ser
unitser ror</w>
unit s_</w>
uniqu eness</w>
unipro t</w>
union ing</w>
unicode _
uni sh</w>
uni q</w>
uni fy_
under scores</w>
und ()</w>
unar y
un- comput
un-comput able</w>
un t
unt u</w>
un stack</w>
un sets</w>
un selects</w>
un scaled</w>
un safe</w>
un rolled</w>
un restricted</w>
un related</w>
un registers</w>
un recognized</w>
un ranked</w>
un quoting</w>
un quote</w>
un processed</w>
un pause</w>
un parsed</w>
un packer</w>
un needed</w>
un named</w>
un mount</w>
un modified</w>
un masked</w>
un marshalled</w>
un lock</w>
un installs</w>
un install</w>
un initialized</w>
un indented</w>
un igrams</w>
un ig
unig ram</w>
un ifies</w>
un handled</w>
un for
unfor tun
unfortun ately</w>
un fitted</w>
un equality</w>
un deliver
undeliver able</w>
un deferred</w>
un d_
un cur
un correlated</w>
un connected</w>
un censored</w>
un bound
un bind</w>
un bal
unbal anced</w>
un applied</w>
umin os
uminos ity</w>
um c</w>
ular /
ular/ long
ular/long table</w>
ul um</w>
ul i</w>
ul ator</w>
ul ating</w>
ui x</w>
ugh ly</w>
ug al</w>
ue dict</w>
ub untu</w>
u {
u x_
u mp
u let
ulet te</w>
u le's</w>
u ity</w>
u ish</w>
u ette</w>
u dt</w>
u dict</w>
u -
u 's</w>
u '</w>
typet ags</w>
type( stringtype(),</w>
type engine</w>
type ]]</w>
type =</w>
type *,</w>
type *,*
type*,* data
type*,*data *)</w>
type ),</w>
type "</w>
typ ename</w>
typ ed</w>
typ ech
typech eck</w>
typ e_
type_ map</w>
typ e-
two- step</w>
twe et
twe a
twea ks</w>
tw el
tw are</w>
tuple }</w>
tuple /
tunnel flags</w>
tun e</w>
trun cating</w>
true_ params</w>
true_ div</w>
true )
true) ])</w>
tru ct</w>
trot ter</w>
triangular _solve</w>
tren ds</w>
tree walker</w>
tree edge</w>
tree 1</w>
tre eno
treeno de</w>
tre e()</w>
trav is</w>
trav es
traves al</w>
trav el
trapezo id</w>
transport 's</w>
transl ating</w>
transition s'</w>
transi ent"</w>
transform system</w>
transform ing</w>
transform graph</w>
transf ers</w>
transf erring</w>
transcri bes</w>
trans clu
transclu de</w>
trans _
trans_ probs</w>
tran cy</w>
train_ to
train_to ks</w>
train ratio</w>
trail er</w>
trading environment</w>
trading control</w>
trad itional</w>
trace 's</w>
trac ero
tracero ute</w>
tr im_
trim_ to_
trim_to_ sel</w>
tr il</w>
tr igramcollocationfinder</w>
tr ick</w>
tr ic
tr ib
trib ute</w>
tr ap</w>
tr >s</w>
tou ches</w>
tou ch
topo log
topolog ically-
topologically- sorted</w>
topicdistribution col="
topicdistributioncol=" topicdistribution
topicdistributioncol="topicdistribution ",</w>
topic concentration=none</w>
topdown mapping
topdownmapping m</w>
topdown compute()</w>
top most</w>
top level</w>
tool tree</w>
tool s/
ton- rap
ton-rap h
ton-raph son</w>
tol d</w>
tokens [
tokens )</w>
tokens ()</w>
token izes</w>
token iz
to_ proto</w>
to_ fol
to_fol ()</w>
to_ collection
to- many</w>
to ver</w>
to urnament</w>
to t
tot al_
to string}</w>
to string
tostring ()</w>
to l</w>
to e
toe pl
toepl it
toeplit z</w>
to 4</w>
to '</w>
tm region</w>
tm region's</w>
tm cpp</w>
tl sserver
tlsserver key
tlsserverkey exchange</w>
tl s_
tls_ version</w>
tl =1
tl=1 0)</w>
tin y</w>
timezon e}</w>
timestamp ()</w>
timeout s</w>
time steps</w>
time line</w>
time grouper</w>
time )</w>
tim izer</w>
tim it</w>
tim ing
tim ers</w>
ti ps</w>
ti ling</w>
ti led</w>
ti er</w>
ti cle
ticle ()</w>
ti cally</w>
thumb na
thumbna il</w>
thro wn</w>
thro ugh
thro tt
threshold s=none</w>
threshol ding</w>
thing ()</w>
thin ks</w>
thin k</w>
they 're</w>
ther mod
thermod ynam
thead er}</w>
the ws</w>
the siz
thesiz ing</w>
the sa
thesa urus</w>
thand ler</w>
th s</w>
th in</w>
th ick</w>
tgrep 2</w>
tfrecord writer</w>
tf records</w>
tf am
tfam ili
tfamili e
tfamilie se
tfamiliese x</w>
text ure
text clause</w>
text box</w>
text -
text )</w>
test func</w>
test examples</w>
test '</w>
termin ating</w>
term- document</w>
ter rib
terrib ly</w>
ter ly</w>
ter )</w>
tensor_ list</w>
tensor_ can</w>
tensor types</w>
tensor s()</w>
tensor products</w>
tensor manager</w>
tensor flow
tensor -like</w>
tensor -
tensor ()</w>
tens ion</w>
ten sex
tensex pr</w>
temporal memory</w>
temporal ',</w>
template does
templatedoes not
templatedoesnot exist</w>
templ ating</w>
temp files</w>
techni que</w>
tear down</w>
te si
te le
tele sco
telesco pic</w>
te k
te in</w>
te e</w>
te ar</w>
tax a</w>
task ()</w>
tar file</w>
tar file's</w>
tag- sets</w>
tag set</w>
tag s
tags }}</w>
tag ging</w>
tag ge
tagge d_
tag =none</w>
table sample</w>
table data_</w>
table _names</w>
table ></w>
table ></
table></ table></w>
table -like</w>
table '</w>
tab ulation</w>
tab ulate</w>
tab ular/longtable</w>
tab len
tablen ames</w>
tab lec
tab -
tab- completion</w>
ta wn</w>
ta up</w>
ta u_
ta _
ta_ con
ta_con f_
ta_conf_ path</w>
t_ value</w>
t_ total</w>
t_ file</w>
t- statistic</w>
t tl=10)</w>
t solution</w>
t s
t mp_
t let
tlet t</w>
t ing
t form
t f-
tf- idf</w>
t ec
t dim</w>
t bl</w>
t ap
t all</w>
t al
tal king</w>
t ]</w>
t 2</w>
t /
t *t
t *</w>
t *
t* f**
t )
t) ))</w>
t (a</w>
system- wide</w>
system wide</w>
system -level</w>
system ()</w>
synony mous</w>
syncreplic as
syn thesizing</w>
syn g
syng ine</w>
syn ced</w>
syn c_
sympy_ debug</w>
sympify able</w>
symbol }"</w>
sym link</w>
sy zy
sy llable</w>
switch port</w>
swit ching</w>
sv g
susp end</w>
support s_
supports_ san
supports_san e_
support =0</w>
supp ly</w>
super- class</w>
super- broken</w>
super position</w>
super fl
superfl uous</w>
super class</w>
sun id</w>
sump tion</w>
summar izes</w>
sum( ci
sum m</w>
sum ()</w>
suit ed</w>
sugge sted</w>
suffi xes</w>
suffi x-removal</w>
success code</w>
succe ed</w>
subtr acted</w>
subtr act
subtensor (
subscription -
subscription- manager</w>
subscri pts</w>
subscri bes</w>
subscri ber</w>
subsamplingrate =0</w>
subs (x</w>
subclas sed</w>
sub- table</w>
sub- region</w>
sub- elements</w>
sub widget</w>
sub types</w>
sub type</w>
sub test</w>
sub str
substr ate</w>
sub section</w>
sub scene</w>
sub s_
sub path</w>
sub parts</w>
sub packages</w>
sub nodes</w>
sub negotiation</w>
sub minor</w>
sub formats</w>
sub folder</w>
sub directories</w>
sub dir</w>
sub block</w>
sub _
su n</w>
style ='
style=' bar
style='bar ',</w>
sty le's</w>
stur ng</w>
stub s</w>
structtype ([
structtype([ struct
structtype([struct field
structtype([structfield ("
structtype([structfield(" f1
structtype([structfield("f1 ",</w>
struct ural</w>
struct s</w>
struct _time</w>
strong ly</w>
stroke gesture</w>
stro wid
strip e</w>
string- derived</w>
string }},</w>
string type</w>
string io</w>
string ified</w>
string -to-
string ,</w>
string (self</w>
string 's</w>
string "</w>
streaming query
stream ()</w>
stre le
strele aser</w>
strategy=" mean
strategy="mean ",</w>
strateg ic</w>
strat um</w>
str y</w>
str f
strf time()</w>
str /
str (my_
str ()</w>
stor ing/
storing/ retrieving</w>
stor age_
stor able</w>
stop words</w>
stop word
stop at
stochastictens or</w>
stochast ically</w>
sto re
store =1</w>
sto ffe
stoffe l</w>
sto f
sto ck</w>
stit ches</w>
step per
stemm ers</w>
stead y
ste re
stere o</w>
ste ph
steph ens</w>
stdout/ err</w>
stdout _</w>
stderr _</w>
std in
stdin /
std config
stdconfig files</w>
status_ completed</w>
station 's</w>
static_ huffman_
static_huffman_ tree</w>
static files</w>
state less</w>
state ket</w>
state __)</w>
state 's</w>
stat uses</w>
stat us
stat ement
stat e'</w>
start_ response}</w>
start_ i</w>
start tl
start ][,</w>
star '</w>
standard "</w>
standar ds</w>
stand alone</w>
stan ds</w>
stan ce</w>
stack trace</w>
stac ks</w>
stac king</w>
stabiliz ation</w>
st ype</w>
st uff
st ren
stren g
streng th</w>
st or</w>
st ir
stir ling</w>
st ime</w>
st e</w>
st by
stby name}</w>
st and</w>
st amp</w>
st al
stal e</w>
st '}</w>
ssl v3</w>
ssh- key</w>
ssh transport
ssh key
ss ql</w>
ss p</w>
ss ites</w>
ss i</w>
ss en
ssen berg</w>
ss a</w>
src_ dir</w>
sr s</w>
sr loop
srloop (
srloop( pk
srloop(pk ts</w>
squeez able_
squeezable_ dimensions</w>
squee ze</w>
square free</w>
squ ar
squar ing</w>
sqrt (1-
sqrt(1- x^2)</w>
sqlit e
sql compiler</w>
sql -
sql- expression</w>
sq r
split ted</w>
split s=none</w>
split _
spher oid</w>
sph r
sphr ase</w>
sper choice</w>
spel led</w>
spectr al_
spectral_ ops</w>
spectr a</w>
spect ed</w>
special ised</w>
special -
special- case</w>
spec s
specs str</w>
spear man's</w>
spea king</w>
spatial pooler</w>
spatial _
spatial_ ref
spatial_ref _sys</w>
sparsetensor s
sparsetensors map</w>
sparseblock outer
sparseblockouter (
sparseblockouter( inplace
sparseblock gem
sparseblockgem v(inplace
sparse_ tensors()</w>
sparse matrix(2</w>
sparse bit
sparse /
sparse/ dense</w>
sparse -compatible</w>
spark session</w>
spark _
spar s
spars eness</w>
spar k-
spar e</w>
space segment</w>
spac ings</w>
spac ing</w>
spac es
spa wn
sp region's</w>
sp read</w>
sp lines</w>
sp ill</w>
sp f
sp er's</w>
sp ageinfo</w>
sp _
source parent</w>
source /
source/ sink</w>
source -
sour cer
sourcer ow</w>
sort_ values</w>
sort_ index</w>
sort filter
sortfilter proxy
sortfilterproxy model</w>
sor cer
sorcer y</w>
son- durbin</w>
son ic</w>
son ant</w>
some where</w>
some file
somefile ')</w>
solver=" ir
solver="ir ls
solver="irls ",</w>
solver=" auto",</w>
sol ve_hypergeometric</w>
sol vable</w>
sol n</w>
softmax_ cross_entropy_with_logits</w>
sof tware</w>
socket }</w>
so t</w>
so ck</w>
so ap</w>
so a</w>
sno w
sniff ([
sniff([ count
sniff([count =0</w>
sna c</w>
sn ip
snip p
snipp et</w>
smooth s</w>
smooth ly</w>
smo logy</w>
smir no
smirno v</w>
smart set()</w>
smar ts</w>
smar t_
small ''</w>
sm 1</w>
sm /
sm/ rhsm</w>
slot name,</w>
sli p-
slip- ra
slip-ra ke</w>
slee ps</w>
sl net
slnet station</w>
skolem ize</w>
skip test</w>
size :</w>
siz e_
size_ array'</w>
situ ation</w>
sion model</w>
sion /
singular valuedecomposition</w>
single tons</w>
sin e-
simul ated</w>
simpli fi
simplifi ed_
simplified_ pairs</w>
sim s-
sims- zha</w>
sil verman</w>
sil ho
silho uette</w>
sil ently</w>
signal ,</w>
sign *
sign* s</w>
sign ()</w>
sigma -
sigchld }</w>
sig term</w>
sig ht</w>
side 2</w>
shut down
shutdown '</w>
shuff led</w>
shuff le_
shuffle_ batch_join</w>
shrink age</w>
shrin k</w>
show_ all</w>
show page</w>
show ()</w>
should_ trigger</w>
short- circuit</w>
short cuts</w>
sho up</w>
sho cks</w>
shift scal
shiftscal e
shiftscale factor</w>
shell -like</w>
shel f</w>
shar p</w>
shar ing</w>
shar ding</w>
shape_ y</w>
shape_ x</w>
shape_ tensor</w>
shape_ i</w>
shape= [1]</w>
shader s*</w>
shader object</w>
sha- 256</w>
sha 256</w>
sh p
shp "</w>
sh connectioncre
shconnectioncre ator}</w>
sh an
sh allow_
shallow_ tree</w>
sg v</w>
setup },</w>
setup tools</w>
setup ()</w>
set_ data</w>
set timezone}</w>
set stream()</w>
set ree</w>
set model</w>
set line</w>
set fac
setfac l</w>
set default</w>
set ([
set([ 1</w>
session run
session no</w>
session maker</w>
session -
service },</w>
servic e_
server_ kx_
server factory}</w>
server def</w>
serv ing_
serving_ input_
serving_input_ receiv
serving_input_receiv er_
serving_input_receiver_ fn</w>
serv ed</w>
series/ dataframe</w>
series ,</w>
series 's</w>
serializ er</w>
ser sic</w>
sequence }</w>
seq records</w>
seq io</w>
seq 1</w>
seq )</w>
separ at
separat e-
separate- and-
separate-and- con
separate-and-con qu
separate-and-conqu er</w>
sentim ent
sentiment analyz
sentimentanalyz er</w>
sent s
send buff
semi- private</w>
semb les</w>
sem types</w>
sem i</w>
self[ k</w>
self- voicing</w>
self- signed</w>
self- adjoint</w>
self ridge</w>
self *
self )</w>
self "</w>
select_ related
select_related ()</w>
select or
selector type</w>
select ive_
selective_ registration</w>
select ive</w>
select ion
selection mixin</w>
select ></w>
sel -type</w>
segment min</w>
segment ations</w>
seg yfile</w>
seg mentation</w>
seg idx</w>
seg -y</w>
seed =none):</w>
see king</w>
see kable</w>
secu rely</w>
secu red</w>
section- over-
section-over- union</w>
sect -9</w>
second )</w>
search_ wolfe
search io</w>
se_ level</w>
se_ images</w>
se_ call</w>
se ss</w>
se p'</w>
se ly</w>
se es</w>
se em</w>
se audio</w>
sd m</w>
scroll- watcher</w>
scroll _
script _name</w>
screen ing</w>
scre ate}</w>
scope ()</w>
scope '</w>
sco t
sco rer</w>
sco re-
score- based</w>
sci ence</w>
schizom er</w>
scheme >:
scheme>: //
scheme>:// <
scheme>://< net
scheme>://<net loc
scheme>://<netloc >
scheme>://<netloc> /
scheme>://<netloc>/ <path
scheme>://<netloc>/<path >
schema item</w>
schema _
schem ap
schemap ath</w>
schedul ing</w>
sched ules</w>
sch mid
sch -
sch- g
sch-g ordan</w>
scene graph</w>
scat ter_
scap y</w>
scan string}},</w>
scan prosite</w>
scan ner</w>
scan lines</w>
scan _
scaling vec=none</w>
scaling vec</w>
scale_ matrix</w>
scalar '</w>
scal are
scalare vents</w>
sc ry</w>
sc rap
sc l</w>
save points</w>
save point
savepoint ()</w>
save ast
saveast ext
saveastext file</w>
save ables</w>
sav e/
save/ restore</w>
sanit ized</w>
sample_ weight</w>
sample_ iter</w>
sample data</w>
sample d_
sampled_ candidates</w>
sample ()</w>
sample 's</w>
saltremover (
saltremover( def
saltremover(def n
saltremover(defn data
saltremover(defndata ="
saltremover(defndata=" [
saltremover(defndata="[ c
saltremover(defndata="[c l</w>
sa-pss- verify()</w>
sa- pkcs
sa-pkcs 1-
sa-pkcs1- v1_5-
sa id</w>
sa ic</w>
sa g</w>
sa 1</w>
s_to_ tensors</w>
s_ rec</w>
s_ list</w>
s_ i)</w>
s_ fn</w>
s[ 0]</w>
s= ['
s= 3</w>
s3 _
s3_ url</w>
s/ kwargs</w>
s/ categories</w>
s/ blocks</w>
s- file</w>
s- expressions</w>
s- exp
s-exp -like</w>
s- compatibility</w>
s( 2
s with
s v</w>
s po
s onal</w>
s method</w>
s maco
smaco f</w>
s list</w>
s io
s f</w>
s er</w>
s db</w>
s dao</w>
s col=none</w>
s checker}</w>
s as
s am
s ][,</w>
s ],</w>
s =10</w>
s =1)</w>
s **2</w>
s )
s !</w>
run_ ui</w>
run with
run time
run ners</w>
run details_</w>
run config</w>
ru st</w>
ru ct</w>
ru bi
rubi k's</w>
rt trace</w>
rt c</w>
rr or</w>
row_ seq</w>
row count</w>
route_ inputs)</w>
rout ers</w>
roun d_
roun d-
round- trip</w>
rot at
root sum</w>
root index</w>
rollback ()</w>
role include</w>
ro up<interfaces</w>
ro ulette</w>
ro ughly</w>
ro se</w>
ro red</w>
ro p_
rop_ op</w>
ro id</w>
ro ch
roch e</w>
rn nestimator</w>
rn g</w>
ris col
riscol l</w>
right- aligned</w>
right ness</w>
rig id</w>
rig id
rigid body</w>
rich line</w>
ri g</w>
ri ed</w>
ri char
richar ds</w>
ri c</w>
ri bes</w>
rh sm/rhsm</w>
rg gg
rfc 7
rfc7 231</w>
rf_ table</w>
rf e</w>
rf c-
reverse- mode"</w>
return s**</w>
retries (),</w>
ret run</w>
ret 's</w>
resum es</w>
result_ html_
result s}</w>
result sperchoice</w>
restri ct
restrict ed_
rest model</w>
resp ects</w>
resp -
resp- file</w>
resource _name</w>
resource _</w>
resource _
resource ?</w>
resolver }</w>
resolver simple</w>
resol ve
resnet_v 2()</w>
resnet- 200</w>
residu e_
residue_ reduce
residue_reduce ()</w>
reshap ing</w>
reshap ed</w>
resh ly</w>
reservoir bucket</w>
resampl ed</w>
resamp les</w>
resamp le
res low</w>
res end</w>
res cale</w>
requis ite</w>
required_ together</w>
required descriptors_</w>
require ment
requi res_
request encoder
request ed
requested activities</w>
request _
requ iring</w>
requ es
represent ion</w>
represent at
replic able</w>
replic a</w>
replace_ all_
replace_all_ validate</w>
replac e()</w>
replac e'</w>
replac e
repe at
repeat able</w>
rep l</w>
render able
renderable }</w>
render _
rend =
rend= detren
rend=detren d_
rend=detrend_ none</w>
ren py_
ren de
rende rer</w>
ren ch</w>
ren ame
remove_ squeezable_dimensions</w>
remove writer}</w>
remove reader}</w>
remove all
removeall }</w>
remote_ user</w>
remote reference
remotereference }</w>
remo v
remain s</w>
reli able
reliable !)</w>
rele ase
relay ing</w>
relay er}</w>
relax ing</w>
relax ed</w>
rel atively</w>
rel ative
rel ating</w>
rel ates</w>
rel ated_
reject ed</w>
reimpl mented</w>
regular ly</w>
regular izer</w>
regression model</w>
regist er_
regist e
registe red
registered clients</w>
reg param</w>
reg ar
regar ding</w>
reg -exp</w>
refra ctive</w>
reference _
reference_ date_
reference_date_ value</w>
reduce_ join</w>
redirect ing</w>
redirect ed</w>
red shiftscalefactor</w>
red shifts</w>
recycle viewbehavior</w>
recycle view</w>
recurs ions</w>
rect ified</w>
rect ang
rectang le'</w>
recor d-
record- valued</w>
recor d'</w>
recomm ends</w>
recogn ize</w>
recogn ise</w>
reco vers</w>
reco ver
reco g
recog inition</w>
receiv e_
reason }</w>
reason ably</w>
reas sembles</w>
reas o
reaso ns</w>
real valued
real time}</w>
real m</w>
real -time</w>
reading s()</w>
read_and_ call_
read_and_ call
read_and_call (uhandle</w>
read_ table</w>
read_ float
read_float type)</w>
read stdconfigfiles</w>
read only</w>
read er
reader s}</w>
read ()</w>
reactort cp</w>
react ord
reactord a
reactorda emon
reactordaemon ize</w>
reach ability</w>
re_ twophase()</w>
re- pen
re-pen rose</w>
re- loading</w>
re- implementation</w>
re- evaluate</w>
re- apply</w>
re }</w>
re ws</w>
re visioned</w>
re use</w>
re to</w>
re structure</w>
re stride</w>
re store_
re starting</w>
re started</w>
re start
re rs</w>
re route_inputs)</w>
re route</w>
re raise</w>
re produc
re pair</w>
re opens</w>
re ml</w>
re min
re maps</w>
re loading</w>
re load()</w>
re lies</w>
re l</w>
re factoring</w>
re en
reen trancy</w>
re draw</w>
re direction</w>
re d_
re creating</w>
re connecting</w>
re connect
reconnect ing
re configure</w>
re classifies</w>
re cap</w>
re calculates</w>
re calculated</w>
re building</w>
re broadcast</w>
re boot</w>
re batch</w>
re alized</w>
rd f</w>
raw info</w>
rational ize</w>
rat ing
rat er
rank- r</w>
rank- based</w>
rank -</w>
range index</w>
range error</w>
random_ state</w>
random ization</w>
radi cal</w>
radi al_
radial_ gradient</w>
rac ah</w>
ra y_param</w>
ra x</w>
ra st
ra in
rain bo
rainbo w</w>
ra g</w>
ra d</w>
r x
r te</w>
r te
r solve_hypergeometric</w>
r sa1</w>
r port</w>
r p</w>
r or
r ms
r mail
rmail b
r l</w>
r i</w>
r fft</w>
r c</w>
r c
r b
r and</w>
r and
r amp</w>
r ag
r ^2</w>
r ]
r] *</w>
r ,</w>
r +1</w>
r *</w>
quoted- string</w>
quoted- printable</w>
quote (),</w>
quo t</w>
quit }</w>
queue ing</w>
query context</w>
query >
query> #
query># <
query>#< fragment
query>#<fragment ></w>
quer ied</w>
quarti c</w>
quar terly</w>
quantiz ing</w>
quantiz e/
quantize/ dequantize</w>
quantit ative</w>
quantile scol=none</w>
quantile probabilities</w>
quantile probabil
quantileprobabil it
quantileprobabilit ies
quantileprobabilities =
quantileprobabilities= [0</w>
quanti fier</w>
quant withminmax
qualifi ers</w>
qualifi ed
qualified _name</w>
quadran ts</w>
qu ite</w>
qu iry</w>
qu ir
quir ks</w>
qu int</w>
qu e-
que- ber
qtool button</w>
qline f</w>
qgraphics object</w>
q }</w>
q tree</w>
q text
q string</w>
q sortfilterproxymodel</w>
q size)</w>
q runnable</w>
q q
q object</w>
q modelin
q byte
q **n</w>
q )</w>
pytz/dateutil ),</w>
python- mode</w>
python- compatible</w>
python path</w>
python module</w>
python attribute</w>
python _
pyqt 4
pyqt4 /
pyqt4/ 5</w>
pyp lot</w>
pyn b</w>
pylab ='
py side2</w>
py rax</w>
py openssl
py object</w>
py installer</w>
py dot</w>
py 3
py3 k</w>
py 2
py2 k</w>
push ed</w>
pure- decoding</w>
pur ges</w>
punk t</w>
pul seaudio</w>
publish er}</w>
publi shed</w>
pu ise
puise ux</w>
ption 1d</w>
pt ions</w>
pseudo count</w>
pse a</w>
ps dump</w>
prun es</w>
prun ed</w>
protocolswitch command</w>
protocol },</w>
protocol factory}</w>
proto eq</w>
prop comparator</w>
proof s</w>
promp ting</w>
project or</w>
progress bar</w>
program matic</w>
profile mode</w>
profile dir</w>
profile _name</w>
product sets</w>
product -of-
product-of- spacings</w>
process_ dedu
process ors</w>
process 's</w>
process '</w>
proces se
proce ed</w>
proce du
procedu res</w>
probabil ties</w>
probabil ites</w>
prob_ classify()</w>
prob plot</w>
prob le
proble matic</w>
pro pos
propos al</w>
pro fi
profi safe</w>
pro doc</w>
privile ge
privatecerti ficat
prior s</w>
print_ thing()</w>
print format</w>
print (
princip al
principal axes</w>
prim er</w>
prim ed</w>
prev ent
prevent ing</w>
pretty- print</w>
pretti fied</w>
prett y'</w>
pret end</w>
presse vent</w>
prespl ash</w>
pres ently</w>
pres ence
presence /
presence/ absence</w>
prepopul ated</w>
prepared request></w>
prepa re_twophase()</w>
prefix _
prefix_ len
prefix_len )</w>
prediction writeriface</w>
prediction logger</w>
prediction _
predict_ log_
predict_log_ proba</w>
predicat e-
predicate- argument</w>
predecess ors</w>
preci sely</w>
pre- determination</w>
pre- computed</w>
pre- calculated</w>
pre view/selection</w>
pre v</w>
pre qu
pre processes</w>
pre processed</w>
pre p_
pre fs</w>
pre filter</w>
pre f
pre determined</w>
pre ></w>
pre -</w>
pr inter
power set([1</w>
power =none)</w>
pow er_
pow _
potent ial
post- map
post-map per-
post-mapper- creation</w>
post process</w>
post proc</w>
possib ilities</w>
position ed</w>
position '</w>
pos- tagged</w>
pos ure</w>
port ugal</w>
port ]
port )</w>
popul ated</w>
pop item
popitem ()</w>
pop -ups</w>
pool }</w>
polynom ial
polygon visual</w>
poly hedr
polyhedr a</w>
poll ard
pollard 's</w>
policy for
polar ization</w>
pol ypeptide</w>
pol nom
polnom ial</w>
point_ count</w>
point s2</w>
point s1</w>
point ers</w>
point "</w>
po w</w>
po streleaser</w>
po sted</w>
pn m</w>
pn io</w>
pn g
plugin asset</w>
plug ging</w>
plug g
plot ,</w>
plot (
platform -
plate records</w>
plan et</w>
plan e
plane ?</w>
place *</w>
pl ates</w>
pl ast</w>
pl _
pk g-
pkg- info</w>
pixel -to-
pixel-to- pixel</w>
piv ot
piv o
pipeline model</w>
pipeline engine</w>
pil ls</w>
pid file</w>
pickle able</w>
pick ler</w>
pick le-
pickle- protocol</w>
pick able</w>
pi/ 2</w>
pi x</w>
physical "</w>
physi cs</w>
phylo xml-compatible</w>
phra se
ph one</w>
ph il
phil li
ph i</w>
ph i
ph ased</w>
ph a</w>
pertur bed</w>
persist ent"</w>
persist ent
permission deni
permiss ion_
perman ences</w>
perm utes</w>
periodicactivity request</w>
perio d's</w>
perim eter</w>
percent- encoded</w>
percent- encode</w>
per_ c_code</w>
per- step</w>
per sonal</w>
per p
perp lex
perplex ity</w>
per mit
per l</w>
per i
per fect</w>
pend ulum</w>
pen alized</w>
pd solve</w>
pd as</w>
pb txt</w>
pay load_
pause }()</w>
pattern '</w>
path_ tensor</w>
path lib</w>
path __</w>
path -like</w>
path ,</w>
patch }</w>
pat ched</w>
pass through
pass age</w>
pas sphrase</w>
partition swith
partition ing</w>
particle /
particip ate</w>
part }</w>
part list</w>
parser ,</w>
parser ()</w>
parse results}</w>
parse results</w>
parse d_
parsed_ sents</w>
parse ()</w>
parenthe sized</w>
parent/ child</w>
paren t_
paramet er's</w>
param stype</w>
param def</w>
param ()</w>
paralle li
paralleli sm</w>
par tly</w>
par sing
par names</w>
par ity</w>
par gs</w>
pandas object</w>
pal in
palin dro
palindro mic</w>
pair wise_
pair s'</w>
page up</w>
page down</w>
pag e}</w>
padd ings</w>
pad len</w>
package 's</w>
pack headers</w>
pack age_
pac man</w>
pa z_file</w>
pa y</w>
pa used</w>
pa uli</w>
pa ste</w>
pa reto</w>
pa m</w>
p_ vector_to_matrix</w>
p_ i
p_i j</w>
p/ s</w>
p/ q)</w>
p- tmsi</w>
p- p</w>
p- 19-
p-19- sect-9</w>
p( h
p wm</w>
p vals</w>
p timizer</w>
p printer</w>
p print_thing()</w>
p o</w>
p ment</w>
p m</w>
p key</w>
p in</w>
p ho
pho tons</w>
p f
p ec
p ear</w>
p db
p cfg</w>
p at</w>
p aper
paper _</w>
p [i+
p[i+ 1]</w>
p [f</w>
p 1
p 0
p0 f</w>
p ()</w>
owner ship
own er</w>
ow button</w>
over written</w>
over writing</w>
over view</w>
over tly</w>
over sampled</w>
over s</w>
over lay</w>
over lay
overlay s</w>
over head</w>
over han
overhan g</w>
over flow</w>
ov -
output ted</w>
output col</w>
output col
outer- product</w>
outer product</w>
out }</w>
out of
out line</w>
out er_
out ,</w>
other 's</w>
os r</w>
ory_ list</w>
orth o</w>
ort }</w>
ort timeout}</w>
orm als</w>
origin ating</w>
origin ally</w>
origin al
original '</w>
orig_ lon</w>
orig_ lat</w>
orient ation
organ izes</w>
organ is
organis m's</w>
org/abs/1 512</w>
ordin ates</w>
ordering list</w>
order visual</w>
ord iv
ordiv __</w>
or_ axis</w>
or v(
or mix
ormix in
ormixin base</w>
or ies</w>
or c</w>
or 's</w>
optimizedoc concentration</w>
optimizedoc concentr
optimizedocconcentr ation=true</w>
optimiz er
optimizer ="
optimizer=" online
optimizer="online ",</w>
optim izes</w>
opt variableoption}</w>
oper thread</w>
oper ation
opensource project</w>
opensource /
opensource/ 0
opensource/0 5
opensource/05 96
opensource/0596 00
opensource/059600 7
opensource/0596007 9
opensource/05960079 7
opensource/059600797 3
opensource/0596007973 /pythoncook
opensource/0596007973/pythoncook 2-
opensource/0596007973/pythoncook2- ch
opensource/0596007973/pythoncook2-ch p-19-sect-9</w>
open er</w>
op_ type"</w>
op ts</w>
op theader}</w>
op ft
opft ask
op from
opfrom graph</w>
op e
ope fully</w>
op ac
opac ity
opacity ,</w>
op _name</w>
op 2</w>
op 1</w>
op -
op- supported</w>
onrun start
ong st</w>
onevs restmodel</w>
onehot encoder</w>
one-vs- one</w>
one shot</w>
on_ start</w>
on_ selection_
on- run-start</w>
on over</w>
on ly-
only- trashed</w>
on icregres
onicregres sionmodel</w>
on e_
on e()</w>
on click</w>
on ce
once *</w>
omit ting</w>
om w</w>
om ag
ol der</w>
ol d
ok en
ok )</w>
ok (),</w>
ok '</w>
oh l
ohl cv</w>
ogr geo
ogrgeo mtype</w>
offset =1
offset=1 0
offset=10 24</w>
offline =none</w>
off set/
off screen</w>
of t
od d
od [i]=y</w>
oct ave</w>
oc to</w>
observ ing</w>
observ atory</w>
observ ator
observ ation
obs- phrase</w>
obs- local-part</w>
obs- domain</w>
obs- domain
obs-domain -list</w>
obs- addr
obs-addr -list</w>
object },</w>
object )</w>
objc instance</w>
objc class</w>
obj ,</w>
obj '</w>
ob vious</w>
o- prefixed</w>
o ws</w>
o us_
o re-penrose</w>
o o
o ms</w>
o i</w>
o g</w>
o des</w>
o de
o db
o ci
oci ate</w>
o auth</w>
o ()</w>
numuser blocks</w>
numpy- array</w>
numpartit ion
numpartition s=none)</w>
nump y'</w>
numitem blocks</w>
numhasht able
numhashtable s=1)</w>
numer ics</w>
numbuck ets</w>
number )</w>
numb ering</w>
numb er_
num_ records</w>
num_ bytes</w>
num trees</w>
num fold
numfold s=3</w>
num features</w>
num features
numfeatures =1</w>
num /
num/ den</w>
num '</w>
nu is
nuis ance</w>
nsummary (),</w>
ns app</w>
np n</w>
noti fying</w>
noti fies</w>
normal_ order</w>
normal -
norm s</w>
nor th</w>
nor med
normed =true</w>
none },</w>
none ),</w>
non- whitespace</w>
non- trivial</w>
non- temporal</w>
non- singular</w>
non- root</w>
non- projective</w>
non- persistent</w>
non- nested</w>
non- manyto
non-manyto many</w>
non- linearly-separable</w>
non- linear</w>
non- hashed</w>
non- controlled</w>
non- contiguous</w>
non- commutative</w>
non- authenticated</w>
non trivial</w>
non parametric</w>
non commutative</w>
non 's</w>
node_ info</w>
node wise_
node spec</w>
node "</w>
nod al</w>
nod al
nob s_i</w>
nob s_i)</w>
no w_add</w>
no usek</w>
no ptimizer</w>
no i
noi se_level</w>
nme a</w>
nlloc '</w>
nk in</w>
nit _
nit_ sot</w>
ning *</w>
next_ input
next_input s_fn</w>
next ()</w>
news groups</w>
news group</w>
new_ step</w>
new var</w>
new ton-raphson</w>
new str</w>
new s()</w>
new s"</w>
new comb
newcomb 's</w>
net/ ki
net/ki k-
net/kik- net</w>
net work-
net ic</w>
neo schizomers</w>
neighborho ods</w>
neighbo urs</w>
neighb oring</w>
neibs 2
neg ative
neg __</w>
neckl aces</w>
necess arily</w>
neare st
ne wn
ne st</w>
ne g</w>
ne d"</w>
ne ar
ndim age</w>
ndim =2</w>
nd tri</w>
nd n
ndn s_
nd k</w>
nd ',</w>
navig ator
navigator optimizer</w>
navig ation</w>
named tuples</w>
name_ scope()</w>
name_ map</w>
name spac
name =none</w>
name ="
name -value</w>
nam es'</w>
n_ zeros</w>
n_ inputs</w>
n wu</w>
n u</w>
n tp</w>
n th
n ta_conf_path</w>
n ssites</w>
n slots</w>
n sec</w>
n rows</w>
n proto</w>
n or</w>
n n
n items</w>
n ip
n il
nil potent</w>
n ick</w>
n hw
nhw c</w>
n g
ng 86</w>
n er
n ch
nch w</w>
n ativ
nativ e()</w>
n arrow</w>
n =
n /
n +
n *
n ),</w>
n (m
n(m u_
n (</w>
n 'th</w>
mysql- python</w>
mysql db</w>
mysql 's</w>
mut ex</w>
mut ate</w>
murck scaffold</w>
murck o</w>
multiplic ity</w>
multiplic ations</w>
multipli ed</w>
multi- word</w>
multi- station</w>
multi- outputs</w>
multi- layer</w>
multi strokegesture</w>
multi step</w>
multi rnncell</w>
multi polygon</w>
multi body</w>
mult ival
multival uedict</w>
mul s</w>
mu st
msg_k ex
msg_kex init</w>
msg_ channel_open</w>
msg pack</w>
ms a</w>
mp ty</w>
mp l</w>
mp ar
mpar ams</w>
mov ing
month ly</w>
monkey- patching</w>
monit ormixinbase</w>
mon o</w>
moment tensor</w>
molec ule's</w>
module s},</w>
module finder</w>
module allowed</w>
module ()</w>
modul ename</w>
modu le_
modifi ed-
modified- since</w>
modi fication
moder ator</w>
modelin fo</w>
modeli d</w>
model }
model type</w>
model name"</w>
model ing</w>
model form</w>
model control
modelcontrol disable
model builder
modelbuilder command</w>
model _name</w>
mode choice</w>
mode ='
mode '</w>
mod_ _</w>
mod(p **
mod '</w>
mobi us</w>
mo un
mo saic</w>
mo re
mo ore-penrose</w>
mo ck</w>
ml data</w>
mk dir</w>
mix ing</w>
mix in-
mixin- safe</w>
mix ed
mixed l
mixedl mparams</w>
missing value=float("nan"),</w>
miss ing_
mis sible</w>
mis match</w>
mir rored</w>
mir ror</w>
mir c</w>
mio u</w>
mint oken
mint f=1</w>
mint f</w>
mininstancesper node</w>
minim izes</w>
minim ization</w>
mindoc freq
mindocfreq =0</w>
mindivisiblecluster size=1</w>
min_ rank</w>
min val</w>
min support=0</w>
min support</w>
min poly(
min permanence</w>
min ors</w>
min fo</w>
min df</w>
min d
mind f=1</w>
min confidence
minconfidence =0</w>
mim ic</w>
migr ates</w>
mid point</w>
mid -
micro second</w>
mi sc
mi les
mi cally</w>
metric name="
metric _fn</w>
method name}</w>
method ]</w>
method [,</w>
method )</w>
message handler</w>
message '</w>
messag es'</w>
mer get
merget ol</w>
men up
memory_and_disk ",</w>
memory worker}</w>
memo ize</w>
memb er's</w>
meij er
meijer g</w>
meg am</w>
medi ator</w>
mean s
mean model</w>
mean ed</w>
me spath</w>
me sa</w>
me me</w>
me l
md tm</w>
mcne mar</w>
may avi</w>
maxmemoryin mb</w>
maxiter =2
maxiter=2 5</w>
maxim izes</w>
max_ length
max_length }</w>
max val</w>
max pool</w>
max ent</w>
max categories</w>
max =1</w>
matrix base</w>
matrix /
matrix/ complex</w>
mathemat ic
mathematic a</w>
math world</w>
mater ialized</w>
match vect</w>
match ing
matching row
match er</w>
match '</w>
mat thews</w>
mat mul
mat lab</w>
mat (
masked array</w>
mas king</w>
mas k
mark up
mark ov</w>
mark '</w>
marge ff_
margeff_ cov_params</w>
marge ff</w>
marg ins</w>
mar que
mar ching</w>
maps[ 1</w>
map values</w>
map red</w>
map partitionswith
many-to- one</w>
manip ulator</w>
manag ement
manag ed
managed relayer}</w>
man i
mani fe
manife st</w>
man ages</w>
mal formed</w>
make_linear_ model</w>
make_ table</w>
maj or_axis</w>
main ly</w>
main __
mail boxes</w>
mail box
magic '</w>
mag netic</w>
mag ic_
ma d</w>
ma cos</w>
m_ {\alpha}</w>
m_ dict</w>
m_ 2</w>
m_ 1</w>
m }</w>
m um</w>
m sym</w>
m ssql</w>
m ro</w>
m r</w>
m or
m m_gradweights</w>
m jd</w>
m inter
minter ms</w>
m ch
mch ed
mched r</w>
m ate</w>
m 2</w>
m 2
m ,</w>
l{tlsmemorybio protocol</w>
l{thread worker}</w>
l{pickle string
l{log publisher}</w>
l{log level</w>
l{ireactor time</w>
l{imessage part}</w>
l{i response}</w>
l{i request}</w>
l{i reactordaemonize</w>
l{i protocol}</w>
l{i producer</w>
l{i knownhost
l{iknownhost entry</w>
l{i domain}</w>
l{i box
l{ibox receiver</w>
l{failure }</w>
l{dn sprotocol}</w>
l{client service},</w>
l{call remote
l{amp box}</w>
l{_ send
l{_ optvariableoption}</w>
l{_ optheader}</w>
l{_ is
l{_is shconnectioncreator}</w>
l{_ i
l{_i requestencoder
l{ xmlstream</w>
l{ unittest</w>
l{ unicode
l{ tunnelflags</w>
l{ smtp
l{ simple
l{ server
l{ remotereference}</w>
l{ privatecertificat
l{ os</w>
l{ openssl</w>
l{ none},</w>
l{ loopingcall}</w>
l{ local
l{local worker
l{ key}</w>
l{ iter
l{ ipushproducer</w>
l{ interfaces</w>
l{ ig
l{ig roup<interfaces</w>
l{ get
l{ fix
l{fix e
l{fixe do
l{fixedo ff
l{fixedoff settimezone}</w>
l{ ephemer
l{ephemer al}</w>
l{ dirdbm</w>
l{ certificateoptions}</w>
l{ box
l{ asyncio</w>
l{ agent
l{agent }</w>
lu c
luc as</w>
ls a</w>
ls 4</w>
lowercase _</w>
low er_
low -
losstype=" log
losstype="log istic
losstype="logistic ",</w>
loss _
lose connection</w>
loop =0],</w>
lookup_ by
look -up</w>
long name</w>
long -
lon -separated</w>
logg er
log- uniform</w>
log- probability</w>
log- in</w>
log- density</w>
log( softmax</w>
log softmax</w>
log on</w>
log ob
log it
log ist
logist icregres
logisticregres sion</w>
log ics</w>
log ical
log ge
logge d-in</w>
log gamma</w>
log [
lock filename</w>
lock file</w>
local_ dict</w>
local time()</w>
local ization</w>
local es</w>
loc ator}</w>
loc ates</w>
loc =0</w>
load er_
loader_ type</w>
load balanc
load able</w>
lo }</w>
lo st'}</w>
lo operthread</w>
ll ar</w>
liter al
listen er}</w>
list_ tensors</w>
list_ profile</w>
list field</w>
list ()</w>
list '</w>
linker 's</w>
link predictioncol=none</w>
link power=none)</w>
link power</w>
link item)</w>
link age</w>
link =none</w>
linear_ model_fn</w>
linear ring</w>
linear regressionmodel</w>
linear izer</w>
line_ search_wolfe
line_ number</w>
line- delimited</w>
line s}</w>
line -of-
line-of- sight</w>
lin ux_
lin t</w>
lin en
lin d
lifet imes</w>
lifet ime</w>
licens es</w>
lic ke
lic ated</w>
lib cloud</w>
lib c</w>
lib ',</w>
li ze</w>
li stof
li sh</w>
li l
lil li
lilli e
lillie for
lilliefor s</w>
li kes</w>
li est</w>
li ent
li ct</w>
li >s</w>
lexicograph ically</w>
level ="
level=" memory_and_disk",</w>
level =
lev in
levin son-durbin</w>
lev ens
levens h
levensh tein</w>
length ?</w>
length -n</w>
length *,</w>
len (my_
lem ma
lem anager</w>
leg ant</w>
lef tover</w>
leav e
leave whitespace}</w>
least- square</w>
learning offset=1024</w>
learning offset</w>
learning deca
learningdeca y=0</w>
learning cb</w>
lead ing/
leading/ trailing</w>
le vi-civita</w>
le lement</w>
le do
ledo it-
ledoit- wolf</w>
le d-
le be
ld amodel</w>
lazy sig</w>
lazy loaders</w>
lazy "</w>
layer_ num</w>
lat ter</w>
lat er
later al</w>
lat ency</w>
last_ ts</w>
last -
lasso model</w>
las sifier</w>
langu age-
language- code</w>
langu age
lan g</w>
lan cast
lancast er</w>
lambdif y</w>
lagrange smethod</w>
lag poly</w>
lac ed</w>
labeled point</w>
label s}</w>
label s=none)</w>
label s/
label s'</w>
label s"</w>
label name</w>
label array</w>
label =false)</w>
labe led_
la strowid
l_ n</w>
l2- norm</w>
l- levels</w>
l }</w>
l w
l un
l uminosity</w>
l rd</w>
l jun
ljun g-
ljung- box</w>
l in</w>
l filter
l er-
ler- portugal</w>
l da</w>
l cm
lcm (
lcm( lm</w>
l ars</w>
l =
l 2
l 1-
l /
kw args}</w>
kw args)</w>
kur t</w>
kra ft</w>
kra ay</w>
kon no</w>
kolmogor ov-
knowle dge
knowledge ment</w>
kno ck
knock off</w>
km )</w>
kl (a</w>
kin d'</w>
kin d
kind ='
kil ls</w>
kick start</w>
keyword +
keyword+ value</w>
keyword 's</w>
keyp ad</w>
key- ful
key-ful ler</w>
key s}</w>
key func</w>
key ed
keyed tuple</w>
key board
ker ning</w>
ker -
ker- py</w>
keeplast checkpoint
keeplastcheckpoint =true
keeplastcheckpoint=true ):</w>
keepaliv e/
keepalive/ heartbeat</w>
keep_ input</w>
ked ast
kapp a1</w>
kapp a
kappa 3</w>
k_ 1</w>
k_ 0</w>
k[x _{p</w>
k[x ],</w>
k[ y][x_0</w>
k[ t</w>
k= 4</w>
k- tuples</w>
k- parse</w>
k- net/kik-net</w>
k wiatkowsk
k vars</w>
k v</w>
k queue</w>
k nu
k n
k gml</w>
k ex
k ened</w>
k ell
k el
kel vin</w>
k an
k a
k [x_0</w>
k [</w>
k =none</w>
k =2</w>
k =10</w>
k 0</w>
k '</w>
joint -
joint- feature</w>
join ed
job ids</w>
jo e</w>
jelly for}</w>
jedi ')</w>
jav a_
jaspar 5</w>
jar que-ber
j_ 5</w>
j_ 4</w>
j unctive</w>
j th</w>
j p</w>
j p
j mespath</w>
j elli
jelli er</w>
j ective</w>
j agg
jagg y</w>
j ab
jab ber</w>
j ])</w>
j ,</w>
i{sock_ stream}</w>
i{ x-forwarded-
i{ str}</w>
i{ start_response}</w>
i{ sigchld}</w>
i{ content-
iz e}</w>
iz ed
iz ation
iv ers</w>
iv ed</w>
ity 's</w>
iter values()</w>
iter items()</w>
items col="item
itemscol="item s",</w>
items col</w>
item s'</w>
item ,</w>
it y-
it match</w>
it ative</w>
it ()</w>
iss '</w>
isot onicregressionmodel</w>
isot onic</w>
iso morphism</w>
iso 8601</w>
iso -
is_ scalar_
is moduleallowed</w>
is instance</w>
is dir())</w>
is ation</w>
irreduc ibility</w>
irreduc ib
irreducib les</w>
ir fft</w>
ipv4 address</w>
ion record</w>
io ct
invok es</w>
inverse_ log_det_jacobian</w>
inverse =false</w>
inverse (
inver ts</w>
inver ses</w>
inv ite</w>
inv _
inv_ cov</w>
introdu ct
introduct ory</w>
introdu cing</w>
introdu ces</w>
intro spected</w>
interval '</w>
interpret s</w>
interp format</w>
intermediatestor agelevel</w>
interf ace
interce pts</w>
inter- mapper</w>
inter section-over-union</w>
inter laced</w>
inter change</w>
inter al</w>
inter act</w>
integr ating</w>
int_ div</w>
int_ 0
int_0 ^
int u
int ens
int ()</w>
instrum ented</w>
instance_ profile_name</w>
instance s)</w>
instance s's</w>
installed_ apps</w>
install ing</w>
install ation
installation candidate</w>
inspect ors</w>
inspect ed</w>
insp ects</w>
insert /
insert ,</w>
input_ tree</w>
input_ node</w>
input_ context</w>
input/ output</w>
input ted</w>
input splitter</w>
input signal)</w>
input col</w>
input col
inputcol s=none</w>
input ()</w>
inner- most</w>
inline formset</w>
initializ ations</w>
initial isation</w>
initi lize</w>
initi ating</w>
initi ates</w>
init steps</w>
init mode</w>
init ially</w>
init _op</w>
init /
inher its</w>
inher iting</w>
inher it</w>
ing_ to_
ing tmcpp</w>
ing ()</w>
info s</w>
info /
info/ warning/error</w>
inferen ce
inf lation</w>
inf erring</w>
ine legant</w>
index_ of</w>
index/ slice</w>
index able</w>
index 2</w>
index 1</w>
index )</w>
index 's</w>
independ ently</w>
incre mented</w>
incre ased</w>
inconsist encies</w>
inc ide</w>
in- view</w>
in- fn</w>
in validated</w>
in tr
in sum()</w>
in ode</w>
in lines</w>
in h</w>
in formations</w>
in et
in erti
inerti a</w>
in efficient</w>
in cr/
in consistent</w>
in circle</w>
in a</w>
impurity="variance ",</w>
impro v
import_ path</w>
implic it
implic ations</w>
implement ation
implementation ]</w>
imp uter</w>
imp ose</w>
imp l</w>
imp act</w>
images 2
image_ fonts</w>
image like</w>
image data</w>
imag enet</w>
imag ei
imagei o</w>
imag e/
im p</w>
im mutable
im g
im 1</w>
illustr ate</w>
illeg ally</w>
ill ary</w>
il s_
il legal</w>
ij s</w>
ij b
ijb els</w>
ifi er</w>
if urcating</w>
if updown2</w>
idx_ names</w>
idx_ list</w>
idx th</w>
identity_ multiplier</w>
identit y-map</w>
identifi er-
ide ally</w>
ide _
id/ name</w>
id/ locus</w>
id x)</w>
id get</w>
id es</w>
id at</w>
id _</w>
id _
id =none</w>
id *</w>
ic rs</w>
ib m</w>
ian **integer</w>
ializ es</w>
i18 n</w>
i- vigklas</w>
i- 64</w>
i* pi*
i upac</w>
i support</w>
i stance</w>
i si
i sc
i reactortcp</w>
i ra
i pythonapp</w>
i pynb</w>
i py</w>
i mag</w>
i like</w>
i in</w>
i ff_
i et
iet f</w>
i ch
i au</w>
i \inf
i 2
i 0*
i0* x1**i1*</w>
i *</w>
hyp h
hyph ens</w>
hyp er</w>
hy bri
hybri d_
human- friendly</w>
hum an
human "</w>
httpclient parser</w>
http/ 1</w>
htt ps
htt prequ
htt p_
htmprediction modelcontroldisable
html- escape</w>
htm classificat
htmclassificat ionrecord</w>
hostname ></w>
host name}</w>
host key</w>
host _from_
host_from_ gpu
host [:
host[: port]
host /path
host /
hook s()</w>
hook ed</w>
homogene ity</w>
holi days</w>
ho sted</w>
ho les</w>
hist ory_list</w>
hist or
highligh ting</w>
highligh ted</w>
hib it</w>
hex dumped</w>
heteros kedast
herrman n</w>
hermit ian**integer</w>
hen 's</w>
heli x</w>
hel ps</w>
hel per_c_code</w>
hel per
hel lo</w>
hel io
hel do
heigh ts</w>
hedr al</w>
header s}</w>
header )</w>
head s</w>
head er-
header- encode</w>
head ()</w>
he ssenberg</w>
he rent</w>
he lon</w>
he app
heapp ush</w>
hd fs</w>
haz ar
hazar ds</w>
hat _matrix</w>
hash er</w>
hash code</w>
has kell
has attr
hasattr ()</w>
has _re
has_re ])</w>
hard links</w>
har vey</w>
happ ening</w>
handle }</w>
handle query}</w>
hand ed</w>
han sen</w>
han do
hando ver</w>
hal f_
hado op-supported</w>
hack y</w>
h yperexponential</w>
h store</w>
h paramdef</w>
h packheaders</w>
h opefully</w>
h n</w>
h lo}</w>
h it
h h</w>
h drs</w>
h dr
hdr s_len</w>
h au
h ast
h apro
h ance
h ad
had am
hadam ard</w>
h [
h 5
h5 py</w>
h 3
guess ing</w>
guess ed</w>
guess _
guess_ payload_
guar ded</w>
gu ard</w>
grun feld</w>
gru cell</w>
group_ vars/</w>
group_ index</w>
group -list</w>
group ,</w>
ground truth</w>
gro wing</w>
grid ded</w>
grey scales</w>
greed yembeddinghelper</w>
graph_ def</w>
graph viz</w>
graph dump</w>
graph -level</w>
gradient -
gradient- boosted</w>
grad inputs</w>
grad _
grad *
grad* (x</w>
grad ()</w>
grad '</w>
grab bed</w>
gpu_ contiguous</w>
gpu elemwise</w>
gpu corr
gpu _from_
gpu ?</w>
gp a</w>
got ten</w>
good ness</w>
go to
go sper's</w>
gn utranslations()</w>
global_ step</w>
glo mer
gl f
glf w</w>
getsubscri ptions</w>
getnew news()</w>
getho st}</w>
getho stbyname}</w>
get_ pro
get_ list()</w>
get_ hdrs_len</w>
get/ create</w>
get xheader()</w>
get tablenames</w>
get source</w>
get scalars</w>
get registeredclients</w>
get readers}</w>
get doc</w>
get child</w>
get argspec</w>
get ()</w>
gesture container</w>
gest ures</w>
gest ion</w>
geometry field</w>
geometry collection</w>
geo transform</w>
geo m</w>
geo ip</w>
geno type</w>
generated_ obs</w>
generate_ tokens()</w>
gener ative</w>
gener ations</w>
gen_ spectral_ops</w>
gen etic</w>
gen b
genb au
genbau er</w>
ge q</w>
ge genbauer</w>
ge e</w>
gdal /
gdal/ ogr</w>
gc s</w>
gc p</w>
gaussian absor
gaussianabsor ption1d</w>
gaussian 1d</w>
gaussian ",</w>
gauss- laguerre</w>
gauss- chebyshev</w>
gaus s</w>
gar ch</w>
ga f</w>
g zipped</w>
g yr</w>
g uts</w>
g tk
g sv</w>
g libc</w>
g lib</w>
g leu</w>
g it
g ing
g ijbels</w>
g h
g er
g cr
gcr s</w>
g ate_
g ames</w>
g ame
g ains</w>
g ained</w>
g \}</w>
g 0</w>
g (\
g(\ alph
g(\alph a)</w>
g ''</w>
fuz ziness</w>
fuz z</w>
function }</w>
function quantity</w>
function ally</w>
function al
functional ities</w>
function _graph</w>
function '</w>
functio noptimizer</w>
func }</w>
func ,</w>
func )</w>
fun dam
fundam ental</w>
full_ path</w>
full -text</w>
ful fills</w>
fstruct 2</w>
frozen set</w>
fron tier</w>
fron t-
from string}</w>
from string_
from functionoptimizer</w>
from _name</w>
from "</w>
fri ed
fried man</w>
frequ ently</w>
freq _
free zes</w>
fre e()</w>
fram enet</w>
fragment s],</w>
fraction al
fr agg
fragg le</w>
forward_ log_det_jacobian</w>
forward/ inverse</w>
formula =none</w>
format("verbose "
format("verbose" ))</w>
format ted
format /
format ()</w>
form ing</w>
form -
foreign _
foreign_ keys</w>
fore ver</w>
fore st
forceindex label=false)</w>
force fully</w>
forb id
for_ update</w>
for ked</w>
for ced</w>
for ce_
foo ter</w>
fon tfamiliesex</w>
fon t_
follow er</w>
fold r</w>
fold l</w>
fol ders</w>
fol ded</w>
foc usable</w>
foc us_
fo queue</w>
fo ck
fock stateket</w>
fo cal
focal mechanism</w>
flush ed</w>
float64 s</w>
float64 multiply</w>
float type</w>
float )</w>
flo ordiv__</w>
flo or
flinn engda
flinn 196
flinn196 5
fli p_vector_to_matrix</w>
flex ibility</w>
flatt ening</w>
flat map</w>
flat idx</w>
fla v
fl ume</w>
fk 5</w>
fixed- length</w>
fix me</w>
fit s_rec</w>
first event
firstevent timestamp()</w>
finit eset</w>
finit ely</w>
finit e_
finite_ set</w>
finger printer</w>
find_ module</w>
find type()</w>
final storagelevel</w>
final izes</w>
fin ance</w>
fin alized</w>
filter _
fillna ></w>
fillna (
fillna( method='
fill_ values</w>
fill able</w>
fill ')</w>
filename ></w>
filen o()</w>
file_ rare</w>
file s/categories</w>
file s'</w>
file paths</w>
file path-like</w>
file obj'</w>
file io</w>
file _p</w>
file =</w>
file -
file *</w>
fil echo
field s'</w>
field ref</w>
field lenfield</w>
field ></w>
field -
field- specifier</w>
fic ate</w>
fi lemanager</w>
fi l</w>
fi foqueue</w>
fi de</w>
fi d</w>
fft shift</w>
fft *</w>
ff its</w>
fetch one()</w>
fetch head()</w>
fetch group()</w>
featuresubsetstrategy=" auto",</w>
featuresubset strategy</w>
features col</w>
feature_ range</w>
feature_ column</w>
feature index</w>
feature column</w>
feature -based</w>
fe ed_
family=" gaussian",</w>
false_ positives</w>
false_ negatives</w>
fall back
fake s3</w>
fake quantwithminmax
failure 's</w>
failu ret
fail ing</w>
factor ize</w>
factor int</w>
factor -
factor- structured</w>
facil itates</w>
fac* po
fa iry</w>
fa ir</w>
f- score</w>
f- beta</w>
f( p/q)</w>
f( exp_polar(2*
f(exp_polar(2* i*pi*
f x
f ws]</w>
f used</w>
f types</w>
f reshly</w>
f rench</w>
f r</w>
f pargs</w>
f ns</w>
f name</w>
f ly</w>
f ancy</w>
f an</w>
f aded</w>
f ;</w>
f *
f* y</w>
f "</w>
extract_ dir</w>
extract or</w>
extra_ vars</w>
extra_ rows</w>
ext }</w>
ext ent
expres s'</w>
expr tools</w>
expr _
exponenti ation</w>
explicit ely</w>
explan atory</w>
expl oring</w>
experim ents</w>
expect ed
expand _
exp(- x**2)</w>
exp o</w>
exp lict</w>
exp ens
expens ive</w>
exp (x
exo geneous</w>
exit ed</w>
exist ent</w>
execut em
executem any
execut able
exclu de_
exception }</w>
exception s"</w>
exce eds</w>
exce ed</w>
exc_ info</w>
ex posure</w>
ex istance</w>
ex hibit</w>
ex hau
ex e]</w>
ex e</w>
ex change_
exchange_ full</w>
event_ shape_tensor</w>
event loop</w>
event emitter</w>
event )</w>
event 's</w>
even ly</w>
eval_ points</w>
eul er-
eu i-64</w>
et ime</w>
et ime
et able</w>
estimator 's</w>
estimate anomaly
estimat e_
estimate_ magnitude</w>
establi shes</w>
ess ential</w>
esmtp client</w>
escap ing</w>
esc _
esc_ strings</w>
es *</w>
error }s</w>
error -
ero sion</w>
er },</w>
er n</w>
er k
er fa</w>
er ></w>
er -like</w>
ephemer als</w>
environ }</w>
environ ments</w>
environ ment
envelo pes</w>
enumer ates</w>
enumer ated</w>
enum fontfamiliesex</w>
enum ([
enum([ "
enum([" c",</w>
entry point</w>
entry (
entry( id</w>
entr y}</w>
enti rely</w>
ent ering</w>
ens ion</w>
enhan ced</w>
eng lish</w>
endo geneous</w>
end_ i
end er}</w>
end chars</w>
end ][,</w>
ency /
ency/ excess</w>
encryp tor</w>
encryp ed</w>
encoder specsstr</w>
encode d-
enco ding
encoding ()</w>
encaps ulating</w>
en_ us
en quiry</w>
en queues</w>
en hance
en force</w>
en counter</w>
en -
embedding_ lookup</w>
embedding column</w>
email message</w>
em iss
ellip sis</w>
ellip ses</w>
ellip se
ell -
ell- shaped</w>
elimin ator</w>
elimin ating</w>
elementwise ]</w>
elem wise
elect ric</w>
elasticnet param</w>
el se
el bs</w>
eg g_
effici ency</w>
effect ively</w>
edit ed</w>
edge [
edge[ 0
edge[0 ]
edge[0] ->
ed_ data</w>
ed its</w>
ed function</w>
ed error}</w>
ed credential
edcredential s}</w>
ed ],</w>
ect ing</w>
ec itmatch</w>
[...]
