t h
r e
i n
th e</w>
e n
e r
t i
u r
c o
a n
s t
a r
e s</w>
o n</w>
a t
a l
d e
d e</w>
u n
f i
e c
re t
e r</w>
c h
i s</w>
o r</w>
o f</w>
o n
o r
t o</w>
in g</w>
e d</w>
l e</w>
ti on</w>
l i
ret ur
a c
a s
r o
e n</w>
i t
e t
s i
retur n
a m
e l
d i
return s</w>
ま す</w>
a d
en t
e t</w>
i n</w>
co n
m a
l o
l a</w>
e s
u e</w>
e x
e m
th is</w>
a b
re s
u m
o b
p o
r a
v al
u s
an d</w>
f un
a n</w>
en t</w>
st r
u l
s p
u t
r i
q u
a s</w>
c i
e l</w>
u n</w>
n o
a l</w>
g i
a t</w>
f or</w>
s o
p ar
co m
d o
i fi
p ro
c tion</w>
v er
ob j
l e
v e</w>
i s
u r</w>
t er
ec ifi
d at
i f</w>
f or
n am
c e</w>
m o
a r</w>
s e
re n
fun ction</w>
t r
p er
g e</w>
i t</w>
sp ecifi
i l
n e
str ing</w>
obj ec
w it
w h
u t</w>
wit h</w>
val ue</w>
s t</w>
a tion</w>
f ro
c al
m e
v i
s e</w>
c ur
b y</w>
c l
fro m</w>
s er
th at</w>
ti on
n um
ar ra
( )</w>
返 し</w>
objec t</w>
t s</w>
el em
s u
l es</w>
c re
a p
e st
specifi ed</w>
v en</w>
ab le</w>
t a
t e</w>
gi ven</w>
f f
a et</w>
i ma
d s</w>
r e</w>
ent s</w>
re c
nam e</w>
fi le</w>
c h</w>
ac t
et s</w>
p l
v o
in e</w>
arra y</w>
n e</w>
p res
b e
re a
q ue</w>
th o
o ur
i m
o p
b u
un e</w>
de f
co de</w>
cur ren
g e
i d
lo c
k e
at e</w>
t o
s et</w>
a v
retur n</w>
c e
l '
l y</w>
ar g
y p
b o
t e
an d
re s</w>
m e</w>
de r</w>
at es</w>
as e</w>
h ch
s y
si on</w>
un a</w>
me tho
p a
b er</w>
ar i
p re
u c
ch ar
u el
b i
res ul
ad o</w>
an t</w>
li st</w>
b e</w>
d on
t yp
i z
ci on</w>
curren t</w>
tr ue</w>
i a</w>
es t</w>
num ber</w>
o s</w>
con t
d '
ret our
cl as
al l</w>
de v
retour ne</w>
l en
m at
in g
dev uel
co l
d ing</w>
m in
s h
ne w</w>
arg um
devuel ve</w>
u s</w>
re pres
d es</w>
s c
u p
tion s</w>
p or
e v
th er</w>
o l
b y
in de
de l</w>
par am
c es
in ter
def in
s ets</w>
typ e</w>
com p
ce p
ch i
l a
for ma
param et
e m</w>
st an
en ti
p ut</w>
re ad
ex t</w>
ad a</w>
l ec
d an
it er
s a
i on</w>
v ari
po si
a ch
dat a</w>
at ed</w>
repres ent
it s</w>
ur e</w>
ima ge</w>
ac e</w>
t or
n i
p h
指 定</w>
co r
s i</w>
elem ent</w>
wh i
en i
n o</w>
bu ff
ke y</w>
am e</w>
i d</w>
cal l
po in
p at
con n
er r
metho d</w>
フ ァ
e i
whi ch</w>
k t
r as
o ut
g n
c k
act er</w>
l en</w>
t ed</w>
di rec
com m
at or</w>
g en
k o
l in
す る</w>
e ur</w>
no t</w>
er o</w>
r it
on e</w>
par a</w>
ti me</w>
fi el
clas s</w>
ファ イ
re qu
f on
es p
ent e</w>
p ri
er e</w>
cre ates</w>
val u
in to</w>
char acter</w>
ar e</w>
as so
st rea
strea m</w>
de n</w>
v er</w>
ta in
rea d</w>
vo z
ex cep
u m</w>
i c
s es</w>
n y
hch aet</w>
s q
d o</w>
di e</w>
w rit
d u</w>
t er</w>
voz v
vozv ras
er s</w>
al iz
l u
a i
u ti
pro ces
re mo
no m
ent r
t h</w>
id enti
か ら</w>
vozvras hchaet</w>
sc ri
g er</w>
do c
d ur
g o</w>
us ed</w>
h o
co n</w>
p i
ex ec
c u
p on
t es</w>
u p</w>
asso ci
str uc
k s</w>
h as
buff er</w>
con ver
at t
fun cion</w>
m em
si m
p e
re d</w>
inde x</w>
p r
ファイ ル</w>
ジ ェ
uti li
w i
con tain
lo s</w>
in stan
conn ec
p or</w>
us ing</w>
is e</w>
for m
po ur</w>
in i</w>
elem ents</w>
e ren
doc um
resul t
e d
m et
dan s</w>
ク ト</w>
b ase</w>
ブ ジェ
オ ブジェ
ti ve</w>
n a</w>
オブジェ クト</w>
h and
bi r</w>
ac ion</w>
direc tor
v es</w>
su b
ac k</w>
in te
a u</w>
k e</w>
o per
ut e</w>
p u
in di
en d
ar y</w>
ter min
so ck
w or
loc k</w>
: :
t or</w>
t ab
関 数</w>
be li
o u</w>
pat h</w>
et e</w>
h t
en e</w>
de d</w>
c es</w>
beli r
b in
取 得</w>
un d</w>
err or</w>
em ent</w>
c lo
y s</w>
s el
st ar
b as
vari able</w>
e c</w>
a g
e qu
argum ent</w>
p li
d u
resul t</w>
gen er
設 定</w>
fiel d</w>
er t</w>
r u
こ の</w>
t y</w>
fi r
en ce</w>
a u
d er
z h
b ut</w>
f in
p ar</w>
belir ti
si gn
fon ction</w>
posi tion</w>
ma p</w>
de scri
t ext</w>
ch a
ex t
' s</w>
s et
belirti len</w>
ad d
w a
t able</w>
a d</w>
valu es</w>
res pon
re f
l as
se qu
rec u
li st
m es
le v
現 在</w>
p as
identi fi
l i</w>
g ets</w>
v y
fi l
est a</w>
recu per
ut es</w>
by tes</w>
u al</w>
nom b
m l</w>
fir st</w>
st at
inte ger</w>
est ab
ch ec
r an
kt si
in forma
i u</w>
t ing</w>
h e
z i
ver sion</w>
e in
ー タ</w>
in i
tr an
en d</w>
g et
v e
ac h</w>
k i</w>
instan ce</w>
i st
b le</w>
in put</w>
fun ktsi
文 字</w>
cl u
ch an
wh en</w>
h as</w>
g en</w>
en co
ー ド</w>
don ne
un i
en to</w>
read s</w>
don dur
sock et</w>
h a
l ine</w>
ge b
an y</w>
ser ver</w>
re gi
pr in
ti ene</w>
et te</w>
g et</w>
a z
ul ti
wh e
forma t</w>
whe ther</w>
p o</w>
iter ator</w>
c an</w>
ar chi
qu er
po l
th read</w>
out put</w>
dondur ur</w>
poin t</w>
estab lec
st ro
mo de</w>
w in
us hch
su p
ni l</w>
ス ト</w>
fi chi
esp ecifi
def a
w ise</w>
o t
g ro
av ec</w>
g in
f al
c a
for mat
c ar
mes sa
or y</w>
especifi c
sy st
l an
it y</w>
st o
si z
o ther</w>
fi len
de s
ac ter
tran s
nomb re</w>
c ach
il l</w>
has h</w>
e ach</w>
co ur
att ri
v o</w>
n on
donne es</w>
k h</w>
entr y</w>
m as
po s
dat e</w>
p p
di z
w e
us e</w>
sequ ence</w>
m i
recuper e</w>
or e</w>
g h
a ge</w>
filen ame</w>
r on
o th
m ent</w>
s ch
a f
w ill</w>
lo w
defa ul
proces s</w>
l as</w>
dat ab
comm and</w>
d a</w>
sq l</w>
イ ン
val or</w>
cor respon
director y</w>
and o</w>
fichi er</w>
画 像</w>
ッ ト</w>
e e</w>
l er</w>
char acter
m an
b lock</w>
ac k
dat e
m ar
nam ed</w>
ing s</w>
re e</w>
n ach
k i
descri p
con struc
em p
datab ase</w>
se e</w>
s or
t w
s er</w>
ima gen</w>
g ra
ph p</w>
o ut</w>
or i
di sp
ul l</w>
li ke</w>
excep tion</w>
so ur
o ff
num ero</w>
co p
v a</w>
o c
l et
fi c
ser i
s ur</w>
si on
ti me
represent ation</w>
m en
docum ent</w>
establec e</w>
add res
ッ ド</w>
oth er
argum ents</w>
f lo
associ ated</w>
qu i</w>
connec tion</w>
c ette</w>
remo ves</w>
por t</w>
obj et</w>
ob tiene</w>
n u
fal se</w>
siz e</w>
con fi
f o
contain ing</w>
it e</w>
g u
character s</w>
b t</w>
attri b
for m</w>
defaul t</w>
av li
act ual</w>
ョ ン</w>
sy m
li a</w>
tab le
ser vi
ー ス</w>
い る</w>
messa ge</w>
in clu
ap p
a ti
t a</w>
s ed</w>
ini ti
s o</w>
len g
ar a
met o
se con
other wise</w>
字 列</w>
t ra
m it</w>
syst em</w>
ro w
obj e
m on
ad ds</w>
tw o</w>
st r</w>
no de</w>
l er
fi ch
a ut
x ml</w>
so l
s ti
g es</w>
ch es</w>
ン ト</w>
ex ion</w>
ci a</w>
文 字列</w>
win do
qu e
op en
leng th</w>
ex ist
pl ac
fi le
t an
pl em
l on
k es</w>
li b
sym bo
las t</w>
col lec
メ ソ
s ec
ma x
d' un</w>
d a
メソ ッド</w>
ur uc
addres s</w>
f r
s in
mo di
eni e</w>
ad os</w>
gi bt</w>
t p</w>
z uruc
re g
p ut
l s</w>
in ser
si a</w>
s ame</w>
us er</w>
m ulti
cha ine</w>
an te</w>
metho de</w>
lo cal
lin k</w>
informa tion</w>
z a
en vi
st ate</w>
gi c
t en</w>
sp ec
f t</w>
eni ia</w>
ar d</w>
paramet er</w>
e ine</w>
a j
v aet</w>
non -
ur s</w>
st ack</w>
g es
ref eren
am p
a il
で す</w>
hand le</w>
confi g
ne w
n ext</w>
d' une</w>
d lia</w>
ci on
c an
s a</w>
off set</w>
en ds</w>
e k
dat os</w>
by te</w>
pro per
do c</w>
cre ate</w>
m y
zuruc k</w>
i le</w>
cont ents</w>
c ation</w>
obje to</w>
inter n
com o</w>
c a</w>
ad or</w>
im plem
e f
作 成</w>
ー ジ</w>
us t</w>
fun k
table au</w>
sour ce</w>
k ing</w>
elem ent
de termin
al i
quer y</w>
on ly</w>
is lev
プ ロ
el le</w>
col or</w>
c li
z ei
l es
sim il
n ull</w>
lo g
chec ks</w>
b ack</w>
en en</w>
tion al</w>
l am
j ec
c ap
z ad
ver ifi
i e</w>
gh t</w>
si st
sh o
g r
er i
do sy
c am
i val
conver ts</w>
com pa
s es
objec ts</w>
ke y
res our
r un
gro up</w>
defin ed</w>
y i</w>
ur l</w>
i o</w>
d as</w>
z nach
writ es</w>
no m</w>
loc al</w>
ge geb
デ ータ</w>
シ ョン</w>
ma l</w>
f ai
val eur</w>
v ec
do s</w>
co un
at ing</w>
e -
equ ival
cont en
w as</w>
ser v
n ing</w>
u g
se ar
s on</w>
que ue</w>
per m
li t</w>
funktsi ia</w>
exec ut
c ul
requ ete</w>
id o</w>
e ff
di s
sel f</w>
ret ri
fich ero</w>
cach e</w>
t ur
pu is</w>
k on
est e</w>
de p
d ado</w>
u k
in st
込 み</w>
i r</w>
cop y</w>
ac tion</w>
ul d</w>
pat ter
ab les</w>
a der</w>
th an</w>
ser ver
s on
ret or
d _
al loc
ス ト
pa th
funk tion</w>
c as
windo w</w>
qu i
フ ォ
re l
ac ti
re plac
ny i</w>
li g
l o</w>
e res</w>
要 素</w>
エ ン
te k
or der</w>
disp la
call ed</w>
s ing
ke ys</w>
ex pres
enco ding</w>
en a</w>
e ()</w>
collec tion</w>
し て</w>
l ar
ur i</w>
par ti
ー ル</w>
pro ce
名 前</w>
g o
fi les</w>
de puis</w>
y ing</w>
pre vi
k li
ac t</w>
コ ード</w>
v on</w>
or d
ッ ク</w>
es e</w>
al ly</w>
st and
is t</w>
cre e</w>
cal l</w>
patter n</w>
excep t</w>
デ ィ
ら れ</w>
lo b
identifi er</w>
con di
car act
b it</w>
archi vo</w>
場 合</w>
ー タ
im um</w>
call s</w>
ar g</w>
れ る</w>
wh ere</w>
u v
t en
pi x
writ e</w>
ti m
de ci
un g</w>
pe re
caract eres</w>
t ly</w>
t _
ac ces
z o
or s</w>
op tion</w>
in form
ト リ</w>
simil ar</w>
re cor
oper ation</w>
k u</w>
b er
あ る</w>
re cur
b ack
ap pli
ー ル
spec i
gic k</w>
ge m</w>
e _
a y
サ ー
と して</w>
utili s
o t</w>
l ed</w>
especific ado</w>
di c
con s
結 果</w>
star t</w>
el y</w>
po st
m a</w>
in in</w>
fun c
correspon ding</w>
配 列</w>
r o</w>
n a
meto do</w>
h er
ext en
em s</w>
使 用</w>
seri aliz
requ est</w>
pro vi
pl ace</w>
me di
c er
m ac
et sia</w>
wh o
do es</w>
し い</w>
mat ch</w>
envi ron
e urs</w>
be en</w>
sq l
in f
aut o
af ter</w>
zei ch
t ()</w>
retor na</w>
p s</w>
iter at
et a</w>
er a</w>
ac cep
デ ータ
u st
serv eur</w>
mem ory</w>
d b
cour ant</w>
al g
l' image</w>
h i
f ace</w>
el l</w>
ー ト</w>
ッ ク
ス タ
t em
poin ter</w>
lo b</w>
defin it</w>
c ase</w>
ン ス</w>
tek ushch
si ve</w>
no go</w>
col um
attrib ute</w>
arra y
symbo l</w>
represent ing</w>
f ol
f act
ad as</w>
読 み
v an
paramet re</w>
lon g</w>
it em</w>
il i</w>
ha ve</w>
am p</w>
バ イ
ク エ
uk az
t ure</w>
mat ri
f et
cal ly</w>
bi g
uni code</w>
modi fi
i z</w>
ht tp</w>
conn exion</w>
nu ev
lo ad
equival ent</w>
descrip tor</w>
conver t</w>
b li
そ の</w>
zad an
s ing</w>
inform acion</w>
esp ace</w>
e in</w>
compa res</w>
wi tho
witho ut</w>
vec tor</w>
s s
ko tor
k ed</w>
islev i</w>
di ff
cre a</w>
co di
return ed</w>
mo du
li ef
in vo
i l</w>
en c
str ings</w>
si ble</w>
retri ev
lief ert</w>
indi ce</w>
ex p
ch e</w>
bo o
who se</w>
s or</w>
ro w</w>
nam es</w>
i p</w>
av ail
ara k</w>
新 しい</w>
previ o
ny kh</w>
i p
b et
t am
stat us</w>
proce d
o ci
lo o
kli u
ari o</w>
sy n
sion s</w>
proced ure</w>
lev el</w>
e valu
comp on
cal end
t as
regi st
m ore</w>
deci mal</w>
an a
調 べ</w>
メ ッ
メッ セ
セ ット</w>
u tion</w>
stand ard</w>
ma pp
al s</w>
実 行</w>
呼 び
呼び 出
ク ラ
u z
ra di
i i</w>
e li
avail able</w>
データ ベ
form s</w>
ent ation</w>
y a</w>
wa it
str u
n ec
ai re</w>
リ スト</w>
to k
th ere</w>
ta kes</w>
sel ec
result at</w>
mas si
m it
in t</w>
de gi
d or</w>
chan ge</w>
an other</w>
y e</w>
t ex
ev ent</w>
do m
di g
zi p</w>
un to</w>
resour ce</w>
fiel ds</w>
e go</w>
追 加</w>
情 報</w>
v al</w>
re n</w>
g er
diff eren
b ri
an gegeb
フ ィ
represent ed</w>
o ver</w>
i li
he ader</w>
f u
f la
ec h
des de</w>
de m</w>
we en</w>
environ ment</w>
defin i
config ur
condi tion</w>
bet ween</w>
th row
ri es</w>
po lu
p t</w>
o ver
inf o</w>
a tions</w>
変 換</w>
ー ム</w>
に 対
p er</w>
l us
com par
ch is
b it
wi th
str i
servi dor</w>
n s</w>
mo d
is pol
el s</w>
au f</w>
メッセ ージ</w>
ver i
polu ch
modu le</w>
fr ame</w>
est s</w>
eff ec
d ra
接 続</w>
メ ント</w>
z u
w n</w>
retriev es</w>
ran ge</w>
n or
do m</w>
de let
contain s</w>
ch er</w>
y ou</w>
verifi e</w>
ti fic
m ust</w>
expres sion</w>
c ad
an al
ン ド
ter m
sing le</w>
no i</w>
i r
ho st</w>
cour ante</w>
ー ジ
バ ー</w>
th en</w>
ta il
ses sion</w>
op tions</w>
call back</w>
か ど</w>
z u</w>
un d
secon ds</w>
re m
n es
j av
g _
er re
be gin
b loc
remo ve</w>
o m</w>
indi c
et re</w>
em e</w>
cl a
イ テ
t -
sho uld</w>
s en
paramet ers</w>
m i</w>
cont ro
a k
z ero</w>
s u</w>
proper ty</w>
li c
j e
in her
id a</w>
flo at</w>
equ al</w>
aj out
データベ ース</w>
ti po</w>
ob ra
o f
l lam
ht ml</w>
func tions</w>
f eren
e jec
com pl
archi ve</w>
y i
po s</w>
hand ler</w>
fi x</w>
d y</w>
an s</w>
al low
u stan
le as
clo ses</w>
chec k</w>
c at
a tive</w>
キ ー</w>
t up
path name</w>
par ser</w>
no uv
intern al</w>
coun t</w>
cons ul
ch il
ac tive</w>
th reads</w>
metho ds</w>
le ft</w>
inher it
f a
ein en</w>
cu bri
com pres
定 義</w>
un ti
unti l</w>
mod ul
initi aliz
cont ext</w>
削 除</w>
wor d</w>
wait ing</w>
s k
r up
pa ren
exec ution</w>
e i</w>
comp utes</w>
re al</w>
pa ge</w>
ny e</w>
ma ti
lo g</w>
g re
emp ty</w>
cad ena</w>
ac cor
a etsia</w>
w id
tr ac
t u
referen ce</w>
k ul
znach enie</w>
z t</w>
non- nil</w>
j o
inde x
co de
clo j
tion n
st ati
return ing</w>
o der</w>
max imum</w>
kul lan
curren tly</w>
calend ar</w>
arra ys</w>
v ar</w>
str ing
sh i
prin t</w>
p d
m o</w>
g s</w>
fi x
d ada</w>
cloj ure</w>
c r
buff er
a in
サー バー</w>
wi de</w>
so z
s ine</w>
ob j</w>
f er
do u
di ese</w>
cion es</w>
bu il
bas ed</w>
ab out</w>
_ name</w>
出 力</w>
with in</w>
ri r</w>
mat ch
ma y</w>
kliu ch
informa tions</w>
ho st
bin d
bin ary</w>
b its</w>
変 更</w>
処 理</w>
る い</w>
な い</w>
あ るい</w>
y le</w>
vari ables</w>
ul ar</w>
local e</w>
for e</w>
f d</w>
der ni
de vi
de l
co ul
star ting</w>
par t</w>
fol low
ch ar</w>
キ ュ
に よ
た め</w>
regi str
op en</w>
l' objet</w>
inherit doc</w>
f ac
determin es</w>
comp le
位 置</w>
us es</w>
si g
ra pp
ic in</w>
be fore</w>
as oci
accor ding</w>
ab le
w ar
t ree</w>
sup por
oc curren
my sql</w>
g lob
e b
comp ut
call ing</w>
par ses</w>
o res</w>
l ing</w>
exten sion</w>
exec ute</w>
co pi
全 て</w>
utili see</w>
p us
num eri
k las
jav a</w>
f our
dosy a</w>
au x</w>
ajout e</w>
ad d</w>
acti v
ファイ ル
ス テ
t est</w>
stro ku</w>
secon d</w>
pro veri
p y
le g
i gn
i g
i es</w>
h es</w>
g res
よ び</w>
よ う</w>
ver ti
val id</w>
su ch</w>
requ i
n '
f y</w>
di r</w>
descri b
読み 込み</w>
引 数</w>
属 性</w>
レ ク
クラ ス</w>
エ ラ
お よび</w>
y vaet</w>
up dat
specifi e</w>
sear ch</w>
re de
r ab
pu e
m ut
les s</w>
h ol
fo und</w>
f e
esp ac
erre ur</w>
cer tific
at s</w>
at ri
alloc ated</w>
ま た</w>
to us</w>
r d</w>
pri m
m al
inser ts</w>
i ushch
e re
c le</w>
ラ メ
パ ラメ
zi p
struc ture</w>
s cal
re ch
perm is
ma in</w>
f ra
d aet</w>
c ri
a kt
ッ シ
オ ー
specifi es</w>
mo st</w>
lig ne</w>
ev ent
con exion</w>
与 え</w>
セ ス</w>
to dos</w>
t el
sign ed</w>
result ado</w>
r un</w>
pri me</w>
pli ed</w>
mem cach
matri x</w>
m p</w>
inter rup
inter face</w>
fact ory</w>
e k</w>
w er
te ur</w>
t ext
ri ght</w>
proveri aet</w>
pix el</w>
nec es
ma s</w>
ex clu
ord in
num $</w>
ma in
is le
in a</w>
ima gick</w>
dep end
cal cul
$ num$</w>
z ap
ut a</w>
s ends</w>
r doc</w>
pas sed</w>
n er</w>
en cia</w>
d uc
boo le
レ ータ</w>
wa it</w>
st or
s av
res ol
qu '
pri v
per i
op rede
i avli
f -
em a</w>
date i</w>
con j
clas ses</w>
b el
att emp
可 能</w>
ー カ
フィ ール
u d
th ei
termin al</w>
sup plied</w>
stat ement</w>
specifi cation</w>
p le</w>
ol arak</w>
n et
i m</w>
entr ada</w>
e g
defin es</w>
construc tor</w>
chan ges</w>
a us</w>
ukaz an
u iu</w>
u ber
r a</w>
ph ar</w>
ny m</w>
lin e
l -
it ems</w>
funktsi i</w>
ev en
de que</w>
compon ent</w>
am ente</w>
ab sol
形 式</w>
wid th</w>
v ed</w>
us er
thei r</w>
tas k</w>
rel ation</w>
pro x
pro to
pro pri
m s
f re
f lu
displa y</w>
consul ta</w>
bo x</w>
an o</w>
al ity</w>
バ ッ
yi el
ti es</w>
ra is
pue de</w>
pu bli
per sist
per forms</w>
paramet ro</w>
i c</w>
elem ento</w>
dat en
cli ent</w>
angegeb enen</w>
utilis ant</w>
scri pt</w>
s ob
s ()</w>
posi cion</w>
o z
mat ches</w>
i on
gra m</w>
e red</w>
de t</w>
akt uel
a k</w>
イン スタ
typ es</w>
t al</w>
ref lec
ma il
ko m
implem ents</w>
i ia</w>
ha y
di stri
cubri d_
configur ation</w>
com me</w>
at o
acces s</w>
インスタ ンス</w>
vi e
to utes</w>
tail le</w>
st in
p ret
ori th
list e</w>
la z
k h
en vo
eb a</w>
c s
c al</w>
alg orith
a p</w>
パ ス</w>
エン トリ</w>
wor k</w>
us ly</w>
un u</w>
ul t
tup le</w>
tr ace</w>
se par
q l</w>
p ack
devi ce</w>
d l</w>
ch t</w>
b u</w>
avli vaet</w>
w s</w>
th em</w>
t ests</w>
ob ek
ne g
lin k
i ento</w>
hay stack</w>
eli min
dou ble</w>
da y</w>
co o
anal y
al mac
ソ ース</w>
wor ds</w>
sign al</w>
si iu</w>
se u
ru eba</w>
re z
r f
pres ent</w>
pre pa
poluch aet</w>
ob ten
nu iu</w>
lo ad</w>
lin es</w>
iterat or
im e</w>
ent ree</w>
comp rueba</w>
c ada</w>
attrib utes</w>
an g
ac qui
a us
書 き
フィール ド</w>
v ar
ust ur
stro ki</w>
sq li
sp ace</w>
so me</w>
seri es</w>
pri or
per bo
h a</w>
en ding</w>
ei ther</w>
di vi
coo ki
c le
au th
as ci
act u
コ ール</w>
sim vo
ru et</w>
r ary</w>
prin ts</w>
m is</w>
k ho
inst al
gr am
d en
cur sor</w>
con stru
b ers</w>
a _
ユ ー
プ ル</w>
イテ レータ</w>
th e
su c
respon se</w>
py th
pre feren
li ch
gra ph
exec utes</w>
di r
at eur</w>
am i</w>
# t</w>
生 成</w>
リ ン
コ ン
こ と</w>
y -
time st
su s</w>
sto res</w>
s ur
recor d</w>
read y</w>
pa ir</w>
no t
n et</w>
li aet</w>
l ar</w>
has h
h al
en um
cam po</w>
be ing</w>
スト リ
zeich en
y e
v is
ustan avlivaet</w>
term ine</w>
st ore</w>
se g
resul ts</w>
pyth on</w>
pre dic
post gres
nuev o</w>
lu a</w>
j son</w>
it u
degi sti
d -
config ure</w>
boole an</w>
ポ イン
テ キ
ッシ ュ</w>
ック ス</w>
za pro
u ve
tan g
s um
pro gram</w>
pas s
n one</w>
mo ves</w>
m ente</w>
lo w</w>
je u</w>
ispol zu
inser t</w>
iavli aetsia</w>
h y
delet es</w>
cu ando</w>
co re</w>
up date</w>
tem por
ta in</w>
t ro
soz daet</w>
so der
ra z
obra zh
num er
fin ds</w>
f ail
et es</w>
e ve</w>
director y
cont ent</w>
absol ute</w>
ab str
_ identifier</w>
_ get
同 じ</w>
プロ セス</w>
パラメ ータ</w>
ディ レク
w ert</w>
vy pol
ve ya</w>
val ores</w>
si i</w>
pl at
paren t</w>
isle v</w>
f ur</w>
ent ries</w>
distri bu
cre ated</w>
b lo
ー プ</w>
リ クエ
イ ズ</w>
vo l
vi r
vari ant</w>
sp l
sh a
postgres ql</w>
po d
par se</w>
out put
li c</w>
j ust</w>
is ti
fai la</w>
docum ento</w>
coul eur</w>
contain ed</w>
al ph
呼び出 さ</w>
ノ ード</w>
テ ー
utili se</w>
us u
st re
recur si
provi ded</w>
oper and</w>
open s</w>
mar k
follow ing</w>
ec ted</w>
e ver
con st
clas se</w>
bo und</w>
ド キュ
つ い
つい て</w>
z one</w>
z a</w>
vi a</w>
ug h</w>
sh or
pro duc
pl y</w>
leas t</w>
ko d
in put
i ti
fon c
comm ent</w>
cal cu
aliz a</w>
al e</w>
ab ili
リ ソース</w>
v et
s _
previo us</w>
jec t</w>
j o</w>
in cre
ho o
gin a</w>
conten ant</w>
b ut
バイ ト</w>
vie w</w>
uni x</w>
ran dom</w>
pro gram
o l</w>
m ime</w>
j a</w>
he ad
gre at
f tp</w>
ex p</w>
ent re</w>
codi fic
cla ve</w>
bo dy</w>
big integer</w>
asci i</w>
argum ent
ana de</w>
に ついて</w>
zo v
z e
tex to</w>
sp ec</w>
sob re</w>
servi ce</w>
sec tion</w>
rez ult
pl us</w>
p -
op tional</w>
on i
objec t
mapp ing</w>
iz obrazh
fet ch
especific ada</w>
de cl
construc ts</w>
chil d</w>
attemp ts</w>
at a</w>
a m</w>
ー ト
ク リ
us ando</w>
timest amp</w>
th read
ta g</w>
specifi c</w>
sock et
s amp
ro ot</w>
por tion</w>
no e</w>
ma gick</w>
load s</w>
for me</w>
flo at
fai l</w>
f ul
exist ing</w>
enum er
docum ent
diz ges
directory iterator</w>
begin ning</w>
閉 じ</w>
ver se</w>
tok en</w>
tion en</w>
ti v
tam ano</w>
t ar</w>
repres ents</w>
re la
pro t
predic ate</w>
nam espace</w>
n el</w>
ing -
in de</w>
h el
exist s</w>
es cap
e po
derni ere</w>
def ine</w>
c as</w>
bo th</w>
app ends</w>
# f</w>
ハ ンド
w ur
tan im
speci al</w>
sor ti
s al
run ning</w>
pre fix</w>
p as</w>
or ac
occurren ce</w>
neces s
ma kes</w>
k um
i re</w>
g ec
equ ality</w>
ein er</w>
diz ge</w>
cr yp
con tr
avli aet</w>
ab aj
シ ステ
クエ リ</w>
uber geb
si m</w>
row s</w>
result ats</w>
reg ular</w>
previo usly</w>
pos sible</w>
m u
m p
li mit</w>
k al
implem entation</w>
fla gs</w>
del ete</w>
d an</w>
comput ation</w>
cl ase</w>
整 数</w>
含 む</w>
ドキュ メント</w>
オ プ
ど う</w>
w o
ut f-
un der
trans action</w>
t arg
st yle</w>
s n
ri p
replac es</w>
quer y
o b</w>
massi v</w>
k ara
in t
im medi
glob al</w>
distribu tion</w>
de bu
codi go</w>
big decimal</w>
b or
auto mati
_ _
リクエ スト</w>
フォ ル
val eurs</w>
th ro
t y
s ki
s -
over ri
obek t</w>
mem ber</w>
match ing</w>
m is
j u
inst e
inste ad</w>
identifi ant</w>
gro up
fin d</w>
exclu sive</w>
elimin a</w>
ein em</w>
du g
conj unto</w>
ch amp</w>
ca o</w>
表 現</w>
ディレク トリ</w>
タ プル</w>
オプ ション</w>
す べ</w>
tr abaj
thro ugh</w>
th ing</w>
ter n
t ar
ro s</w>
ra v
p rec
nuev a</w>
nouv elle</w>
meto d</w>
men sa
ma ch
l _
g ing</w>
err or
di men
descrip cion</w>
depend enc
de ger
copi es</w>
cooki e</w>
colum n</w>
ch ron
ato mi
ain st</w>
ag ainst</w>
終 了</w>
直 近</w>
変 数</w>
マ ッ
zeichen k
z er
ustur ur</w>
us a</w>
t ri
stre am
set zt</w>
priv ate</w>
p un
necess ary</w>
he ad</w>
evalu ates</w>
ent es</w>
enco ded</w>
e ti
e es</w>
b il
at ure</w>
al ready</w>
. .
y az
um a</w>
sql _
s lo
s hch
regi on</w>
pos le
ori gin
list a</w>
ler i</w>
la y
i f
g ar
don er</w>
do wn</w>
comp il
abstr act</w>
ヘ ッ
テキ スト</w>
に 関
wor k
wi rd</w>
w en
tionn aire</w>
sup prime</w>
ss l</w>
sa ti
s em
ra w</w>
orac le</w>
num bers</w>
ne ed
mach ine</w>
list s</w>
i v
hy perbo
hoo k</w>
h dl</w>
format ted</w>
exist e</w>
er te</w>
di sc
degisti r
c el
b en
ー ス
も の</w>
な る</w>
zap is
ti fi
the y</w>
stor age</w>
result ados</w>
qu o
numeri c</w>
new ly</w>
need le</w>
ne ur
lu a_
inclu ding</w>
ima ge
f ull</w>
f n</w>
ex tr
ein es</w>
e p
contro l</w>
a ia</w>
a di
関 連</w>
書き 込み</w>
ポ ート</w>
ストリ ーム</w>
zeichenk ette</w>
y on
tekushch ego</w>
tan iti
sto red</w>
spl file
rec ei
proper ties</w>
poin ts</w>
on g</w>
min imum</w>
ko di
ip v
g ed</w>
fon t</w>
f lus
ever y</w>
differen ce</w>
date time
dan nykh</w>
conver ti
certific ate</w>
送 信</w>
ージ ョン</w>
モ ード</w>
ヘッ ダ</w>
バ ージョン</w>
vy i</w>
u x</w>
sc an
proto co
posi tional</w>
p unto</w>
open ()</w>
oc t
obten er</w>
ob e
neg ative</w>
memcach ed
memcached ::
mail box</w>
inter pret
gener ates</w>
g el
do main</w>
de stin
cam bi
b us
app el
ジ ュ
za h
vir t
v u
v en
u es</w>
to das</w>
throw s</w>
so ap
ru by</w>
ro ut
ro un
publi c</w>
pr u
o us</w>
net work</w>
n it
mensa j
mas k</w>
ic al</w>
i so
h or
ge ar
disp oni
cur l</w>
arg s</w>
付 け</w>
テー ブ
エラ ー</w>
そ れ</w>
w at
ug t</w>
so ed
s us
qu es</w>
po z
persist ent</w>
p al
or it
m ent
initi al</w>
gi ck
g i</w>
fun cao</w>
es li</w>
decl ar
cul ar</w>
comple x</w>
comp ute</w>
at ely</w>
an ds</w>
allow s</w>
a qui</w>
プ ン</w>
シ ー
サ イズ</w>
オー プン</w>
と き</w>
ye ar</w>
w ard</w>
val i
taniti ci
specifi ee</w>
sch lus
s ent
obe kt
messa ges</w>
m t</w>
l ying</w>
h ar
f an
en i</w>
di re
den o
co m</w>
ch em
b an
ap i</w>
ali as</w>
a re
ラ ム</w>
モ ジュ
wa ys</w>
sear ches</w>
rapp el</w>
r p
prox y</w>
p ec
origin al</w>
not ation</w>
nor mal</w>
lo gic
gu i
great er</w>
em ac
do s
defin i</w>
返 す</w>
内 容</w>
保 存</w>
ロ ック</w>
ラ イ
フ ァ</w>
tex te</w>
sub ject</w>
sin ce</w>
samp les</w>
recuper a</w>
pe ut</w>
o v
o s
massi va</w>
ma ke</w>
li t
k no
gener ator</w>
four n
er geb
en do</w>
el l
dur ing</w>
du ce</w>
defini tion</w>
de termine</w>
de co
c _
av es</w>
almac en
_ key</w>
ーカ イ
ピ ー</w>
コ ピー</w>
ア ーカイ
virt ual</w>
vi de</w>
u y
syn ta
sub string</w>
star ts</w>
so us</w>
si gui
si b
sha red</w>
res ets</w>
prior ity</w>
p id</w>
p h</w>
o v</w>
ne e
le e</w>
k op
k in
k ell</w>
iterat eur</w>
indi ces</w>
has kell</w>
ergeb n
dra w</w>
de sp
daten ban
d ob
can di
bloc king</w>
bi bli
an ti
af _
ab led</w>
呼び出 し</w>
取 り
ペ ージ</w>
バッ ファ</w>
タ イ
ソ ケ
キ ャ
に対 し</w>
writ er</w>
under lying</w>
res source</w>
quer ies</w>
pro pi
ob tain
modi fic
mo zh
lib rary</w>
klas sa</w>
k a</w>
fin al</w>
ex amp
entr o</w>
de la
cor rec
const ant</w>
ca de
c s</w>
argum ento</w>
al so</w>
6 4</w>
開 始</w>
テ ィ</w>
ver bind
tim es</w>
suc ces
struc t</w>
str ic
st op
si n</w>
resour ces</w>
remo te</w>
re win
pre par
pl u
pa gina</w>
or ia</w>
of f</w>
o ur</w>
no des</w>
mar k</w>
loc ation</w>
l ors</w>
ion es</w>
inde ki</w>
identifi c
f t
f ron
err a</w>
ei ght</w>
b rea
associ e</w>
alg orit
al le</w>
al es</w>
aktuel len</w>
_get _
番 号</w>
内 部</w>
ポイン タ</w>
ま で</w>
wa y</w>
vet st
uni que</w>
th ese</w>
t ries</w>
t r</w>
st at</w>
socket _
so ot
soot vetst
se q</w>
re vi
pre mi
po ol</w>
o k
max im
mac ro</w>
logic al</w>
llam ada</w>
iter ates</w>
inde k
ima p</w>
im por
gec er
g ht
fil ter
ent re
emac s</w>
di t</w>
de li
ci erra</w>
chem in</w>
c p
bas e
atomi cally</w>
appli cation</w>
amp s</w>
al ong</w>
al low</w>
a ff
使 っ</w>
ユー ザ
テーブ ル</w>
イ ベ
y ap
wo uld</w>
ver s</w>
u id</w>
son t</w>
soed in
so k
shor t</w>
reflec tion
re ment</w>
parti cular</w>
p seu
m s</w>
m in</w>
li k</w>
host name</w>
ho w</w>
gener ate</w>
ent ra
em ents</w>
ejec ut
dug um
describ ed</w>
conten ido</w>
con tiene</w>
col l</w>
car acter</w>
bu f</w>
attri but</w>
ari th
am o
ad di
表 示</w>
行 い</w>
存 在</w>
参 照</w>
モジュ ール</w>
システ ム</w>
wat cher</w>
usu ario</w>
tur t
to p</w>
t op
su iv
sim pl
sec ur
protoco l</w>
pe ti
pe g</w>
pass word</w>
parti r</w>
paramet res</w>
p en
o id</w>
min i
l at
ges tionnaire</w>
format s</w>
fil ter</w>
f ying</w>
diz i</w>
d entro</w>
conten u</w>
con stan
cha que</w>
b lob</w>
at el
ap e</w>
al ways</w>
al an
- 1</w>
移 動</w>
タ ー
シー ケ
ま せ</w>
べ て</w>
す べて</w>
yiel ds</w>
te m</w>
st a</w>
s r
ro l
re x
rab o
pru ft</w>
posi tive</w>
pd f</w>
oct ets</w>
o w
nouv el</w>
n ul
multi ple</w>
mon th</w>
mon ad</w>
m er
ler ini</w>
iter ador</w>
inter ne</w>
instan cia</w>
implem ent
fro m
en um</w>
director io</w>
ch to</w>
ch ed</w>
c o</w>
bo l
b ag
ar c</w>
ap propri
ag ra
a in</w>
ス クリ
w rapp
v se</w>
utili z
un t</w>
un ic
ulti ma</w>
trans ac
ti ble</w>
stati sti
sp ei
se ver
pr i</w>
posle d
pere dan
oprede len
on to</w>
obekt a</w>
nam espac
m er</w>
lo a
k er
gecer li</w>
format o</w>
ext ra
dependenc y</w>
d um
connec ted</w>
co loc
ch amps</w>
at ur
add r</w>
- type</w>
ル ープ</w>
シーケ ンス</w>
ア ク
x m
w ing</w>
w er</w>
vy z
si eurs</w>
s p</w>
re al
r uta</w>
pseu do
pri mi
pre ci
pon se</w>
plu sieurs</w>
ol usturur</w>
o shi
li e
l em
inde n</w>
immedi ately</w>
identific ador</w>
hyperbo lic</w>
ge o
fra g
fetch _
f ut
e u
dos si
dig its</w>
date time</w>
d ad</w>
cu sto
cam pos</w>
bin ding</w>
b und
as ini</w>
ap ach
ang le</w>
algorith m</w>
ag ent</w>
ad ded</w>
2 .
登 録</w>
ン ト
け る</w>
zah l</w>
y af_
time out</w>
tho se</w>
tab la</w>
requ est
pus hes</w>
poz it
pi la</w>
peri o
paramet ros</w>
n um</w>
met ri
lon g
loa ded</w>
laz y</w>
lar ge</w>
k r
k ay
k a
iterator ::
is mi</w>
ini ci
inclu de</w>
im ia</w>
il ha</w>
hi gh
g in</w>
g ems</w>
funktsi iu</w>
even ement</w>
er ten</w>
en s</w>
en abled</w>
displa ys</w>
dat a
clas s
b a
ar s</w>
ap pe
_ id</w>
- wise</w>
対 応</w>
ン グ</w>
ッ ト
な ら</w>
と い
whi le</w>
wer den</w>
vo m</w>
val id
v ing</w>
v eni
utilis ateur</w>
un c
tra in
tion ally</w>
targ et</w>
sto ck
st e</w>
set ting</w>
se ur</w>
s ure</w>
read ing</w>
pro por
pro b
poin teur</w>
pix els</w>
or s
mo do</w>
ma n</w>
li b</w>
ju li
inclu sive</w>
gr up
en -
dossi er</w>
des k
d' erreur</w>
d n</w>
d d
con sist
clo se
c ed</w>
by te
au f
at ta
amo unt</w>
al mente</w>
最 初</w>
フ ラ
ソケ ット</w>
znach eniia</w>
wur de</w>
su per
su m</w>
su f
ser a</w>
s '
rf c</w>
res pec
re place</w>
pre d
pas sing</w>
nam en</w>
modul es</w>
met at
mem o
loo p</w>
l' element</w>
k at
ir s</w>
ic i</w>
gu ar
gener ated</w>
fr am
fla g</w>
fi la</w>
examp le</w>
eni i</w>
element a</w>
element -wise</w>
dimen sion
desk rip
cont ex
coloc a</w>
clo se</w>
chil d
bo und
appropri ate</w>
al _
ai ushch
0 0
有 効</w>
数 値</w>
出 し</w>
チ ェ
ウ ィ
イ ア
とい う</w>
z er</w>
utili ser</w>
trans l
t um</w>
t re
simpl ex
si de</w>
sch ema</w>
recur so</w>
re main
re leas
re i
pa irs</w>
nom u</w>
medi ante</w>
mapp ings</w>
m ents</w>
li ter
li gn
lign es</w>
h ist
flu x</w>
fi n</w>
fer me</w>
ev ents</w>
enco d
do kum
director ies</w>
co ordin
c ar</w>
b es
b ec
associ ative</w>
an ch
述 子</w>
入 力</w>
ロ ー
ユーザ ー</w>
フォ ー
コ ー
イン デ
アーカイ ブ</w>
に関 する</w>
によ り</w>
z has
zhas hch
writ ten</w>
vy zo
ulti mo</w>
tion ary</w>
st e
soder zhashch
sal ida</w>
ri ght
replac ement</w>
rais es</w>
pere men
oper ations</w>
oc cur
o i</w>
no eu
mon go
modifi e</w>
mo d</w>
ma y
lo ader</w>
iz ed</w>
instan ces</w>
initi al
ing- point</w>
h ex
fo re
float ing-point</w>
fix e</w>
ex tern
evalu ate</w>
don ne</w>
differen t</w>
de serializ
d as
correspon d
constru it</w>
com bin
chan nel</w>
cas t</w>
allow ed</w>
ベ ル</w>
デ フォル
x is</w>
to tal</w>
tel ls</w>
synta x</w>
syn chron
star t
sigui ente</w>
s un
ro van
ro v
retri eve</w>
re f</w>
rab ot
pli c
permis sions</w>
pd f
no do</w>
n on</w>
mem oria</w>
in format
im mut
im i</w>
g ab
fu h
fe h
ex por
ex act</w>
es cri
eni em</w>
en ables</w>
element os</w>
dob avliaet</w>
divi sion</w>
con veni
compl et
compar e</w>
comm on</w>
col on
cat eg
bec a
beca use</w>
bas e_
b zip
b ak
ar si
ana ht
ad res
a tion
/ o</w>
) ,</w>
記 述子</w>
複 数</w>
検 索</w>
リン ク</w>
パ ー
テ ィ
サ ブ
ク ション</w>
エラ ー
ウィ ンド
ア ド
y er
vypol n
ur a</w>
ubergeb enen</w>
t res</w>
sour ces</w>
selec ted</w>
rec up
propor cion
pol y
permis sion</w>
ol d</w>
o d
nomb res</w>
n g</w>
ma ps</w>
ma is</w>
line a</w>
lib era</w>
l ors
identi cal</w>
for nec
fonc tions</w>
fil l</w>
f f</w>
er che</w>
envo ie</w>
envi a</w>
el a</w>
destin ation</w>
descrip tion</w>
dan nye</w>
cont in
comm it</w>
col or
co s</w>
acqui re</w>
a o</w>
状 態</w>
最 大</w>
レ ー
メ モ
エン コード</w>
zapis i</w>
z am
wen n</w>
v or
us ada</w>
ukaz at
trans form
trac ts</w>
ti em
tiem po</w>
symbo ls</w>
suppor ted</w>
sa f
run s</w>
ro t
requ ests</w>
re por
r i</w>
pseudo -
pre sion</w>
p s_
p g_
oshi b
mensaj e</w>
man ag
leg t</w>
lar i</w>
in o
ima gick
il y</w>
hol d</w>
gegeb enen</w>
est ado</w>
ent a</w>
donne e</w>
docum entation</w>
d ro
cu al
conver sion</w>
cl es</w>
calcul ates</w>
b les</w>
av len
apach e</w>
ap res</w>
an ce</w>
部 分</w>
辞 書</w>
表 す</w>
レ コード</w>
プ リ
ネ ル</w>
ウィンド ウ</w>
y v
windo ws</w>
us age</w>
u cion</w>
tur a</w>
sor ted</w>
so ap</w>
server s</w>
s qu
s ent</w>
s el</w>
ri l
represent ant</w>
remo ved</w>
propi ed
po li
n' t</w>
n ext
loc k
kullan il
initializ es</w>
im en
gi t</w>
g reg
g on
f el
et c</w>
en ci
el se</w>
do st
do it</w>
dic tionary</w>
degi sk
datenban k</w>
connec t()</w>
con cat
co z
atri bu
2 -
描 画</w>
ボ ックス</w>
プロ パ
プロパ ティ</w>
チ ャ
タ グ</w>
に対 する</w>
お ける</w>
x path</w>
ver i</w>
us ado</w>
up per
tra v
tr u
tor s</w>
to _
tion ne</w>
ti rir</w>
tempor ary</w>
sp ac
sig n</w>
sent encia</w>
result ing</w>
re ponse</w>
proces sus</w>
proces o</w>
pro per</w>
poin ted</w>
par sing</w>
p ilha</w>
p ad
p _
obtain ed</w>
nom s</w>
n ut
mar sh
log arith
lib ere</w>
li k
le -
kon verti
kod lam
izobrazh eniia</w>
is kliuch
in fo
ig no
id ad</w>
i /o</w>
g est
fut ure</w>
fun ciones</w>
fu ente</w>
four ni
fichi ers</w>
ex pon
et ot</w>
er ze
equival ente</w>
end _
effec tive</w>
e j
dur ch</w>
de cla
chis lo</w>
ca uses</w>
buffer -
bu f
b b
b az
array 1</w>
an in</w>
am iento</w>
al t</w>
: :</w>
フォ ント</w>
スクリ プ
イベ ント</w>
wor king</w>
vo ir</w>
un less</w>
tas ks</w>
st ed</w>
so s</w>
sn mp</w>
sa ve</w>
s le
s end</w>
s at
read able</w>
ran i
produc t</w>
on ce</w>
o _
no vyi</w>
no uve
no de
nee ded</w>
log ger</w>
link _identifier</w>
lich est
l' identifiant</w>
ko lichest
kara k
karak ter
in fin
immut able</w>
ima ges</w>
gear man
fourn i</w>
form a</w>
exp ected</w>
execut ing</w>
ev er</w>
especific a</w>
di feren
cual qui
compon ents</w>
compl ete</w>
colum ns</w>
col l
cli ente</w>
ch en</w>
at e()</w>
5 0
最 後</w>
で き
でき る</w>
こ れ</w>
zeich en</w>
y st
y eni</w>
w ra
vu iushch
vis it
u ber</w>
tr unc
ta king</w>
sti t
specifi que</w>
set _
serializ able</w>
rout ine</w>
regist ers</w>
recor ds</w>
re ci
pro p</w>
preci sion</w>
pol zov
par te</w>
nouve au</w>
nor m
namespac e
namespace uri</w>
loo ks</w>
l' iterateur</w>
l da
lda p</w>
ir b</w>
inter no</w>
informa tionen</w>
il en</w>
gener al</w>
format ter</w>
fin is
fet ches</w>
execut ed</w>
ere r</w>
du iushch
di bu
derni er</w>
declar ation</w>
d b</w>
custo m</w>
coz um
cop ia</w>
con ti
cap ac
cade ia</w>
bzip 2</w>
bund le</w>
ben ut
atribu to</w>
as i</w>
ar bit
ai res</w>
a -
指 す</w>
例 外</w>
ン ダ
マ ット</w>
カ ラム</w>
zapro sa</w>
y n
y an
w el
ustan ov
un der</w>
termin ated</w>
tang ent</w>
ta k
ta il</w>
t si
suiv ant</w>
su peri
su b</w>
sqli te</w>
sor t</w>
sim ple</w>
sh ell</w>
server _key</w>
sequ en
sa y
s h</w>
rp c</w>
radi ans</w>
r b
pred st
prec e
pre d</w>
posi tions</w>
po wer</w>
pack age</w>
or a</w>
oper ating</w>
noeu d</w>
m il
lo c</w>
li m
l ab
jo b</w>
it self</w>
in verse</w>
i os</w>
head ers</w>
graph ic
fet ch</w>
f d
erze ugt</w>
disp at
disc ar
desp ues</w>
dat en</w>
converti t</w>
con vi
cli ent
buff ered</w>
as es</w>
ar k
angegeb ene</w>
acqui res</w>
ab re</w>
a xis</w>
- value</w>
比 較</w>
拡 張</w>
フォー マット</w>
デフォル ト</w>
サー バ</w>
コ マ
x 50
verbind ung</w>
trabaj o</w>
ti t
tem pl
tekushch ii</w>
t amp
tamp on</w>
stro ke</w>
stati c</w>
sor ts</w>
sol r
server a</w>
sch eme</w>
run time</w>
res t</w>
regist ered</w>
re r</w>
proces ses</w>
prepar e</w>
posled ne
per form
ord en
occurren ces</w>
o u
na tive</w>
n' est</w>
min im
met ad
manag ed</w>
ma p
m et</w>
loc $</w>
list en
kr yvaet</w>
kno wn</w>
k t</w>
k il
invo ked</w>
interrup ted</w>
indi que</w>
fil tr
excep tions</w>
err ors</w>
err no</w>
en code</w>
eff ace</w>
defin ie</w>
d up
cons um
compres sion</w>
co sine</w>
calcu le</w>
c ro
base 64</w>
auth enti
as sign
app el</w>
anal o
af fich
accep ts</w>
$ loc$</w>
特 定</w>
更 新</w>
基 づ
フ レ
ッ ション</w>
キャ ッシュ</w>
z um</w>
y our</w>
x s
w ere</w>
valu e
updat es</w>
un o</w>
un k</w>
ter o</w>
t ue</w>
sup port</w>
sun uc
stat ut</w>
soder zh
sign ature</w>
sear ch
sati s
s ini</w>
rech erche</w>
r yp
pun tero</w>
pro duce</w>
prim er</w>
pas se</w>
oz nit
ol s</w>
ob rabot
mini buffer</w>
matri z</w>
mar ks</w>
l arg
j us
in d
hand ling</w>
hal t</w>
h an
gi d</w>
fornec ido</w>
ent sp
dela y</w>
de vol
d ()</w>
cualqui er</w>
cs v</w>
conveni ence</w>
construc t</w>
concat en
compres sed</w>
clo sed</w>
chan ged</w>
calcu la</w>
c rit
c arg
bak ar</w>
b lob
ar a</w>
ad o
ac iones</w>
空 間</w>
持 つ</w>
圧 縮</w>
取 り</w>
レ ベル</w>
マッ チ</w>
フレ ーム</w>
フラ グ</w>
によ っ</w>
で き</w>
だ け</w>
yp e</w>
y a
writ ing</w>
wh it
vypol ni
verifi ca</w>
v nut
uz er
train ing</w>
templ ate</w>
t ant</w>
si e</w>
set t
sequen ces</w>
releas es</w>
r y</w>
query ()</w>
po mo
pomo shch
plic it
no thing</w>
neur on
n b
n atur
lu g
lu al_
li ve</w>
le f
kolichest vo</w>
ko i</w>
j ar</w>
invo kes</w>
i al</w>
ha sta</w>
h eight</w>
gra ph</w>
gener ic</w>
ge yi</w>
g ers</w>
g em
for ward</w>
fil as</w>
fi ci
execut able</w>
ex tracts</w>
ex it</w>
ergebn is
enti re</w>
enc ryp
en th
ejec ucion</w>
effec tue</w>
dir ()</w>
dig est</w>
describ ing</w>
debu g</w>
cryp t</w>
cre en</w>
connec tions</w>
com pos
ca tions</w>
b lan
b l
are a</w>
appli es</w>
appel ee</w>
ap ply</w>
an is
a kh</w>
ハンド ラ</w>
チェ ック</w>
サ ポート</w>
インデ ックス</w>
イ ン</w>
に対 応</w>
y uk
vo dit</w>
v se
utf- 8</w>
un g
to s</w>
sub sequ
speci fy</w>
sett ings</w>
s v
repres ent</w>
referen ced</w>
recursi ve
recup erer</w>
rais ed</w>
r rd</w>
prin ci
po se</w>
or ing</w>
n er
modul o</w>
mo ve</w>
min i</w>
mark up</w>
let z
kotor yi</w>
iter able</w>
ispolzu ia</w>
is on</w>
intern et</w>
image magick</w>
i er
hex a
gi c</w>
fil es
files yst
f ech
ex i
en- t
en n
e x</w>
e of</w>
do es
der ing</w>
debu g
de ux</w>
datetime immutable</w>
d ns</w>
convi erte</w>
ch o
cep tion</w>
cas o</w>
c y</w>
c y
b ul
b re
b r
automati cally</w>
asoci ado</w>
as t</w>
as sum
ad j
ad es</w>
_ string</w>
利 用</w>
メ ール
ブ ラ
イン ター
ぶ し</w>
つ ぶし</w>
z ag
work er</w>
whit espace</w>
ver s
u l</w>
tiv ely</w>
ti r</w>
tanitici si</w>
t est
t as</w>
syst eme</w>
sorti e</w>
se sion</w>
se ma
schlus sel
s mal
ru by
res min</w>
requi re</w>
rela tive</w>
rea der</w>
re sim</w>
pro iz
preferen ce</w>
pre obra
pos sib
plac es</w>
perm ite</w>
p rav
output s</w>
o uv
nor mal
nes nes
mit tel
mil li
memcach ed</w>
mem cache</w>
mas ked</w>
list _
lig ini</w>
lec ture</w>
le y
le i
le ase</w>
lay er</w>
kotor ye</w>
k an
iz ation</w>
inter val</w>
ing res</w>
i kh</w>
i ds</w>
g ore</w>
fre es</w>
flu jo</w>
fin aliz
fa it</w>
excep cion</w>
er mittel
eni aet</w>
e 's</w>
direc tly</w>
dire ction</w>
di git</w>
determin a</w>
defa ut</w>
de place</w>
de cre
dat um</w>
da y
cre ating</w>
construc t()</w>
con tain</w>
compa tible</w>
close ()</w>
chec k
capac ity</w>
anch o</w>
alph ab
acti va</w>
accep t_
ab fra
__ construct()</w>
実 装</w>
使 う</w>
ン プ
レ ート</w>
メール ボックス</w>
バイ ナ
バ ック</w>
テ スト</w>
セ ル</w>
ス レ
カ ー
な り</w>
し ます</w>
wrapp er</w>
vo s</w>
utili ty</w>
user -
ud ali
udali aet</w>
turt le</w>
trans f
ti p
ter s</w>
ta ke</w>
t ara
sy l
su rec
st er</w>
simplex m
sho w</w>
sec u
scal e</w>
s itu
rel len
re lease</w>
radi us</w>
r d
plat form</w>
path s</w>
p end
open ed</w>
nam iento</w>
na ia</w>
ma il</w>
i iu</w>
ht m
gu age</w>
fiel d_
fan n
fact or</w>
fac et
extr act</w>
es cal
entre namiento</w>
entra in
enti ty</w>
em pl
ejec uta</w>
dum p</w>
di stan
da ki</w>
cp u</w>
cont ent
co in
child ren</w>
call able</w>
buff ers</w>
bag lan
b age</w>
appli ed</w>
am a</w>
8 8
- -
適 用</w>
標 準</w>
作 り</w>
ン ド</w>
ロ ーカ
ブ ロック</w>
ソ ル</w>
カー ソル</w>
イ ル</w>
か どう</w>
zo van
z ur</w>
vnut ren
ut c</w>
us ar</w>
un signed</w>
ter i
subsequ ent</w>
sto i
sootvetst vuiushch
sol r</w>
sle duiushch
sist ema</w>
s w
s am
ru zh
represent acion</w>
represent a</w>
rem pli
re pe
re p
pro z
prepa res</w>
poli ce</w>
pl ain</w>
p tr</w>
p e</w>
ouv re</w>
oper ator</w>
on t</w>
o db
ny mi</w>
n th</w>
n es</w>
multi byte</w>
mozh et</w>
memo ire</w>
ma k</w>
ki m</w>
k ak</w>
j or</w>
is ini</w>
ing res
informat siiu</w>
indic ates</w>
in ten
i sim</w>
i h
hand ler
gar bage</w>
fourni e</w>
format ting</w>
flo w</w>
fai lo
f b
expres sions</w>
ex ist</w>
ex act
even ements</w>
et o
en di
ec ri
dra wing</w>
disponi ble</w>
dis k</w>
di zi
deskrip tor</w>
defin ida</w>
de sc
cu al</w>
connec t</w>
att ente</w>
as yn
and er
an notation</w>
al ist</w>
accep t</w>
ab ier
操 作</w>
レ ス
ユー ザ</w>
メモ リ</w>
ア ル
ア イテ
た り</w>
yon tem</w>
yiel d</w>
we b</w>
war ning</w>
vali de</w>
v rem
vrem ia</w>
upper case</w>
uc le</w>
tab lit
tab elle</w>
t c
st ra
st ell
squ are</w>
spei cher</w>
sh ut
secu encia</w>
s s</w>
s lu
requ etes</w>
read line</w>
re stric
r t</w>
plicit ly</w>
par agra
oprede liaet</w>
norm aliz
no tifi
ni v
ni i</w>
nam e()</w>
n t</w>
ma jor</w>
m ic
log ging</w>
local name</w>
l' index</w>
l u</w>
kara kt
k ator</w>
it y
iso -
initial ise</w>
imen em</w>
id as</w>
i mo
ht t
h ac
g magick</w>
g am
fun c</w>
ful ly</w>
fron t</w>
fd f</w>
ex pi
ex it
et c
ecri t</w>
dost up
don t</w>
deli mit
dat es</w>
cubri d</w>
cre ate()</w>
coul eurs</w>
cha in</w>
candi date</w>
ca st
c ag
bo ucle</w>
bi li
aut h</w>
att r</w>
atri but
associ ation</w>
as signed</w>
as ign
anaht ar
an zahl</w>
al e
aktuel le</w>
affich e</w>
ac tions</w>
ac ep
a st
a em
a b</w>
_ path</w>
:: set
88 5
機 能</w>
ハンド ル</w>
セ ッション</w>
コマ ンド</w>
グ ループ</w>
アイテ ム</w>
そ う</w>
w n
ver sh
v ent</w>
uy g
un un</w>
un gen</w>
tr y</w>
to ols</w>
to m</w>
symbo lic</w>
suppor ts</w>
stand ar
st y
st i</w>
sp lit</w>
so lic
slo t</w>
sign al
set ter</w>
secur ity</w>
sc ans</w>
rf c
res um
reg exp</w>
rec tang
re -
ra ther</w>
ra s</w>
possib ly</w>
pas ses</w>
oci _
new line</w>
n an</w>
n ach</w>
mon it
modific ation</w>
m u</w>
logarith m</w>
lin ks</w>
li ght</w>
karakt er</w>
k im
k arsi
itu d</w>
iter ation</w>
it able</w>
ispol zov
inter val
identifi kator</w>
identi que</w>
i o
i -
hol ds</w>
h u
h ace</w>
gen ere</w>
file -
escri be</w>
ermittel t</w>
epo ch</w>
entrain ement</w>
ent ly</w>
en regist
elem an
ed a</w>
does n't</w>
docum ents</w>
dis able</w>
dimension al</w>
de man
de m
de g
de code</w>
d y
cle ars</w>
categ ory</w>
can cel
but t
attrib ut
arbit rary</w>
ap un
an de</w>
an aliz
alph a</w>
ain si</w>
aff ec
addi tional</w>
activ ation</w>
3 2
ペ ア</w>
フォ ーム</w>
フ ェ
クラ イア
エン コー
zad aet</w>
y kh</w>
we ek</w>
v ely</w>
un specified</w>
ul es</w>
ukazat el</w>
to go</w>
ti dy</w>
th res
tab les</w>
sy s
simvo ly</w>
sema ph
sc ast
scast exception</w>
requi red</w>
request ed</w>
recur sos</w>
re pos
re aliza</w>
put s</w>
proz es
pro m
prin ting</w>
premi er</w>
por t
polzov atel
o tr
non- negative</w>
natur al</w>
mu eve</w>
metat ab
match ed</w>
ma de</w>
m peg</w>
low er
lie β
k ap
iso- 885
ipv 4</w>
inst all</w>
initializ e</w>
imagick pixel</w>
ima l</w>
ima gen
imagen es</w>
hist ory</w>
h ed</w>
gener ic
f get
estab li
escap es</w>
disponi bles</w>
de tail
d r</w>
curren cy</w>
comple tion</w>
coin ci
clo b</w>
clas scastexception</w>
ch t
cer tain</w>
c m
at sii</w>
asoci ada</w>
array object</w>
alphab eti
ad van
ac i
_ operand</w>
:: __construct()</w>
1 6</w>
- port</w>
挿 入</w>
必 要</w>
基づ い</w>
リ ー</w>
ディ ング</w>
さ い</w>
yap ar</w>
wh at</w>
wer te</w>
wa its</w>
w is
vyzo va</w>
vyz yv
vi az
v _
v 2</w>
uz un
us o</w>
updat ed</w>
ukazan nogo</w>
tur ns</w>
tu res</w>
tim er</w>
termin ate</w>
tanim li</w>
ta che</w>
sto p</w>
sql_ fetch_
sp iso
spiso k</w>
sp e
so m</w>
sign als</w>
se p</w>
scal ar</w>
sc rol
sav es</w>
s ini
roun ding</w>
rfc 2
rezult ata</w>
res pu
replac ing</w>
remain der</w>
re aliz
prin table</w>
primi tive</w>
preferen ces</w>
pp ed</w>
poin te
peti cion</w>
per son
our s</w>
or -
op ciones</w>
ne sted</w>
mo de
m crypt</w>
lib mcrypt</w>
li est</w>
l' entree</w>
klas s</w>
k ut
iz on
index ed</w>
in spec
ili sk
id 3
ic indeki</w>
hexa decimal</w>
hand les</w>
gest or</w>
g mp</w>
ful l
ft p-
fil ls</w>
fech a</w>
excep to</w>
establec er</w>
espac io</w>
es ini</w>
el es</w>
decla red</w>
daten sat
correspond ant</w>
conver ted</w>
connec ts</w>
compar ison</w>
comm ands</w>
codific acion</w>
car acter
can on
can c
c ell</w>
c c
by t</w>
bus ca</w>
bin ds</w>
b ran
b ay
assign s</w>
as c
ari a</w>
appe le</w>
analy se</w>
an tes</w>
ai l</w>
a ger</w>
長 さ</w>
返 さ</w>
読み 込
端 末</w>
格 納</w>
共 有</w>
レ メント</w>
リン グ</w>
プロ グ
フィ ル
ピ ク
スレ ッド</w>
ス ク</w>
エ レメント</w>
あ り</w>
war ds</w>
vse kh</w>
vo go</w>
user data</w>
un ter</w>
un ter
u re
u f
ta re
sum m
sub class</w>
stoi an
sist em
simil aire</w>
schlus sel</w>
sch rei
s y</w>
s ushch
s cop
revi sion</w>
res sources</w>
read ()</w>
re zh
r g
qu al
provi des</w>
previ amente</w>
poly nom
po to
pl ying</w>
perm et</w>
par ts</w>
par sed</w>
ou ver
oper acion</w>
op tionally</w>
ob shch
ob o
o auth</w>
nul l
multi cast</w>
mic ro
me ti
me as
meas u
maxim o</w>
man ager</w>
m no
lo kal
li r</w>
lan guage</w>
l' execution</w>
l' espace</w>
l t
konverti ert</w>
jo ur</w>
it a</w>
is ation</w>
in da</w>
i si
hel d</w>
g ran
fram es</w>
fo o</w>
flus hes</w>
filesyst em</w>
file ()</w>
fail ed</w>
execut e()</w>
error _
enth alt</w>
en g
effec t</w>
dup lic
dosy a
don de</w>
do ut</w>
di vis
di st
di ente</w>
deger ini</w>
de but</w>
das s</w>
constan ts</w>
compil er</w>
code _
cl aves</w>
char set</w>
ch er
cambi a</w>
bi ra
as k</w>
almacen amiento</w>
almac ena</w>
2 _
開 放</w>
正 規</w>
既 存</w>
戻 し</w>
小 数</w>
ロ ード</w>
ロ グ</w>
リ モ
ハ ッシュ</w>
ト ラ
け れ</w>
zeich n
wor ks</w>
ver ro
um unu</w>
trac e
time zone</w>
suf fix</w>
star ted</w>
st ap
st ab
sin us</w>
sim ul
sign ifi
separ ator</w>
scop e</w>
sch lieβ
s m
respu esta</w>
registr e</w>
regist er</w>
re con
ra ise</w>
qu ement</w>
pomoshch iu</w>
po p
pli ci
pas s</w>
par am</w>
ot prav
off net</w>
ni ve
nach ri
modifi ed</w>
mis mo</w>
met am
mark er</w>
m d
lab el</w>
l ement</w>
kullan arak</w>
kotor o
key -value</w>
k ur
k or
inter fac
inte gers</w>
inclu ded</w>
ig ual</w>
hor izon
group s</w>
gro und</w>
greg ori
gam ma</w>
g z
g lei
extern al</w>
entsp rech
ent fer
encod age</w>
ec rit
dosy anin</w>
do pus
di stin
de t
de st</w>
d ru
construc ted</w>
comp ri
comm ande</w>
colum na</w>
colum n
code c</w>
ci r
call back
cal is
c ab
buil ds</w>
boo st</w>
bo un
bloc ks</w>
bind ings</w>
be com
bas e-
associ ates</w>
as ser
argument os</w>
al o
actu almente</w>
: markup</w>
期 化</w>
書 式</w>
方 向</w>
当 て</w>
取り 除
一 つ</w>
リ ア
ポイン ト</w>
ファイル ポインタ</w>
ビ ット</w>
スクリプ ト</w>
yaz _
y ed</w>
y am
xm l-
win 32
win32 o
updat er</w>
uel lement</w>
u c</w>
trac ing</w>
tok en
ti vo</w>
sy s</w>
stock e</w>
st dout</w>
sqli te
so kh
ski ps</w>
shi ft</w>
sh ape</w>
set ()</w>
ses sion
semaph ore</w>
selec ts</w>
se k
saf e</w>
s wit
s vo
s end_
s creen</w>
rex p</w>
represent e</w>
rea ched</w>
re co
proce du
procedu res</w>
pro c</w>
po st</w>
plici t</w>
per form</w>
p ur
p i</w>
p ed</w>
ow ner</w>
or no</w>
obj ets</w>
o w</w>
o ve</w>
no tific
niv el</w>
nam e
mut able
metri c</w>
mes hchaet</w>
marsh al</w>
lors que</w>
loo k
letz ten</w>
ler in</w>
le ad
l ace</w>
ko d</w>
kin d</w>
key value</w>
iso-885 9
is su
initializ ed</w>
ini cia</w>
ingres _
in cl
in -
im en</w>
il gi
ilgi li</w>
i ki</w>
i ce
he ap</w>
gre es</w>
go st
g h</w>
feh ler
fac et</w>
f ue</w>
exten sions</w>
exp an
es crit
en v
en det</w>
en able</w>
el ap
ef ul</w>
divis or</w>
direc cion</w>
di n</w>
degistir ges
de grees</w>
coun ts</w>
copi e</w>
coordin ates</w>
contin u
contex te</w>
contain er</w>
co -
ci k
cha in
ch it
cal isti
c um
c i</w>
buil d</w>
buf er</w>
blo que
bibli oth
bi c
bel ow</w>
be re
be h
av ant</w>
aut re</w>
auf ru
ati f</w>
an o
alloc ate</w>
ab ove</w>
:: get
( ve
計 算</w>
組 み
発 生</w>
浮 動</w>
塗 り</w>
同 様</w>
加 え</w>
割 り</w>
全 体</w>
使 わ</w>
ール バック</w>
レ ス</w>
ライ ブラ
ライブラ リ</w>
ョ ン
フィル タ</w>
デ バッ
タイ ム
キュ ー</w>
オー ディ
な けれ</w>
あ れ</w>
zei le</w>
z on
x -
windo w
w ell</w>
val ido</w>
utilis ation</w>
ut sia</w>
us eful</w>
up per</w>
tw o
trav ail</w>
tra il
time ()</w>
ter ator</w>
tara fin
ta et</w>
suppor te
sub set</w>
str an
spec s</w>
son uc
sok et</w>
so v</w>
sing let
simplexm liter
sig ne</w>
shut down</w>
se ed</w>
s en</w>
s ar
s ans</w>
rg b</w>
replac ed</w>
registr o</w>
recursi vely</w>
rec ent</w>
re verse</w>
radi x</w>
rabo taet</w>
ra r</w>
r ut
qu ot</w>
qu el</w>
provi de</w>
prot ses
propied ad</w>
prom pt</w>
prece dem
precedem ment</w>
pat ch</w>
pal ab
p k
p do
p ack</w>
over la
open ssl</w>
occur red</w>
ni cht</w>
new _
na stro
my sqli
max imal</w>
m eniaet</w>
loo k</w>
lo v</w>
le ti
le _
ker nel</w>
kap ati
interrup t</w>
indi vi
inclu des</w>
in halt</w>
il k</w>
id 3</w>
ice ren</w>
handler ()</w>
guar da</w>
gon der
g mt</w>
fron t
fr ac
follow ed</w>
f o</w>
f l
f ar
expon ent</w>
ex presion</w>
et os</w>
et i</w>
establi sh
er ro
en o</w>
ec t</w>
ec t
e ,</w>
dra ws</w>
dopus ti
dis ables</w>
di ri
des sine</w>
degisk en
d' evenement</w>
cur seur</w>
constru ye</w>
condi tion
comm and
com position</w>
cl on
chis lo
char -
c ent
bes tim
beh aves</w>
bas ic</w>
b ar</w>
at e
as hch
ar se</w>
an no
algorith me</w>
algorit mo</w>
al l
addres ses</w>
acces sible</w>
ac ro
3 2</w>
1 .
" ,</w>
記 録</w>
解 析</w>
演 算</w>
命 令</w>
フォル ダ</w>
ファイル オブジェクト</w>
ピク セル</w>
ト レ
デ バイ
ッ プ</w>
ッ チ</w>
クライア ント</w>
エンコー ディング</w>
アド レス</w>
か っ</w>
zadan nogo</w>
za kryvaet</w>
yam l</w>
xs lt
xslt proces
w s
vypolni aet</w>
v re
vre men
uve gar
us cul
u ve</w>
tion ()</w>
thres hold</w>
termin ates</w>
tarafin dan</w>
t_ operand</w>
t s
syst em
superi or</w>
su itable</w>
stit ute</w>
st ek
sol ete</w>
soedin eniia</w>
si r
sem ble</w>
selec t</w>
schlieβ t</w>
sav ed</w>
sa uvegar
s' il</w>
s viaz
rex ception</w>
retor no</w>
repos it
regi stri
re st
qui ck
qu' il</w>
pro pa
propa g
princi p
predst avlen
prec ed
pozit siiu</w>
polynom ial</w>
plem ent
pix eles</w>
perio di
p em</w>
overri des</w>
ol ma
obj etos</w>
ob solete</w>
ob serv
nesnes i</w>
n in</w>
n ar
mapp ed</w>
m any</w>
long itud</w>
li mit
les tirir</w>
lef t_operand</w>
lead ing</w>
la st
kho zh
key words</w>
it el
iskliuch eniem</w>
ipv 6</w>
inte gra
instal led</w>
indic ating</w>
indic ated</w>
incre ment</w>
in ts</w>
in side</w>
ima p_
if f</w>
i ami</w>
h abili
g zip</w>
fuh rt</w>
fe ature</w>
f ugt</w>
f est</w>
exact ly</w>
etc /
escal a</w>
erro res</w>
er os</w>
enumer ation</w>
enn ung</w>
enci es</w>
en lace</w>
emp le
dibu ja</w>
comp ile</w>
com por
col ors</w>
ci ph
char ge</w>
ch ro
ce e
can al</w>
calcul ate</w>
c ai
bus qu
bi r
be zi
ay a</w>
asc ending</w>
array ()</w>
ap plying</w>
an ts</w>
an on
ab bre
_ handle</w>
4 .
1 0</w>
1 -
/ etc/
通 知</w>
論 理</w>
等 価</w>
場 所</w>
動 作</w>
制 御</w>
ージ オブジェクト</w>
パ ース</w>
ト リ
デ コード</w>
シ ン
ひ と
win32o le_
war n
vo e</w>
ver ilen</w>
ver a</w>
uzer inde</w>
transform er</w>
tran sp
to ma</w>
ti r
tar /
tar/ zip</w>
t name</w>
t d</w>
summ ary</w>
su re
ste p</w>
statisti cs</w>
stap el
stapel speicher</w>
stan te</w>
st en</w>
sql sr
spac es</w>
son uc</w>
soedin enie</w>
soderzhashch ii</w>
servi ci
serializ ed</w>
seg un</w>
seg un
sch ed
s exception</w>
resol ution</w>
res et</w>
rem ents</w>
r ules</w>
r at
r ac
qu' a</w>
prot ected</w>
pro gres
prin t
premi ere</w>
pg_ send_
paragra ph</w>
par se
par ado
parado x</w>
p y</w>
ot ec
oshib ki</w>
or dering</w>
op cion</w>
ol up</w>
oc c
numer ic
nb sp</w>
nach al
mysqli _
modi fy</w>
lower case</w>
li ch</w>
li ca</w>
let ter</w>
lar ini</w>
l' encodage</w>
kt i</w>
key word</w>
kapati r</w>
kan n</w>
j peg</w>
is mini</w>
ip _
integra l</w>
instal ls</w>
ing point</w>
igno res</w>
ifi ed</w>
ic eri
hi gh</w>
gro β
frag ment</w>
fr action</w>
float ingpoint</w>
file _name</w>
fi t</w>
facet .
f ()</w>
extra it</w>
extr a</w>
exten ded</w>
et zt</w>
especific o</w>
es per
erre urs</w>
ergebn is</w>
entr adas</w>
entr a</w>
en registre</w>
em u</w>
dizges inin</w>
displa yed</w>
des active</w>
dep th</w>
dep ending</w>
deman de</w>
de struc
d' entrainement</w>
d ados</w>
correc t</w>
contr ario</w>
conti ent</w>
cont ext
consul tas</w>
const ra
consist ing</w>
confi g</w>
colon nes</w>
colon ne</w>
ci kti</w>
ci as</w>
ch e
caracter e</w>
canon ical</w>
cag ri
c ke
c dr</w>
bloc ked</w>
bit wise</w>
bibli otec
bi g</w>
ber ia</w>
bb code_
bas es</w>
auto -
at or
associ atif</w>
arg z</w>
app end</w>
analy zer</w>
analo gi
al ter
adi c</w>
acro ss</w>
accep table</w>
ab or
a res</w>
] ,</w>
1 2</w>
- -</w>
解 放</w>
点 数</w>
時 刻</w>
探 し</w>
先 頭</w>
ワ ード</w>
ホ スト</w>
パー サ</w>
ディ スク</w>
ティ ブ</w>
タ ート
ステ ート
スタ ック</w>
ケ ール</w>
エラー メッセージ</w>
ら れる</w>
ひと つ</w>
し く</w>
z end</w>
z en</w>
z e</w>
ya f</w>
x s</w>
wi e</w>
w end
wend ung</w>
vyzyv aetsia</w>
vypoln eniia</w>
vo us</w>
ver zeichn
vari ous</w>
var s</w>
v in
unic o</w>
u k</w>
tur n</w>
transac cion</w>
throw n</w>
te red</w>
tare a</w>
ta tions</w>
ta b</w>
t t
surec in</w>
sub process</w>
su cht</w>
stru ction</w>
stream _
stell t</w>
st avliaet</w>
sr c</w>
splfile info
soderzh imo
so obshch
smal l
singlet on</w>
sin da</w>
sever al</w>
separ ate</w>
scri p
sa ge</w>
s lob</w>
s ite</w>
retour ner</w>
recei ver</w>
re q</w>
re empl
reempl az
ras shi
r am
pro stran
prim ary</w>
prepa red</w>
preferen ces
pointe rexception</w>
pi k
per o</w>
p f
overri d
overrid den</w>
ot ur
obrabot chi
obje kt</w>
num ar
null pointerexception</w>
nive au</w>
my sql_
mutable biginteger</w>
multi pli
ms g_
modifi er</w>
milli seconds</w>
metho d
metad ata</w>
mem e</w>
md 5</w>
lo zh
li be
l' option</w>
l' archive</w>
ko ordin
k ol
jo in</w>
is o</w>
interfac es</w>
indivi du
in s</w>
ign ore</w>
identi ty</w>
hel p</w>
hash -
hac ia</w>
h er</w>
gear man</w>
g t</w>
flus h</w>
flo ating</w>
fich eros</w>
fann _get_
f requ
escrit ura</w>
ent ero</w>
ein tra
ec to</w>
e p</w>
e di
dy nam
dur ante</w>
dire k
depend encies</w>
defaul ts</w>
deco des</w>
d' attente</w>
contro ls</w>
contro l
confi gu
con si
co lo
co ding</w>
ce -
carg a</w>
cap a</w>
c d</w>
butt on</w>
busqu eda</w>
bi en</w>
aus gab
associ ee</w>
archi vos</w>
ar o
an teri
an c
ali r</w>
ai utsia</w>
agra m</w>
ac ar</w>
a voir</w>
:: add
6 4
.. .</w>
選 択</w>
対 象</w>
宣 言</w>
大 き
受 け
保 持</w>
レス ポ
パラメ タ</w>
バイナ リ</w>
バイ ト
チャ ネル</w>
ソ ート</w>
シ グ
コン パ
キ ー
カ レ
アク セス</w>
い れ</w>
zuruc k
zu et</w>
znach eni
yon tem
wur den</w>
w e</w>
vozvras hch
vo i</w>
verti cal</w>
ver wen
vec tors</w>
uz ere</w>
un ion</w>
tran si
tra z
tim ate</w>
ti p</w>
th ree</w>
tanim lar</w>
sys log</w>
sushch est
sus p
su res</w>
string -
sqlsr v_
sql state</w>
speci aliz
sol o</w>
so us
so stoian
simvo lov</w>
si k
si an</w>
servici o</w>
servi ces</w>
separ ated</w>
sen si
secur ity
se es</w>
say isini</w>
s sage</w>
s rav
ruby gems</w>
row ()</w>
ret e</w>
ren d</w>
referen cia</w>
referen ces</w>
read -
re ver
rabo ty</w>
ra zh
r ase</w>
pu ff
prostran st
pro du
princip al</w>
pret ty</w>
preobra zuet</w>
pre determin
pos le</w>
perio d</w>
paramet ra</w>
pack et</w>
p ending</w>
overri de</w>
out of
outof bound
outofbound sexception</w>
object 's</w>
o auth
nes s</w>
nach in
n arg</w>
n ano
mut ex</w>
mem bers</w>
man ej
lu k</w>
loc ks</w>
lo sch
llam ado</w>
link plain</w>
lig i</w>
li que</w>
let tres</w>
l' attribut</w>
kon um
key map</w>
k ach
kach est
izobrazh enie</w>
iz er</w>
it es</w>
ispolzu etsia</w>
is s
infin ity</w>
indi ca</w>
index outofboundsexception</w>
in it
ign oring</w>
i leti
i cally</w>
i base_
h in
h at
gran de</w>
gel er
gearman client
func tion
fiel d
fal ls</w>
ex ion
event _
evalu ated</w>
eti qu
et k
est and
es timate</w>
enti al</w>
enco un
en-t etes</w>
en den</w>
en cu
ecrit ure</w>
ec e</w>
dugum un</w>
dom document</w>
document ed</w>
distin c
distan ce</w>
dispat ch</w>
di rir</w>
di es
devol vera</w>
detail s</w>
defin ir</w>
defin ido</w>
de beria</w>
d' evenements</w>
d ri
cs r</w>
correspon diente</w>
configur acion</w>
con ex
compar ator</w>
comm its</w>
colo res</w>
coll ation</w>
cion a</w>
boo l</w>
bili ty</w>
be gin</w>
atta ched</w>
ati vo</w>
at ed
asyn chron
asoci ados</w>
aro und</w>
ar ri
apun t
appli que</w>
analy seur</w>
an s
al ar</w>
addi tion</w>
ad ding</w>
acces o</w>
ac ces</w>
a ren
_ star
/ or</w>
.. .
- level</w>
高 さ</w>
連 想</w>
認 証</w>
文 書</w>
問 い
問い 合
受け 取り</w>
ン プ</w>
ロー バ
ロ グ
レク ション</w>
フ セット</w>
パ ス
デバイ ス</w>
ズ ム</w>
ゴ リ
ケ ー
グ ローバ
オ フセット</w>
アク ティブ</w>
ア ン
の み</w>
づ け</w>
そ れ
お い</w>
zei ger</w>
zadan nomu</w>
yaz ar</w>
y _
xm l
x50 9</w>
x x</w>
x _
vy vo
ut f</w>
up on</w>
u u
typ e
transl ates</w>
transf ers</w>
tok ens</w>
ti ves</w>
th row</w>
tam pon
tab ela</w>
t [
super class</w>
succes s
stru kt
ss l
sp li
sor s</w>
sock ets</w>
sim p
sik isti
sen o</w>
sauvegar de</w>
s an
rezult ate</w>
rezult at</w>
result ante</w>
re t</w>
rasshi ren
prim era</w>
post script</w>
po lic
polic y</w>
pk cs
ph p
pere meshchaet</w>
pdf lib</w>
oznit eli
oz el
orden adas</w>
occur s</w>
no ti
n ed</w>
multi ply</w>
mar re</w>
m var</w>
m sql</w>
m ite</w>
m ento</w>
look up</w>
log s</w>
liter al</w>
list ing</w>
let ters</w>
le er</w>
lar ge
lan mis</w>
l' instance</w>
l' extension</w>
kullan ici</w>
kotor aia</w>
kliuch aet</w>
kho d
k aet</w>
jus qu'a</w>
ino de</w>
in struction</w>
im prime</w>
i ruet</w>
horizon tal</w>
har u
gh c</w>
gener a</w>
g d</w>
f ree</w>
f am
exp r</w>
exist ente</w>
error ()</w>
enti er</w>
ell ement</w>
element y</w>
elem ente</w>
ei gen
e der</w>
do wn
discar ds</w>
deno min
delimit er</w>
de si
de ren</w>
de red</w>
de leg
dat agram</w>
dan naia</w>
d r
d ar
cubrid_ lob
cozum ley
conex iones</w>
col ec
co or
cm d</w>
ch unk</w>
ch am
cai ro
cab ec
c ert</w>
bu det</w>
bran ch</w>
blo c</w>
bibliotec a</w>
back ground</w>
b ra
b m</w>
aut res</w>
associ ees</w>
associ ations</w>
ari es</w>
anno tations</w>
and /or</w>
analogi ch
alloc ates</w>
acep table</w>
accept_ list_
ac ks</w>
abier to</w>
8 2
0 4
- string</w>
- bit</w>
開 き</w>
見 つ
符 号</w>
用 い</w>
無 効</w>
準 備</w>
座 標</w>
含 ま
停 止</w>
任 意</w>
ー ド
ー ク</w>
ン ザ
ンザ クション</w>
ラ ージオブジェクト</w>
ミ ット</w>
ボ リ
パ ック</w>
トラ ンザクション</w>
データベ ース
タート ル</w>
スト レ
システ ム
シグ ナ
コンパ イル</w>
コ ールバック</w>
オーディ オ
わ り</w>
な く</w>
zer os</w>
zad ach
za versh
z lib</w>
z en
yi ci
yaf_ rout
y thing</w>
y et</w>
w t-
vy chis
visit or</w>
vi si
ver wendung</w>
un it</w>
ukazan nyi</w>
trans forms</w>
trans forma
trail ing</w>
to l
throw able</w>
text ual</w>
ter m</w>
ta g
t ls</w>
t emp
t els</w>
svo ist
sub sequence</w>
sub classes</w>
struc tures</w>
statisti ques</w>
speci al
sootvetst vi
sokh rani
soderzhimo e</w>
sin if</w>
simplexmliter ator</w>
si ler</w>
sh allow</w>
sever ity</w>
seu le</w>
ser t</w>
sensi tive</w>
seg ment</w>
sav ing</w>
right _operand</w>
rewin d()</w>
rempli ssage</w>
registr y</w>
recon stitute</w>
propri ete</w>
proces sing</w>
pro fil
prepa re
po ses</w>
periodi c</w>
paramet ro
par ser
p w
p ng</w>
os no
on e-
odb c</w>
o usly</w>
o d</w>
num ber
notific ation</w>
nom me</w>
nastro iki</w>
my sql
ms g</w>
mit tels</w>
maxim ale</w>
ma x</w>
ma gn
magn itu
magnitu de</w>
ma gick
m ise</w>
m el
m ech
load ing</w>
lic o</w>
li en</w>
li e</w>
len mis</w>
large ur</w>
l' et
l' ech
l et</w>
l eme</w>
kodi rov
karsi las
kachest ve</w>
juli an</w>
iz men
ispolzu em
invo cation</w>
intern ally</w>
inici o</w>
ho te</w>
her mite</w>
hand l
h n
h ata</w>
graphic s</w>
gost er
gen d
g un
front base</w>
fonc tionne</w>
fir st
file des</w>
fil ling</w>
fi cha
ficha ge</w>
f res
f open()</w>
execut or</w>
ex am
event os</w>
et ype</w>
establish es</w>
esp ec
equ als</w>
enumer ator</w>
eng ine</w>
encu entra</w>
enco des</w>
enco de
ef fici
ech o</w>
e vi
don e</w>
dokum ent</w>
diz geyi</w>
dist ant</w>
direk tor
direc t</w>
dig it
diferen cia</w>
di ff</w>
der i
deno ted</w>
delet ed</w>
de stro
de marre</w>
d lin
coordin ate</w>
condition -type</w>
codific a</w>
co ordenadas</w>
co er
cli ents</w>
chro mati
chis la</w>
chi ff
cat ch</w>
cach ed</w>
c gi</w>
c '
bound ary</w>
bo y
blob /
blob/ clob</w>
bira et</w>
bin aire</w>
attemp t</w>
atribut os</w>
ati v
at ori
at om</w>
asso tsi
as in
anc est
an ing</w>
am i
alter native</w>
alphabeti c</w>
ak im
af fichage</w>
actu ally</w>
actu aliz
_ file</w>
6 .
3 9
開 か</w>
試 み</w>
組み 込み</w>
曜 日</w>
新 た</w>
完 全</w>
含ま れる</w>
切 り</w>
以 前</w>
二 つ</w>
ン グ
リモ ート
ファ ク
ダ イ
ゴリ ズム</w>
ク ッ
ガ ー</w>
インター フェ
アル ゴリズム</w>
によ る</w>
zh e</w>
zapro s</w>
zag ruzh
y m</w>
x50 9
ws dl</w>
writ e
wor d
w ei
w dd
wdd x</w>
w b
vari ab
uz la</w>
uz el</w>
usu ally</w>
ur l
un compressed</w>
ubergeb ene</w>
u uid</w>
tr e</w>
to -
tit le</w>
tionn ellement</w>
term es</w>
t i</w>
syst ems</w>
sy m</w>
sus pen
succes s</w>
sty les
styles he
st u
st din</w>
ss l_
splfile info</w>
soz dan
sonuc u</w>
so _
sion es</w>
sin d</w>
si do</w>
ser ve
security exception</w>
sar prop</w>
s syl
s d</w>
respec tively</w>
resol ver</w>
res ur
replac e()</w>
rem place</w>
re as
raz mer</w>
prot ect</w>
propied ades</w>
proper ty
pro file</w>
prepare ()</w>
poluch en
ph rase</w>
persist ente</w>
peremen noi</w>
par i
pa gin
otprav liaet</w>
ot a</w>
ord ena</w>
opredelen iia</w>
op is
ol d
ok ur</w>
of -
objec t_
o wn</w>
numeri cally</w>
num mer</w>
no te</w>
ne ue</w>
ne go</w>
n en</w>
n d
mo t</w>
metho des</w>
mensaj es</w>
measu red</w>
me h
manej ador</w>
low er</w>
llam a</w>
lim ite</w>
li sp</w>
lec tura</w>
le urs</w>
le gend
legend re</w>
l' utilisateur</w>
l' evenement</w>
l' argument</w>
l' analyseur</w>
kotor oi</w>
koordin at
kliu cha
kliu ch</w>
ka zh
k -
ispol zovan
interrup tible</w>
int enta</w>
individu al</w>
in ner</w>
implement ed</w>
ima et</w>
ig n</w>
id3 v2</w>
hol ding</w>
h um
gz -
grup o</w>
gi r
ge ti
g zip
g l
funktsi ei</w>
funk tionen</w>
fre i</w>
fore ign</w>
for k</w>
filtr o</w>
field_ number</w>
fail ure</w>
expres sed</w>
exp ands</w>
exclu si
excep tion
ex pr
ev ento</w>
etk in</w>
etiqu eta</w>
est adi
estadi sti
escap e</w>
es ti
es s</w>
entfer nt</w>
encoun tered</w>
en z
en sures</w>
en de</w>
elap sed</w>
ek ler</w>
ec ho
e v</w>
e to</w>
e ks</w>
duplic ate</w>
dugum u</w>
don usturur</w>
do main
dimen sions</w>
dig i</w>
di gina</w>
de y
de ki</w>
de f</w>
de cryp
de compres
de b
da em
cur l_
cum ul
cre er</w>
cont ra
comple to</w>
compl ement</w>
com para</w>
co u
clas si
ciph er</w>
cik ti
cancel led</w>
can not</w>
ca use</w>
buffer ing</w>
brea k</w>
brea k
bin d</w>
bil gi
belir ler</w>
begin s</w>
b row
b i</w>
b at
app end
ap s</w>
ap lica</w>
anon y
al tern
al f
al ar
adres se</w>
abfra ge</w>
__ auto
_ t</w>
(ve ja</w>
置 き</w>
範 囲</w>
環 境</w>
末 尾</w>
方 法</w>
取り 出し</w>
単 位</w>
初 期化</w>
ー ク
リ セット</w>
ラ ク
ラ イズ</w>
メ イン</w>
ボリ ック
プログ ラム</w>
プリ ケー
ブ レー
テキ スト
タイ プ</w>
ソ ース
セ クション</w>
ストレ ージ</w>
ステート メント</w>
コ レクション</w>
コ メント</w>
クッ キー</w>
わ せ</w>
ま ざ
まざ ま
さ まざま
zh daet</w>
zapis yvaet</w>
zadan nym</w>
z on</w>
wra ps</w>
wb mp</w>
warn ings</w>
w ob
wob ei</w>
vychis liaet</w>
vi ol
vi g
verwen det</w>
variab len</w>
vari able
v c
up value</w>
ud al
ty p</w>
tro uve</w>
trav aux</w>
transp aren
trace back</w>
tra ves</w>
top level</w>
to ut</w>
to ch
text flow</w>
tempor ar
tekushch ei</w>
targ et
t on
stop s</w>
sp r
so it</w>
small est</w>
slu cha
simp le
sho ws</w>
serve urs</w>
ser tifi
sen det</w>
secon d
sec en
s chi
rut ina</w>
run n
ru iushch
roun ded</w>
ro ute</w>
right -
rewin ds</w>
result ant</w>
resol ves</w>
remain ing</w>
rel acion</w>
registr a</w>
re mar
re b
r rd
r on</w>
qu' elle</w>
pus h
propri etes</w>
pro chaine</w>
prin ted</w>
post a</w>
posi x</w>
pi ck
p se
p list</w>
oznit e
otr o</w>
op code</w>
on e
ol an</w>
nu le</w>
node list</w>
no sti</w>
neur on</w>
n -
mysql n
modifi es</w>
mo us</w>
mno go
mi ti
mer ges</w>
memcached:: get
me an</w>
m us</w>
lon gu
longu eur</w>
list esini</w>
lev els</w>
len ti
l'ech elle</w>
l t</w>
kon k
konk ret
key ()</w>
ker n
kay de
kat alo
k ad
ju dy</w>
iterator a</w>
it re</w>
it ab
iso-8859 -1</w>
is ee</w>
intern en</w>
indek su</w>
in it</w>
in et
im pl
im eni</w>
ic inde</w>
i e
hash code</w>
ha vi
h get
great est</w>
get _
g z</w>
filtr e</w>
fb sql_fetch_
fa con</w>
ex ec</w>
estadisti cas</w>
est an</w>
especific ados</w>
es qu
epo ch
envo i</w>
en able
e ven</w>
dro p</w>
dou b
dom nodelist</w>
do res</w>
do _
diz is
differen ces</w>
describ es</w>
dep rec
de x
date .
daem on</w>
d' image</w>
d n
cre ar</w>
cre ado</w>
cr c</w>
correspon d</w>
contex to</w>
content s()</w>
compar ing</w>
coer ce</w>
check sum</w>
chec king</w>
ch es
cast s</w>
cas cade
c' est</w>
by _
by_ name()</w>
buil t</w>
brea ks</w>
bic em
bezi er</w>
begin _
becom e</w>
be havi
be endet</w>
b is</w>
b est</w>
ay ar
av ing</w>
authenti cation</w>
authenti c
atri b
at ors</w>
assum ing</w>
ar ly</w>
anti l
an nule</w>
add _
a pari
\ n</w>
= =</w>
82 2</w>
. ini</w>
' t</w>
構 造</w>
書 き</w>
暗 号</w>
時 間</w>
新 規</w>
換 え</w>
含 ま</w>
受 信</w>
取り除 き</w>
分 割</w>
ローカ ル</w>
ロ ガー</w>
ラク タ</w>
メ ン
プロ ファイル</w>
ド メイン</w>
ダ イア
タ ッチ</w>
シグナ ル</w>
サー ビ
ク ロー
エラー コード</w>
インターフェ イ
インターフェイ ス</w>
ア プリケー
よ り</w>
zadan nom</w>
wh en
when ever</w>
we b
vy razh
vo lu
vo id</w>
vers al</w>
ver bo
van ie</w>
v stavliaet</w>
v obo
utf- 16</w>
ustanov len
us _
tup les</w>
traz ado</w>
transl ation</w>
transac tion()</w>
to ge
toge ther</w>
tim ed</w>
th eme</w>
term s</w>
ten cia</w>
tanitici sin
ta gs</w>
t z
t ty</w>
t sel
t et</w>
t c</w>
t )</w>
sviaz an
stop ped</w>
stock age</w>
st m</w>
st ack
spli ts</w>
splfile object</w>
sor g
sol amente</w>
situ ado</w>
si z</w>
servi dores</w>
sen ses</w>
se c</w>
se a</w>
sc an</w>
satis fy</w>
sa g
s ut
s las
roun ds</w>
rip ta</w>
ret ro
result _id</w>
restric tions</w>
repe ated
repeated ly</w>
rel ated</w>
reg ul
recursive iterator
reb ob
re store</w>
re start</w>
re port</w>
re duce</w>
rac ine</w>
ra tional</w>
r sa</w>
que u
qu an
quan tum</w>
prox im
progres s</w>
program m
pres er
post f
posledne i</w>
posi tion
po p</w>
ph ar
peredan nyi</w>
pa ges</w>
p es
p ami
os vobo
or- name</w>
oper ands</w>
op ac
on es</w>
olma digina</w>
ol ustur
observ ateur</w>
object_ id</w>
numer ical</w>
nee ds</w>
ne e</w>
nam ing</w>
modul us</w>
mo des</w>
min or</w>
me vc
man ip
m q
m k
m arg
listen er</w>
link ()</w>
lim its</w>
lie u</w>
lich es
li re</w>
li gh
l l</w>
ko v</w>
kli ent
k o</w>
jav as
javas cri
iz e</w>
islev ine</w>
interpret e</w>
input s</w>
in variant</w>
in gi
ima gin
imagin ary</w>
im plicitly</w>
igno red</w>
i me
i ert</w>
high est</w>
hi er
head ing</w>
h sh</w>
gi ve</w>
g ini</w>
g a</w>
fu l</w>
fix ed</w>
finis hes</w>
fin aliza</w>
filter s</w>
fi k
fi dd
f ing
ex plicit</w>
estand ar</w>
estab el
estabel ece</w>
es les
er ung</w>
er ca</w>
er ()</w>
dopusti mo
distinc t</w>
displa ying</w>
disc o</w>
di sinda</w>
desp laz
deskrip tor
deserializ ed</w>
dependenc y
dela i</w>
del t</w>
debug ging</w>
de len
db _
dat ei
dan nyi</w>
d' entree</w>
d td</w>
coor donnees</w>
conver ting</w>
connec te</w>
con c
complet ed</w>
comm ents</w>
com presion</w>
column as</w>
collec tion
co uld</w>
co des</w>
chit aet</w>
ch r</w>
cee ds</w>
cagri lir</w>
buffer- or-name</w>
buffer 's</w>
bu zon</w>
blo que</w>
bil gi</w>
benut zt</w>
bel on
behavi or</w>
be rech
back ward</w>
attribut s</w>
atta ches</w>
atri but</w>
at sia</w>
asso zi
ari os</w>
ar qui
ale atori
al -
ac erca</w>
ac ce
abili ty</w>
abili r</w>
abbre v</w>
a hn
a ge
_ error()</w>
< <
3 -
04 5</w>
0 0</w>
- time</w>
通 常</w>
読み 出し</w>
説 明</w>
行 番</w>
空 白</w>
確 立</w>
実 際</w>
始 ま
大き さ</w>
列 表</w>
代 わり</w>
一 部</w>
ージ ャ</w>
ン プル</w>
レスポ ンス</w>
リア ライズ</w>
ミ ュ
マッ プ</w>
ブレー ク
ブレーク ポイント</w>
バ ック
ツ リー</w>
スト リ</w>
スクリプ タ</w>
ス ケ
シ リアライズ</w>
サ ンプル</w>
サ ンプ
グローバ ル</w>
グ レ
イ メ
ま だ</w>
な ど</w>
っ て</w>
さまざま な</w>
zer o
z us
z ug
z _
wrapp ed</w>
we ak</w>
w an
w al
vi ce</w>
verbind ung
ver siiu</w>
ver itab
veritab an
v end
v 1</w>
uzun luk</w>
user- defined</w>
uscul as</w>
um eri
ul o</w>
uel le</w>
tion s
ti l
ti ent</w>
text ()</w>
tar info</w>
tang ente</w>
tam ente</w>
t- in</w>
syl aet</w>
sup plement
sunuc us
string indexoutofboundsexception</w>
st ek</w>
sq li</w>
spr int
speci fying</w>
sorti ruet</w>
soderzhashch uiu</w>
so li
sini f
signifi c
signal led</w>
si ch</w>
ser ont</w>
samp le</w>
saf ely</w>
s do_
res mi</w>
reposit ory</w>
remo te
rellen o</w>
rel ac
reg ex
reemplaz a</w>
rectang le</w>
reco gn
re d
ran go</w>
radi an
ra ti
r us</w>
r ing</w>
quo ted</w>
provi ding</w>
proiz vol
pro chain</w>
prepa ree</w>
predstavlen ie</w>
pos ed</w>
poluch enie</w>
po tok
po sylaet</w>
po lozh
pkcs #
pik sel
ph ase</w>
perform ed</w>
pas ado</w>
parti e</w>
param s</w>
p el
output -port</w>
out filename</w>
or dered</w>
op tionen</w>
object ::
ob rat
oauth provi
o p</w>
o le</w>
numeri que</w>
non- empty</w>
non block</w>
ne ed</w>
nar row</w>
nano seconds</w>
n t
n els</w>
my sqli</w>
mu ch</w>
mon adic</w>
micro seconds</w>
metam eto
mech anis
me k</w>
mas ini</w>
map a</w>
manip ul
ma ke
low est</w>
load from
load ()</w>
lo gi
llam ar</w>
lat er</w>
larg est</w>
larg er</w>
l ate</w>
l ad
l ()</w>
kut us
kodlam asini</w>
kim ligini</w>
k lam
k kin
j ours</w>
iz meniaet</w>
it em
it 's</w>
is hch
ip tc</w>
interpret ed</w>
instan ti
ing ()</w>
incre ments</w>
incre ment
in struc
in s
im port</w>
il s</w>
identi fying</w>
i u
i sim
ha kkin
h ach
gn up
gi ves</w>
get text()</w>
ger ce
gen in</w>
gegeb ene</w>
g c</w>
g a
form ed</w>
for ces</w>
fo ur</w>
fo is</w>
fix es</w>
fing er
fil led</w>
fidd le</w>
fann_get_ cascade
fann_get_cascade _
fam ily</w>
fal l
facet. date.
f n
exp and</w>
exion s</w>
ex plicitly</w>
esper a</w>
er re</w>
er as</w>
entre es</w>
enc y</w>
en nykh</w>
em be
e ure</w>
e que</w>
e )</w>
dru gi
dom document
do l
denomin ator</w>
defini ert</w>
deco ding</w>
de _
dat as</w>
dat ag
d st</w>
cy rus</w>
cubrid_lob 2_
cour s</w>
correspon ds</w>
connec tion
conn exions</w>
conj un
configur a</w>
comput er</w>
comm unic
comm ence</w>
com prob
cle ar</w>
cl one</w>
chan nels</w>
ch un
ch ert</w>
cas ca
casca de</w>
buil t-in</w>
bu ch
br ack
bor ra</w>
bo t
bo ite</w>
bit map</w>
biblioth eque</w>
bas is</w>
baglan ti
back trace</w>
b ro
at tr
asynchron ous</w>
as ina</w>
arqui vo</w>
ar ity</w>
apunt ador</w>
appel er</w>
anony mous</w>
an not
an a</w>
ali ases</w>
aj ust
ag greg
act uellement</w>
ac ak</w>
a it</w>
_star t()</w>
_get_ contents()</w>
_ dir</w>
> ></w>
2 5
1 9
. c</w>
* r
転 送</w>
識 別
読み込 ん</w>
置 換</w>
示 す</w>
済 み</w>
消 去</w>
従 っ</w>
大 文字</w>
反 復</w>
単 語</w>
単 一</w>
判 定</w>
使 い</w>
作 業</w>
以 降</w>
以 上</w>
ローカ ル
プロ ト
デバッ グ</w>
タイム スタ
シ ョン
ク ス
イベ ント
ア タッチ</w>
zug ri
zap us
zadan nyi</w>
z ifi
y ch
x o</w>
x ng</w>
x a</w>
writ e()</w>
work space</w>
wh ite</w>
wel che</w>
we ak
w ant</w>
vremen i</w>
viol ating</w>
verro u</w>
ver k
ver glei
v or</w>
v ac
uu encode</w>
utiliz ando</w>
unter schi
un its</w>
un den</w>
um u</w>
um ol
umol chan
um e</w>
uc k
u za
u res</w>
tr y
to u
tip a</w>
th us</w>
th em
th ats</w>
termin os</w>
termin ation</w>
temporar ily</w>
tekushch uiu</w>
te in
t ement</w>
t al
sw aps</w>
sub tr
sub scri
stric t</w>
stor ing</w>
sto cke
stat us
stat s</w>
stat ()</w>
sql -
splfileinfo ::get
spei chert</w>
spac ing</w>
sous -
sor ting</w>
sor ::
sootvetstvi i</w>
solr document</w>
socket_ create()</w>
so port
siz ed</w>
sing le-
simplex ml</w>
sign ing</w>
shi f
set -
server om</w>
sen sible</w>
sen ding</w>
sem anti
se in
scrip ts</w>
schrei b
sch it
s it
s est</w>
s ab
rewin d
ret ry</w>
requi rements</w>
rellen a</w>
rela xng</w>
recor d-
rec ently</w>
re size</w>
re du
re _
r ado</w>
qu ad
produc ed</w>
proces s
pro te
pre para</w>
pre p
pozit sii</w>
posledne go</w>
pi pe</w>
per si
pdf _
pat ron</w>
parti cu
particu li
palab ras</w>
pal ette</w>
pa qu
p les</w>
overla y</w>
out *</w>
ot kryvaet</w>
osvobo zhdaet</w>
ok ruzh
obtain s</w>
o_ nonblock</w>
numar asini</w>
n az
n ab
multi ples</w>
mo ving</w>
mer ge</w>
meh re
me ans</w>
mat cher</w>
man ual</w>
ma ster</w>
lual_ buffer
losch t</w>
log ged</w>
local ized</w>
lo op
line ar
lib xml</w>
le ur</w>
le quel</w>
lat est</w>
l'et ape</w>
l' algorithme</w>
kum es
kom m
ko g
kog da</w>
kliuch om</w>
ki l</w>
khozh d
kern el
k u
k ennung</w>
j ob
iz v
iz ei
iterator:: rewind()</w>
it aliz
ispolzov an</w>
invo ca</w>
inter medi
inten ded</w>
inte ger
inform i
informi x</w>
info ()</w>
inet address</w>
impor t
il leg
hum an
hu man</w>
htm l
host s</w>
high ligh
hi perbo
har f</w>
handl ers</w>
hakkin da</w>
hach age</w>
h ref
h ere</w>
gnup g_
gin in</w>
get text</w>
geo ip_
geo ip</w>
g magick
fore ign
for ce</w>
finaliz er</w>
fin ite</w>
filen am
fil s</w>
fel des</w>
f en</w>
f ar</w>
expr s</w>
evi d
establec ido</w>
est o</w>
err no
epo cas</w>
envo y
entr y
en-t ete</w>
en sure</w>
en laz
en ame</w>
em it</w>
ed ges</w>
e y
e struc
e str
e /
du zen
dosya yi</w>
dokum ent
dizges i</w>
di ag
descrip teur</w>
degisk en</w>
defini erten</w>
defini cion</w>
deci mal
de x</w>
de tru
de ist
de ger</w>
db pl
day light</w>
date izei
data input</w>
dat at
d rb
cur ri
cozumley ici</w>
correspon de</w>
cop y
con s</w>
comput ed</w>
comm it
combin ation</w>
com ing</w>
com i
colec cion</w>
clo sest</w>
cion al</w>
chis el</w>
character iterator</w>
cap italiz
canc els</w>
canc el</w>
callback -
cal isi
c acion</w>
buch stab
bu k
bu fer
bo ot
bin ar
belon gs</w>
be ti
baz y</w>
bay t
bat ch</w>
baglan ti</w>
back up</w>
auth or
ausgab e
atrib uta</w>
atomi c</w>
at siiu</w>
asoci ativo</w>
asign a</w>
as signe</w>
array 2</w>
ark hi
argum ente</w>
archi ves</w>
appli c
ap lic
ap i
ap c</w>
anaht ar</w>
an h
ali ve</w>
ali si
ali gn
al lo
ag ain</w>
aff ected</w>
ad an</w>
activ acion</w>
aci k</w>
acces sor</w>
ac ao</w>
_ set</w>
_ number</w>
2. x</w>
- 1
) )</w>
" )</w>
送 出</w>
警 告</w>
識別 子</w>
読 み</w>
破 棄</w>
渡 し</w>
撤 廃</w>
定 数</w>
失 敗</w>
再 帰</w>
優 先</w>
一 覧</w>
ボリック リンク</w>
プ ラ
ファイル システム</w>
パス ワード</w>
パ ネル</w>
バ ー
ディ スクリプタ</w>
ター ン</w>
タイムスタ ンプ</w>
スト ラクタ</w>
シン ボリックリンク</w>
コー ド
イン タ
も と</w>
も し</w>
つ き</w>
だ さい</w>
し よ</w>
znach enii</w>
zadan iia</w>
z wis
zwis chen</w>
z es</w>
z el
yap il
y or
window 's</w>
w w
vyvo da</w>
vypoln enie</w>
vu et</w>
voz mozh
vnutren nii</w>
vir tu
vi sible</w>
verk n
verkn up
veri yi</w>
ver y</w>
vari os</w>
vari as</w>
uti l</w>
uni chr</w>
umolchan iiu</w>
ukazan nym</w>
uf en</w>
tz info</w>
turt les
tru e
transforma tion</w>
trans form</w>
tr i</w>
tionn aires</w>
ti ruet</w>
ti f</w>
ti ck
th unk</w>
th rea
th ir
thir d</w>
tekushch ee</w>
tc p</w>
synchron ization</w>
sur ven
suc ceeds</w>
string ()</w>
str ingi
sti ll</w>
stat ements</w>
stat e
spe zifi
sp et
soobshch enie</w>
solic it
soap -
slucha e</w>
simvo l</w>
sim bo
signific ant</w>
sign um</w>
sh ev</w>
serializ es</w>
search d</w>
se ite</w>
se in</w>
scal es</w>
s zh
s ul
s m</w>
s [
rp m</w>
rezh im</w>
resol ve</w>
res er
remo ving</w>
regex iterator::
reg a</w>
ref er
recur sive</w>
rebob ina</w>
re o</w>
re k</w>
rb _
ran dom
quo te
query _
qual ified</w>
qu es
qu er</w>
proto col
proporcion ado</w>
proporcion ada</w>
proces sor</w>
pro ver
print f</w>
pri vi
pre v
por i
po ps</w>
plac er</w>
ph p-
peti ciones</w>
perm ut
per vyi</w>
pdo statement</w>
ordin ary</w>
ol us
ol d_
odb c_
occ ur</w>
obrabotchi k</w>
o h
oh ne</w>
numer os</w>
numer ator</w>
nom er</w>
no st</w>
new val</w>
nachri cht</w>
nachin aia</w>
n ement</w>
mode le</w>
mevc ut</w>
meti c</w>
met a</w>
met a-
mes hch
men ge</w>
max db_
matri ce</w>
mas i</w>
marg in</w>
man era</w>
m si
lug ar</w>
lu i</w>
lock ()</w>
loc king</w>
lib o</w>
li u
le ft
lar in</w>
l '</w>
kho di
kayde der</w>
kay na
k ill</w>
k en</w>
javascri pt</w>
interval le</w>
interrup ts</w>
interpret er</w>
inter section</w>
input -port</w>
initializ ation</w>
initi ates</w>
inf eri
in c</w>
impl ement</w>
ih n</w>
ign or
ig ne</w>
i ro</w>
i fa
i de
hy per
hash- table</w>
hash ing</w>
h w
h en
h ard</w>
h ab
gu li
group e</w>
goster im
go al</w>
gnupg_ add
gi bi</w>
gen s</w>
ge e</w>
g lob</w>
funktsi iami</w>
func tionally</w>
format e
flo ats</w>
finis hed</w>
fi l</w>
f s</w>
f _
exam ine</w>
ex isti
event ::
esqu ema</w>
enti ally</w>
ent ed</w>
ek rani
ejecut ar</w>
ed en
e q</w>
e q
e mail</w>
e h
dosya ismi</w>
dostup a</w>
document os</w>
dizges ini</w>
dis que</w>
dis co
direc tives</w>
dir _handle</w>
dic tionnaire</w>
di mi
detru it</w>
des sin</w>
deri ved</w>
deno ting</w>
defini es</w>
defin e_
datag ram
cre ation</w>
coun try</w>
contr act</w>
cont orno</w>
constan te</w>
compos ite</w>
compil ed</w>
co routine</w>
co cu
clo sure</w>
ci fr
ci ado</w>
che by
cheby shev</w>
char s</w>
cc l</w>
call er</w>
ca tion
c lock</w>
c k</w>
buffer- local</w>
bufer iz
bol sh
bloc k
bin ario</w>
bestim m
berech net</w>
bere it
bel geyi</w>
be z</w>
bas la
b order</w>
b acks</w>
automati quement</w>
aufru f</w>
at e_
arith metic</w>
arg v</w>
analogich no</w>
analo go
alan i</w>
al ise</w>
al er
af ect
adj ust
add r
ac count</w>
abfra ge
ab ly</w>
a x</w>
a uc
a kim</w>
a fin</w>
` #
= ></w>
8 j
4. x</w>
4 8</w>
3 d</w>
2. 4.x</w>
2. 2.x</w>
2- d</w>
2 00
- of-
- case</w>
* out*</w>
* )</w>
除 去</w>
送 り</w>
輪 郭</w>
要 求</w>
行 わ</w>
直 接</w>
渡 さ</w>
書き 出し</w>
持 っ</w>
待 ち</w>
固 定</w>
回 数</w>
呼 ば</w>
以 外</w>
丸 め</w>
一 時</w>
ロ ール</w>
レ ジ
プロト コ
ビ ット
バイナ リ
チャ ン
チェ ック
スケ ープ</w>
コン ト
コン テキスト</w>
コ ミット</w>
エン ティ
エ スケープ</w>
アプリケー ション</w>
り 返し</w>
も しく</w>
に おける</w>
な っ</w>
zi ert</w>
zagruzh aet</w>
zag o
z em
zem pli
yer lestirir</w>
yaf_rout e_
y si
y la</w>
y endo</w>
y ar
who le</w>
we iter
wan delt</w>
w eight</w>
verifi es</w>
verifi cation</w>
verbo se</w>
ver sucht</w>
ver kh
ver age</w>
ve z</w>
ve red</w>
v m</w>
v khozhd
uzun lug
uv ent</w>
utiliz ar</w>
utili za</w>
ustanov ki</w>
up han
un da</w>
um ask</w>
ul am
u i</w>
u er
trabaj ador</w>
top o</w>
ti pos</w>
thread interrupt</w>
th s</w>
ter im</w>
temp s</w>
te k</w>
table _name</w>
t[ k
t k</w>
t ente</w>
sy base</w>
suiv ante</w>
success ful</w>
sub -
star t_
st der
stder r</w>
st a
ss h</w>
so l</w>
smal ler</w>
ski p</w>
sim ply</w>
server e</w>
seri al</w>
sec cion</w>
search ing</w>
schrei bt</w>
schit yvaet</w>
sched ul
scal ed</w>
sati r
sam an
saman lik</w>
s ni
s li
rfc2 045</w>
respec t</w>
resour ce
requi rement</w>
rempli t</w>
reflection method</w>
reflec t</w>
record- type</w>
recei ve</w>
re us
re pli
re name</w>
re guli
re es</w>
re duc
ra iz</w>
r or</w>
quo tes</w>
qu elle</w>
qu anti
qu ant</w>
prozes ses</w>
proper ly</w>
proces sed</w>
pro mp
pro c_
proc_ open()</w>
prior ite</w>
prin imaet</w>
prepar ada</w>
predst avli
pre g_
pre defined</w>
pre -
potok a</w>
pop ul
po lia</w>
po is
pick le</w>
ph ysi
persi stante</w>
perform ance</w>
pas o</w>
parti tion</w>
parser -
par ta
par all
pad ding</w>
p ing</w>
p c
other _
ordin al</w>
ord re</w>
opis an
oper aciones</w>
op tion
on _
ob i
ob _start()</w>
o cia</w>
numeric o</w>
nu l</w>
non- over
next -
new t</w>
ne i</w>
nachri ch
multi -
ms g
mp ()</w>
monit oring</w>
mo g
minim o</w>
mi me
meto da</w>
metat able</w>
mes i</w>
men or</w>
ma king</w>
ma gic</w>
ma ge
log _
loc ked</w>
lo gic</w>
ler inin</w>
lef t-
last _error()</w>
la tion
l' utilisation</w>
l' hote</w>
l' exception</w>
l ex
kut uphan
kotoro e</w>
kop y
kon tein
kodi rovan
ko go</w>
kil ar</w>
ke ep
karsilas tir
kad ar</w>
k le
job s</w>
it e
is lem
ip addr</w>
inser ted</w>
input stream</w>
ino ti
indic ator</w>
indic ate</w>
inde ks</w>
in ver
in coming</w>
im g_
img_ color
img_color _
ili r</w>
i v</w>
i res</w>
i bm</w>
human -
ht able</w>
hor a</w>
hin zu</w>
has htable</w>
ha zi
h iz
h aving</w>
gregori an
gl yp
gir di
gi rd
gegeb en</w>
g un</w>
g ulti
g de</w>
g d
g cd</w>
ftp- server</w>
frequ ency</w>
frag ment
fra ge</w>
fin d
filter _
file _get_contents()</w>
fi g
fi fo</w>
fget s()</w>
fetch ed</w>
fel d</w>
fal lo</w>
fa z</w>
fa m</w>
f ur
f at
ey lem
expor ts</w>
expan ded</w>
ever ything</w>
et ab
espec ial</w>
es _
er 's</w>
equ al
ent orno</w>
enregist rement</w>
en ded</w>
en cap
element u</w>
element ov</w>
el op
ek zempli
ein zel
effec ts</w>
eff et</w>
ef ecto</w>
dynam ic</w>
dosy aya</w>
don 't</w>
dom element</w>
dizi yi</w>
dic cion
di ye</w>
di o</w>
di d</w>
devuel to</w>
determin ed</w>
degistir geler
degistir ge</w>
degisti rir</w>
deg ree</w>
defin idas</w>
de stru
dbpl us_
db m</w>
db 2</w>
dateizei ger</w>
d' erreurs</w>
d ue</w>
cur ses</w>
coun ting</w>
cou che</w>
correspond ent</w>
correspon dan
cop ying</w>
contin ue</w>
con f
comm ent
collec tions</w>
coll ap
co- rutina</w>
chromati c
chromatic ity</w>
chan ging</w>
certific ates</w>
candi datas</w>
calisi r</w>
c_ array</w>
c types</w>
c et</w>
c -
by key()</w>
buchstab en</w>
bu d
bbcode_ container</w>
bas lan
b sd</w>
b r</w>
b compiler</w>
ation _
at ora</w>
at ar</w>
asso c_array</w>
asso c</w>
array access</w>
argument a</w>
ar d
ar co</w>
alph an
allow ing</w>
al i</w>
aj o</w>
afect adas</w>
ad i</w>
ad ap
actu aliza</w>
accep ted</w>
ac ts</w>
ac cumul
a gi
_ encoding</w>
_ array</w>
: specification</w>
7 0</w>
0 .
+ +</w>
( see</w>
( a</w>
領 域</w>
記 号</w>
解 釈</w>
見つ け</w>
行 う</w>
自 動</w>
終 端</w>
無 視</w>
消 し</w>
条 件</w>
有 する</w>
曲 線</w>
抽 象</w>
巻 き
巻き 戻し</w>
展 開</w>
始ま る</w>
塗 り
入 っ</w>
ー ン</w>
ー ム
ンダ ー</w>
ロ ー</w>
ル チ
ラ ー</w>
メモ リ
メ ント
メ タ
ミュ レート</w>
マ ーク</w>
マ ルチ
ボ タ
ペ アド
プロ キ
プリ ペアド
プリ タ</w>
ファイル ハンドル</w>
パ ターン</w>
バ イン
バイン ド</w>
ニ ュ
トレ ース</w>
トレ ース
ストリ ーム
ス ペ
シ ャ
シ ェ
サービ ス</w>
ク ス</w>
エンティ ティ</w>
ウ ト</w>
イメ ージ</w>
アーカイ ブ
に関 し</w>
によ って</w>
ぞ れ</w>
それ ぞれ</w>
せ る</w>
う ち</w>
zip -
zh du</w>
ze it</w>
zapus kaet</w>
zam an
zago lo
z ul
yuk ler</w>
yaf_ application</w>
x or</w>
x e</w>
wra p</w>
wra p
wrap per
win32ole_ type</w>
wel cher</w>
w in</w>
w il
vyz yvaet</w>
vy vaet</w>
vol ume</w>
vi de
verzeichn is</w>
vers chi
v ander
vander mon
vandermon de</w>
uyg ular</w>
und an</w>
um bra
umbra l</w>
ukazat e
ukazate lia</w>
ug ate</w>
uer do</w>
uber pruft</w>
u ff
typ ical</w>
typ e-
tur un
tup la</w>
tu ation</w>
tsel o
ts vet
trunc ated</w>
top -level</w>
to da</w>
ti g
ti es
thread -
target path</w>
tablit sy</w>
ta etsia</w>
ta ches</w>
t y-
t ms</w>
t eni
swit ch</w>
sushchest vuet</w>
sure c</w>
sur face</w>
su ch
stro k</w>
stream s</w>
stra p</w>
stek a</w>
srav n
sprint f()</w>
son ra
son lan
so me
so ft</w>
sni pp
siz er</w>
si fre
sh m
seu l</w>
ses sions</w>
serializ ation</w>
ser an</w>
selec tionne</w>
sel on</w>
segun dos</w>
segun do</w>
secon des</w>
sav e_
sati r</w>
s rf
srf i</w>
s .
runn able</w>
ru le</w>
ro ot
ro o
ro b
ri m</w>
rezh ime</w>
resource bundle</w>
repor ting</w>
ren k</w>
ren k
ren dering</w>
remo to</w>
reflection class</w>
referen ciado</w>
ref er</w>
recei ves</w>
recei ved</w>
read able
re v
re initialise</w>
ran ee</w>
r ate</w>
r and
ques tion</w>
py taetsia</w>
pur pose</w>
pun c
punc tuation</w>
pue den</w>
ps_ add_
protses sa</w>
program a</w>
produc es</w>
prob ably</w>
pro p
pri or</w>
predstavli aiushch
poz vo
posi tivo</w>
pori ad
pol l</w>
po ur
po pen
po le
pl ug
pi le</w>
pf ad</w>
pere vodit</w>
per vogo</w>
per -
pend ant</w>
pend ()</w>
pe red</w>
pd f-
par al
pa ko
p ra
output stream</w>
otr a</w>
ori gin</w>
or ne
or den</w>
open ssl_
op t
on g
on a</w>
od d</w>
obrabot ki</w>
oauthprovi der
oauthprovider ::
o ch
numer is
no vo</w>
no min
new name</w>
nes ne</w>
ner 's</w>
ne a
nea rest</w>
nb sp
na o</w>
n at
n ag
mysqln d</w>
mozh no</w>
mongo db
modi fying</w>
mo ts</w>
mis se</w>
meti n</w>
mel d
mechanis m</w>
me zhdu</w>
me aning</w>
max len</w>
mati ci
matici dad</w>
mas sive</w>
marsh al
mar ca</w>
man ner</w>
man if
ma β</w>
ma k
m alloc
lors qu'
log record</w>
lo t</w>
llam adas</w>
listen ing</w>
list ant</w>
line ar</w>
lich en</w>
li chi
la gu
lagu erre</w>
l' url</w>
l' appel</w>
l' adresse</w>
kotoro go</w>
kom primi
kom ment
klas se</w>
kho dit</w>
key bo
key -
karakter lerin</w>
j son
ispolzov at</w>
invo ke</w>
inter na</w>
instal ler</w>
inser ta</w>
inclu yendo</w>
in valid</w>
in sensitive</w>
in ner
il eti</w>
il er
iceri gini</w>
ic inin</w>
ibase_ blob
ibase_blob _
i rovan
i base</w>
i akh</w>
htm lenti
highligh ted</w>
he x</w>
he ure</w>
h il
guar d
gra v
gmagick pixel</w>
gi bi
ges tionnaires</w>
ges etzt</w>
gener ation</w>
g ren
g an
fur ther</w>
fun cion
fuh run
fre e
frac tional</w>
form ul
form ate</w>
flus h
fir ma</w>
fi es</w>
feh ler</w>
fann _
fail u</w>
f read()</w>
f ark
expor ta</w>
expi red</w>
expan sion</w>
exec ()</w>
ex port</w>
et om</w>
estruc tura</w>
estr a</w>
er stellt</w>
er ing</w>
environ nement</w>
enti ty
end ]</w>
enco der</w>
en v</w>
en ne</w>
en contr
el len</w>
el de</w>
eintra g</w>
e tho
e ren</w>
e au</w>
dug u</w>
diz genin</w>
diz ge
divi de</w>
distri but
direc tive</w>
direc tamente</w>
dir name</w>
digit al</w>
diag on
di stor
devi ces</w>
desi red</w>
deserializ e</w>
descrip tor
deger i</w>
decre ments</w>
deco ded</w>
de sign
de lan
de ja</w>
de cri
de bo
db 2_
datenban k
date _
dan nogo</w>
da ys</w>
d t</w>
d ers</w>
d av
d am
custo m
cu la</w>
cu ad
cro maticidad</w>
cri p
copi ed</w>
consum ing</w>
construc teur</w>
con st</w>
con ect
compri me</w>
compl et</w>
compil es</w>
compa ti
command -
comm enc
combin es</w>
com b
com ando</w>
co- rot
clo sing</w>
child ren
cham ada</w>
certific at</w>
cas e-
call backs</w>
calend ri
calcul ated</w>
c ing</w>
c ado</w>
by l</w>
bul un
bu yuk
brow ser</w>
boun ds</w>
bot tom</w>
boot strap</w>
bol sho
bloque o</w>
bestim mt</w>
benut zer
be i</w>
be an</w>
bay t</w>
bas ado</w>
b z
b ru
b eta</w>
b alan
ay i
auto commit</w>
ausgabe puff
assum ed</w>
assotsi ativ
asci i-
as ocia</w>
applic able</w>
app elle</w>
ap p</w>
anteri or</w>
am bi
alloc ation</w>
ale ato
al len</w>
ak ti
ahn lich</w>
ag es</w>
affec te</w>
advan ces</w>
addr info</w>
ad ver
ad res</w>
ad ores</w>
ad ora</w>
acces sed</w>
ac uerdo</w>
ac l</w>
ac cion</w>
ab il
a qu
a /
__auto load()</w>
_ fetch</w>
:: soap
9 9
3 2-
. h</w>
- tree</w>
& nbsp</w>
適 切</w>
詳 細</w>
証 明</w>
統 計</w>
状 況</w>
書き 込
日 付</w>
指 し</w>
小 文字</w>
塗り つぶし</w>
問い合 わ</w>
同 等</w>
再 生</w>
付 き</w>
ース ケール</w>
ンプ レート</w>
レ ンダ
ル ー
リクエ スト
リア ス</w>
ユ ニ
メタ データ</w>
プロトコ ル</w>
プリペアド ステートメント</w>
ビ ュ
パ ッ
バッ ファ
ハ ード
ノ テー
ネ ット
ト ーク
テ ンプレート</w>
ッシ ョン
セ ッション
スタ ック
ス ロー</w>
サブ クラス</w>
コント ロール</w>
コン ストラクタ</w>
グレ ースケール</w>
クリ ア</w>
クラ ス
エ イ
エイ リアス</w>
ウ ス</w>
イン ポート</w>
アル ファ
ア ノテー
ら か</w>
べ き</w>
の よう</w>
の すべて</w>
な かっ</w>
と し</w>
つ の</w>
え る</w>
zagolo v
zadan ii</w>
yor sa</w>
yan it
yanit ta</w>
y es</w>
y en</w>
xsltproces sor</w>
x es</w>
x 2</w>
writ e_
writ able</w>
wis e-
wil d
wild car
wei gh
vyzo ve</w>
vyz van
vnutren nego</w>
visit ing</w>
visit ed</w>
vin cul
verzeichn is
ver sii</w>
vec teur</w>
var ()</w>
value 1</w>
val s</w>
val -
v ent
v 8j
v ()</w>
uzunlug unu</w>
uza k</w>
uyg un</w>
utili sees</w>
uti le</w>
uni code
un supporte
unsupporte do
unsupportedo per
unsupportedoper ation
unsupportedoperation exception</w>
un escap
um ge
udal en
uc le
uc ao</w>
ubergeb en</w>
u le</w>
u il
u et</w>
two 's</w>
turtles creen</w>
tur ned</w>
tur as</w>
tu pl
tru etype</w>
tri g
trabaj os</w>
tra verse</w>
to wards</w>
to ute</w>
to pl
to ol</w>
tick s</w>
throw ing</w>
thread info</w>
th ere
th as
tek st</w>
te sian</w>
te ki</w>
te es</w>
tam am
tablit su</w>
t x
t sa</w>
syn c</w>
svoist va</w>
susp end</w>
surven ue</w>
succes sor</w>
sub stit
stro ko
stric tly</w>
str c
sta gn
st amp</w>
squ ares</w>
specifi cations</w>
sp l</w>
sp is
sp el
sp an</w>
sour ce-
sour ce
sonra ki</w>
solr query
solrquery ::
sol l</w>
soderzh it</w>
soap server</w>
sn mp
ski pped</w>
siz e()</w>
sistem y</w>
sir al
sin y
simul ates</w>
sigui entes</w>
sign at
sib ling</w>
si dad</w>
sh ut</w>
sek unden</w>
se vi
se ek
sc ape</w>
sa u
s sy
s meshch
s ch</w>
rov ki</w>
ro g
ri cht</w>
res eau</w>
represent ee</w>
represent ado</w>
recuper ar</w>
reas on</w>
read- only</w>
re stores</w>
re ply</w>
re direc
ras pako
ra tion</w>
ra n</w>
quote d-
quo te</w>
quick hash
put i</w>
pseudo- vandermonde</w>
pse v
protoco le</w>
prostranst va</w>
propag ation</w>
proizvol nyi</w>
proiz vodit</w>
proces sors</w>
privi le
preobra zovan
prece ding</w>
pre fixe</w>
pre dost
pozvo liaet</w>
polzovatel ski
pl ur
phar ::
person n
per mi
pe uvent</w>
pas see</w>
parametro m</w>
par cas
palab ra</w>
pa ge
p gid</w>
p an
ozniteli k</w>
ow ning</w>
ouver te</w>
ouver t</w>
ot ras</w>
oshib ke</w>
or der
op tionnellement</w>
op tim
od nogo</w>
oc tal</w>
obra zo
obj _</w>
ob ych
notifi er</w>
normaliz ed</w>
non- blocking</w>
no v
no s</w>
no -
ni vaet</w>
ni m</w>
neuron al</w>
nes kol
neces ario</w>
nd *</w>
namespac es</w>
nam e-
nachal o</w>
na vig
n ucle
n iz
n en
mysql_ query()</w>
mu estra</w>
mp ia</w>
modifi cations</w>
mo use</w>
mo un
mnogo search</w>
minim ale</w>
mi x
mi entra
mientra s</w>
metam etho
metad at
memcached:: set()</w>
mem ber
may be</w>
mat tr</w>
mas que</w>
mar ked</w>
manif est</w>
man u
man ti
make -
main tain</w>
main tain
ma gic
m ult
m m
lual_buffer )</w>
local es</w>
list ed</w>
lik te</w>
li sti
li mpia</w>
li ke
len en</w>
le j
le a
la u
l' observateur</w>
l' expression</w>
l on</w>
l d
ktsi i</w>
kt en</w>
kop iiu</w>
konkret nyi</w>
kon fig
konfig ur
ko m</w>
kayna k</w>
kat or
je des</w>
j ar
izobrazh enii</w>
izmen eniia</w>
iterat ors</w>
ist eg
islev leri</w>
ishch et</w>
ir b
io error</w>
intern ed</w>
inter pol
inte gr
inser e</w>
input -
ing u
infin ite</w>
indi sini</w>
ind ent</w>
in u</w>
in tro
in line</w>
in dan</w>
in _
implem ente</w>
illeg al
identi ca</w>
id x</w>
iavli aiutsia</w>
i que</w>
i ere</w>
human- readable</w>
hor mis</w>
hiperbo lico</w>
he def</w>
habili ta</w>
gr up</w>
gr is</w>
gonder ir</w>
gn u</w>
gd 2</w>
g u</w>
funcion al
fuhrun g</w>
forma ti
fn k</w>
filter iterator</w>
file _
fic ation</w>
fi jo</w>
fetch_ row()</w>
far be</w>
fan g</w>
fail s</w>
fact eur</w>
f y
f write()</w>
f un</w>
f li
f est
expor te</w>
ex ter
etab lit</w>
establec ida</w>
est ati
es se</w>
es )</w>
er -
epoch s</w>
entsp richt</w>
ent er</w>
encod ings</w>
enci as</w>
encap sul
empl o</w>
el li
el les</w>
ekzempli ar</w>
ejecut ada</w>
ei o_
effec tu
ed ge</w>
ec ta</w>
ec ek</w>
e wo
e reg
e debug</w>
duzen li</w>
dur ch
dru go
do mattr</w>
do gr
dlin u</w>
diz in</w>
divi des</w>
displa y-
disco vered</w>
direktor ii</w>
direc tement</w>
dic t</w>
dex ception</w>
determin ar</w>
destru ye</w>
deskriptor a</w>
des activa</w>
deprec ated</w>
delan te</w>
defini tions</w>
defin ing</w>
def late</w>
de ur</w>
de stek
de sh
de mon
de le
de kodi
de d
de codifica</w>
de ad
datetime ::set
datat ype</w>
d' informations</w>
d' autres</w>
d' acces</w>
d type</w>
d i</w>
d base</w>
cur l-
cozum ler</w>
coun t()</w>
correc tly</w>
converti ble</w>
control ling</w>
contain s
cont eni
construc tors</w>
constra ints</w>
constra int</w>
conjun ction</w>
conj ugate</w>
configu res</w>
concaten ates</w>
con volu
compati bility</w>
com pose</w>
com enz
com ent
coinci d
cocu k</w>
co-rot ina</w>
co la</w>
co ded</w>
ci si</w>
chis len
chain es</w>
ch r
ce vi
categ ori
cas se</w>
car tesian</w>
cambi ar</w>
calis an</w>
calendri er</w>
cabec eras</w>
c v
bu ck
bo s</w>
blan k</w>
bir likte</w>
bin aria</w>
bil di
bel li</w>
baslan gic</w>
basla tir</w>
bas ic
bas ada</w>
ba ren</w>
b zip</w>
b n</w>
aus ge
auf ger
att end</w>
as semble</w>
ar la</w>
ar ch
ar bo
ar ali
app ing</w>
api _
anis chen</w>
analogo us</w>
an ota</w>
an deren</w>
an aliza</w>
am eli
alphan umeri
alisi ert</w>
al to</w>
al t
ad vice</w>
ad verti
activ ates</w>
accept_list_ item
ab e
a um
a ql</w>
a head</w>
_get obj_</w>
_ increment</w>
_ _</w>
_ *</w>
@ param</w>
: document</w>
4 -
32- bit</w>
19 70</w>
00 :
0 1</w>
. e</w>
. .</w>
- id</w>
- encoded</w>
*r nd*</w>
* *</w>
& quot</w>
関 係</w>
違 い</w>
連 付け</w>
表 記</w>
矩 形</w>
現 れる</w>
特 殊</w>
構 文</w>
描 き</w>
応 答</w>
復 元</w>
強 制</w>
対 数</w>
問い合 わせ</w>
同 期</w>
出 現</w>
修 正</w>
仮 想</w>
中 身</w>
レンダ リング</w>
レ イ</w>
ライ ン</w>
ラ ンダ
メン バ</w>
マ ネ
ポ ー
ボタ ン</w>
プロキ シ</w>
ブ ロ
フィール ド
ファイル ディスクリプタ</w>
ディレク トリ
テ ン
ダイア ログ</w>
ダイ ジェ
ダイジェ スト</w>
ソケ ット
シ ミュレート</w>
クロー ズ</w>
クス ポート</w>
オー バー
オ ン</w>
エ クスポート</w>
ウ ェ
インデ クス</w>
アン パック</w>
アノテー ション</w>
ア ウト</w>
に おい</w>
た い</w>
| |</w>
zul etzt</w>
zapro sov</w>
zam an</w>
zadan noi</w>
z_ len</w>
z f</w>
z an
yiel ding</w>
yer ine</w>
y y
y ol
xsltproces sor::
xsltprocessor:: import
xsltprocessor::import styleshe
xsltprocessor::importstyleshe et
xsltprocessor::importstylesheet ()</w>
x h
x 1</w>
wt- tree</w>
wt- tre
wer ten</w>
vy vodit</w>
vozvrashch aem
vo v</w>
vkhozhd eniia</w>
vet re
vetre e
verglei cht</w>
ver sions</w>
ver sion
ver ses</w>
ver ir</w>
vend or</w>
vec tor
ve e</w>
variable _key</w>
vari ants</w>
value error</w>
vali dates</w>
vali dat
v as</w>
utili se
ut f
ut eur</w>
us arse</w>
ure tir</w>
ur l-
updat ing</w>
unterschi ed</w>
unic a</w>
ung s
un sets</w>
un sc
unsc rup
unscrup u
unscrupu lo
unscrupulo us</w>
un modifi
un ified</w>
un ifi
un daki</w>
um geb
ul teri
ul t</w>
u ee</w>
trunc ate</w>
tro z
tri gon
trigon o
trigono metric</w>
tri e</w>
transf er</w>
transac tions</w>
tr ust
tol ko</w>
token izer</w>
to t
to index</w>
time zon
time of
tifi ed</w>
ties ()</w>
ti n</w>
ti ff</w>
throw errno
thread local</w>
thread 's</w>
threa did</w>
th es
th and
th -
tem plat
te il</w>
te e</w>
tc l</w>
taniticisin a</w>
tan e
tak vi
table aux</w>
ta kim</w>
t sv
t ec
t cp
syn c
sy non
sy base_
susp ends</w>
sur vi
sup pres
suf fici
suffici ent</w>
sub type</w>
sub directories</w>
su z
stu b</w>
stro koi</w>
str io</w>
start up</w>
st ale</w>
ssy la
ss ()</w>
srav nivaet</w>
spet si
sp ar
soport ados</w>
son ra</w>
sokhrani aet</w>
so v
so m
so lu
sk ennung</w>
siz es</w>
sinif i</w>
sin in</w>
sikisti r
si ras
si k</w>
sh uff
set up</w>
set op
server u</w>
serializ e</w>
se eks</w>
se ek</w>
scrol l</w>
sch nit
scan ning</w>
scan ner</w>
scan ner's</w>
s magick</w>
s is</w>
s atur
roo ts</w>
rol ls</w>
ri p</w>
rfc2 822</w>
rewind dir()</w>
retriev ed</w>
ret our</w>
result ()</w>
rest a
represent able</w>
repor ts</w>
repor ted</w>
relac ion
registr adas</w>
reflection parameter</w>
reflection extension</w>
ref lej
recursi vetree
reci ente</w>
real 1</w>
real 0</w>
re q
rb_ define_
raz biraet</w>
quoted- printable</w>
quo tient</w>
queu ed</w>
qu ot
pus h</w>
pur poses</w>
pseudo- terminal</w>
pseudo- random</w>
proto ko
proporcion a</w>
program me</w>
pro pos</w>
prim ario</w>
pri ma
pres ponse</w>
pres entes</w>
pres entation</w>
preg_ replace()</w>
preci se</w>
pre fer
pp ing</w>
postf ach</w>
posi tionne</w>
pos n</w>
pomoshch i</w>
polzovatel em</w>
po t
po khozh
plug in</w>
plat forms</w>
plat form
pl an</w>
pl an
pkcs# 12</w>
physi cal</w>
php .ini</w>
ph eri
pheri que</w>
pg_send_ execute()</w>
peri pherique</w>
per cent
patter ns</w>
path names</w>
pagin ation</w>
p se</w>
p rend</w>
p re</w>
p /
ot no
orden acion</w>
oper ador</w>
op ts</w>
on tanimli</w>
on -
occ up
obrazo m</w>
object stream
object #
obek tom</w>
ob tain</w>
ob so
o mi
o m
noti fy</w>
no such
next ()</w>
neur al</w>
ne es</w>
nam ed
n te</w>
n n
n ing
n im
msg_ number</w>
modifi ers</w>
mod us</w>
mo ved</w>
mo re
mis sing</w>
min utes</w>
min usculas</w>
min dex</w>
milli second</w>
metatab ela</w>
men u</w>
measu rement</w>
may or</w>
mac ro
m iter
miter s</w>
lua_ integer</w>
loadfrom string()</w>
lin t</w>
lin ked</w>
lin eno</w>
lig ht
libe v</w>
ley en</w>
left most</w>
lan z
lan ge</w>
la ve</w>
l' s</w>
l' on</w>
l' affichage</w>
l zf</w>
l v
l ent
l apping</w>
kopy alar</w>
kon ets</w>
kom pi
kom and
kliuch ami</w>
ki p
ki i</w>
kh ran
ker ber
kerber os</w>
ke it</w>
kazh do
kay nag
k uc
k et
jus tified</w>
j vm</w>
j an
izv le
iz es</w>
iter ate</w>
it y-
it sia</w>
is n't</w>
invo car</w>
intermedi ate</w>
inner hal
innerhal b</w>
indic ado</w>
indi cation</w>
index es</w>
index 2</w>
index 1</w>
indek se</w>
inde t</w>
incre ases</w>
in sensible</w>
impor te</w>
immedi ate</w>
image color
im plicit</w>
ie ee</w>
identifi ers</w>
identifi ee</w>
identifi ed</w>
identifi e</w>
identi ch
ic agi
icagi rim</w>
i kil</w>
i gh
i ce</w>
hyperbo lique</w>
htt presponse</w>
htmlenti ties()</w>
html special
her mit
grup py</w>
groβ e</w>
gregori an</w>
graphic smagick</w>
graphic s-
gra fic
glob al
gibi dir</w>
gi f</w>
get timeof
ger icagirim</w>
ge maβ</w>
g lo</w>
g aus
funcional idad</w>
fro mindex</w>
fres h</w>
fon do</w>
fix num</w>
fix ed
fac ili
f ri
f ence</w>
extra e</w>
exp and
existi ert</w>
exi to</w>
exi stante</w>
exec ucao</w>
ewo c</w>
ev ::
esti lo</w>
especific adas</w>
es sa
error -
ergebnis menge</w>
er sten</w>
er n</w>
envoy er</w>
entsprech enden</w>
enti ties</w>
end -of-
enc ripta</w>
en semble</w>
en ing</w>
en dan
embe d
em o
em its</w>
em ent
el ev
ejecut ado</w>
ej emplo</w>
eff ac
edi len</w>
ed it
ec ts</w>
e ma
e jo</w>
e ing
e .
dum ps</w>
dra pe
dosy asini</w>
dopustimo m</w>
doc string</w>
do cher
dies er</w>
diccion ario</w>
diagon al</w>
devol ver</w>
determin ado</w>
descri be</w>
des sen</w>
dep ur
deli miters</w>
degistirges i</w>
defini dos</w>
debug -
de composition</w>
de be</w>
datensat z</w>
date ()</w>
datab ases</w>
d' s</w>
d' execution</w>
d va</w>
cu enta</w>
cri a</w>
correspon da</w>
cor ri
copy right</w>
cooki es</w>
contains object</w>
consist s</w>
configu red</w>
conf lic
concaten ation</w>
con sec
compres ses</w>
compor ta</w>
comp r
communic ation</w>
comb ine</w>
com parti
col lation
co k</w>
cli c</w>
ci sini</w>
ci l
cht eniia</w>
chr one</w>
cho o
cho isi
cho ice</w>
cevi rir</w>
certific ado</w>
cas ed</w>
capitaliz ed</w>
cambi os</w>
calisti ril
cabec era</w>
c ron
c c</w>
byte code</w>
byte a</w>
byte -
buyuk lug
buf era</w>
bor de</w>
bit wise-
bit set</w>
bind ()</w>
bibli o
bes ch
becom es</w>
bbcode_ create()</w>
bas lik
back wards</w>
b re</w>
b n
b ajo</w>
ayar lar</w>
aut or
aufger ufen</w>
au ght</w>
ation -
ati ves</w>
ati va</w>
at eurs</w>
as ks</w>
as ing</w>
as ed</w>
array object::
are as</w>
arbo l</w>
ar i</w>
ar c
anteri or
ancest ors</w>
ancest or</w>
ana dir</w>
ana di
an frage</w>
an fang</w>
al ter</w>
akt ar
ag u
aff in
adver tencia</w>
adj ac
adjac ent</w>
actu ales</w>
activ ely</w>
aci klam
abfrage ergebnis</w>
ab c</w>
_ url</w>
_ list</w>
> )</w>
= ?
; &</w>
: context
8 -bit</w>
1 0
0. 0</w>
* argz</w>
) ;</w>
( t</w>
' ,</w>
項 目</w>
限 り</w>
閾 値</w>
配 置</w>
複 製</w>
表 さ</w>
行 っ</w>
背 景</w>
絶 対</w>
秒 数</w>
添 字</w>
水 平</w>
検 証</w>
最 も</w>
替 え</w>
指 数</w>
持 続</w>
成 功</w>
強 い</w>
平 方
境 界</w>
垂 直</w>
呼 ぶ</w>
取り 消し</w>
反 転</w>
区 別</w>
区 切り</w>
代 替</w>
中 心</w>
一 致</w>
ン ダ</w>
ン ス
レー ション</w>
リン グ
リモ ート</w>
リ ウス</w>
ランダ ム</w>
ライ ド</w>
ラ ベル</w>
ユ リウス</w>
メッセ ージ
ベ ット</w>
フラ ッシュ</w>
フォ ント
ヒ ストリ</w>
バッファ リング</w>
バイト コード</w>
トーク ン</w>
テ スト
チャン ネル</w>
チ ャ</w>
タ ブ</w>
ステ ータ
サンプ ル
キー ワード</w>
イベント ループ</w>
アルファ ベット</w>
ア レイ</w>
め る</w>
に まだ</w>
な し</w>
す で</w>
あ ら
zus am
zugri ff
zugriff s
znacheni i
ze ilen</w>
zapro se</w>
zadach i</w>
za kodirovan
z we
z ust
z h</w>
z at
yaz i</w>
yapil an
y- allocated</w>
y ere
y eni
y ak
xml rpc</w>
window -
whi ch
wh ence</w>
weigh ts</w>
we is
we ek
week day</w>
vy e</w>
vor han
vorhan den</w>
vin cula</w>
vie w
verti ss
veritaban i</w>
veri fy</w>
ver schlussel
v t_
v atel
v ant</w>
uzer inden</w>
utiliz ado</w>
uti ve</w>
utf- 32</w>
user 's</w>
uni x-
uni kal
un interruptible</w>
ulteri eure</w>
ul ement</w>
ukazan nuiu</w>
u int
u da</w>
typ ically</w>
typ ed</w>
tx t</w>
two -
tupl espace</w>
trust ed</w>
trunc ating</w>
trunc ates</w>
tre ated</w>
tra versal</w>
tra in</w>
tr on
tou jours</w>
ti tu
ti terator</w>
ti c</w>
the mati
test ing</w>
ter me</w>
ter ator
ten er</w>
te p
tara yici
tak en</w>
t var</w>
t u</w>
t key</w>
t cl
t ari
synchron izer</w>
symbo lique</w>
sym metric</w>
sw f</w>
sus titu
sur rog
surrog ate</w>
suc ce
sub array</w>
su ite</w>
su et</w>
stro king</w>
stri pped</w>
strc mp()</w>
str ates</w>
stocke e</w>
sti tu
ste ep
stati que</w>
state exception</w>
standar d
st ven
sqlsrv_ begin_
sqlsrv_begin_ transaction()</w>
specifi ees</w>
specializ ation</w>
sov pad
sorti rovki</w>
sorti ert</w>
solicit ado</w>
solic ita</w>
sok eta</w>
sm tp</w>
sm t
sing instruction</w>
simul tane
simbo lico</w>
sim pli
si kli
si f
si endo</w>
si d</w>
sho wing</w>
sho t</w>
sh ip</w>
sertifi ka</w>
ser ve</w>
sequ entially</w>
sequ ential</w>
selec tor</w>
sec tions</w>
sec ret</w>
se q
se gu
schlussel s</w>
sch en</w>
sch em
scan ()</w>
satis fying</w>
sa yi</w>
sa k
s /
rol l
ro und</w>
ril mis</w>
right most</w>
ri suet</w>
ri eb
retro llamada</w>
retour n
resum es</w>
resol ved</w>
repor ter</w>
rep ras
rep l</w>
ren der</w>
reguli ar
registri ert</w>
regi stro
regi str</w>
referen t</w>
ref l
ref ers</w>
reduc es</w>
read object</w>
read dir()</w>
re ste</w>
re names</w>
re ge
re an
radi us
ra tionn
quick prop</w>
que ues</w>
qu it</w>
pun tos</w>
ps_ lin
ps_lin eto
ps_lineto ()</w>
ps_ begin_
protocol s</w>
programm y</w>
profil ing</w>
process 's</w>
proces singinstruction</w>
proce dimi
pro fon
profon deur</w>
prin t-
pri me
predetermin ado</w>
preced ente</w>
posle do
posledo vatel
posi x
por table</w>
poly gon
poluch it</w>
pol ar</w>
po kho
pokho zh</w>
pl ain
pl /
ph o
person aliz
permis sible</w>
perm .
peredan noi</w>
peredan nogo</w>
pe ek</w>
pe ak</w>
pas ser</w>
parta gee</w>
paren thes
paramet r</w>
paragra ph
pami at
pamiat i</w>
pack ed</w>
pa jar</w>
p u</w>
p l</w>
p ic
p en</w>
p cos</w>
oz et
output _
out ine</w>
otur um</w>
oth ers</w>
osno ve</w>
or ph
oper atsii</w>
op t</w>
one bit</w>
olus an</w>
off sets</w>
obje k
ob server</w>
o van
o stan
o k</w>
o curri
o )</w>
num s</w>
nul l-
nosuch element
nosuchelement exception</w>
normaliz e</w>
norm ally</w>
non-over lapping</w>
nomb rado</w>
no w</w>
no me</w>
new -
neg ation</w>
nachal a</w>
nach ste</w>
n is</w>
n i</w>
n curses</w>
mult i</w>
msg_ perm.
more like
morelike this</w>
mongo db</w>
mongo collection
mongocollection ::
modu los</w>
mo ment</w>
mit ted</w>
mit er</w>
minim al
min us
metatab la</w>
met ry</w>
meld ung</w>
medi o</w>
marshal led</w>
mal loc</w>
maintain ing</w>
mac ros</w>
ma themati
ma pe
ma p-
ma ine</w>
ma c</w>
m x</w>
m ust
m box</w>
lus h
lu a-
loo king</w>
lon ger</w>
lin e-
lig in</w>
lib re</w>
li sible</w>
li ens</w>
lev el
les ti
les et</w>
le ve</w>
ld ap
lar inin</w>
lab els</w>
la uf
la quelle</w>
l' hist
l' ar
l' agent</w>
l ets</w>
kutus u</w>
kullanil abilir</w>
kotor om</w>
kor outine</w>
konverti ruet</w>
kompi li
komment ari
kommentari i</w>
kodi erung</w>
kod lu</w>
ko sinus</w>
kno ten</w>
ki r</w>
kernel #
k leri</w>
k len
k lari</w>
k host
khost a</w>
jec t
j ust
j os</w>
izvle kaet</w>
iz a</w>
it akh</w>
isti s
iso-8859 -1
islev inin</w>
islev in</w>
islem i</w>
isle vi
iskliuch enie</w>
is i</w>
is es</w>
is ed</w>
intern es</w>
instan ci
instal l
ins inden</w>
initi ally</w>
inici aliza</w>
ingu is
informat sii</w>
indek som</w>
inclu de
incl us</w>
in verti
in cor
implement a</w>
immedi at
immediat ement</w>
ime et</w>
imagick ::
imagecolor alloc
ima ges
illegal stateexception</w>
ilisk ili</w>
ilisk il
identich na</w>
identi sch</w>
id ()</w>
ic c</w>
i ye</w>
i rov
i gu
i ght</w>
i con
htmlspecial char
htmlspecialchar s()</w>
ho me</w>
hier arch
hierarch y</w>
hel per</w>
har f
hal ten</w>
h r
h an</w>
gu ous</w>
grup pen
gre en
green wi
graphics- device</w>
graph ic</w>
gr ados</w>
go od</w>
gird i</w>
geti mage
ges tion</w>
ges endet</w>
ger i</w>
gen ut
gem spec</w>
gearmanclient ::
ge tirir</w>
ge h
ge _
g s
g ri
g or
g m
g au
gau che</w>
g age</w>
fu sion
fu era</w>
fu entes</w>
frequ ence</w>
fre e-
fram e-
frac cion</w>
fourn is</w>
for war
fon ts</w>
fon t
flu xo</w>
fl att
filter name</w>
fil tro
fil tres</w>
fi c</w>
fel der</w>
fb sql</w>
failo voi</w>
f ug
f c
f ast</w>
extern aliz
externaliz able</w>
exclusi f</w>
ex its</w>
ex e</w>
evid ence</w>
event_ base</w>
error_ handler()</w>
err o</w>
ergebnis ses</w>
er on</w>
environ ments</w>
environ ment
envi ar</w>
enumer able</w>
entity reference</w>
enti ere</w>
ent era</w>
enregist rements</w>
end point</w>
en nyi</w>
en noi</w>
en nogo</w>
en gin
emple ando</w>
emp ilha</w>
em ente</w>
element en</w>
ekrani ruet</w>
ek lent
einzel ne</w>
ei sia</w>
ei o</w>
eff ek
ech antil
ec tion</w>
e val-
e den</w>
e bi
dri ver</w>
dosy asina</w>
dopusti my
dondur ul
dom xpath</w>
dom processinginstruction</w>
dom entityreference</w>
dom comment</w>
dol zh
do maine</w>
diz inin</w>
diz in
divi ding</w>
discar ding</w>
discar ded</w>
dis abled</w>
dig ini</w>
dibu jo</w>
di v</w>
di o_
destro ys</w>
deserializ es</w>
der lenmis</w>
demon strates</w>
dele tion</w>
degisken leri</w>
degi sikli
deger lerini</w>
deg res</w>
decla res</w>
de z
db ++</w>
datetime ::
datensat ze</w>
date /
dat u</w>
dat ein
dat as
d' octets</w>
d' objets</w>
d' images</w>
d' elements</w>
d' activation</w>
d end</w>
d base_
d at</w>
d adas</w>
d ?</w>
cu er
cor relation</w>
contro le</w>
contra ste</w>
contr as
contras ena</w>
construc ting</w>
constan tes</w>
con ven
con f</w>
con cer
comprob ar</w>
compres se</w>
compr is</w>
complet ely</w>
compl etes</w>
commit ()</w>
commenc ant</w>
command- line</w>
coment ario</w>
collec ted</w>
codific ada</w>
code object</w>
co seno</w>
co effici
co d
clu ster</w>
close dir()</w>
clon ed</w>
cle an
cikti lar</w>
cifr ado</w>
ci zer</w>
choisi t</w>
chiff rement</w>
check box</w>
chec ked</w>
ch db</w>
ch arg
cer ts</w>
cas es</w>
cas cada</w>
cap tu
cap ability</w>
can vas</w>
calend arg
calendarg et
cairo images
c t
c insinden</w>
c entra
butt on
bul ur</w>
buk ven
buil ding</w>
bud ut</w>
break point</w>
brack et</w>
boy ut
bolsho i</w>
blan co</w>
bl ack</w>
bitwise- logical</w>
bit -string</w>
bind ing-
beti gin</w>
beli ebi
be zeich
be tim
be k
baz u</w>
base 64
balan ced</w>
back ing</w>
back end</w>
b in</w>
auto ur</w>
auto load</w>
auto _increment</w>
aus fuhrung</w>
arg -
ar row</w>
ar it
append ()</w>
appel ant</w>
app els</w>
apari cion</w>
ap proxim
ap c
an weis
an dos</w>
an do
alphanumeri c</w>
almacen ado</w>
almacen ada</w>
al ler</w>
al isee</w>
ai de</w>
affin ity</w>
adj un
add ()</w>
activ ated</w>
acti f</w>
accep ting</w>
abier ta</w>
ab e</w>
ab b
a y</w>
a vertiss
a ut</w>
a ren</w>
a is</w>
a ,</w>
_ str</w>
_ socket</w>
_ server</w>
_ get</w>
_ encode
[ 0</w>
:context #
8 6</w>
39 86</w>
3- d</w>
200 9</w>
1 6
1 2
. txt</w>
- rpc</w>
- format</w>
) :</w>
' #
$ this</w>
順 序</w>
音 声</w>
間 隔</w>
開 い</w>
進 数</w>
通 し</w>
起 動</w>
許 可</w>
記 述</w>
言 語</w>
解 除</w>
規 則</w>
精 度</w>
等 しい</w>
示 し</w>
確 認</w>
確 保</w>
直 前</w>
番 目</w>
段 落</w>
最 終</w>
明 度</w>
方 式</w>
改 行</w>
提 供</w>
応 じ</w>
平方 根</w>
安 全</w>
外 部</w>
基づ き</w>
含 ん</w>
同 じ
受 け</w>
参 照
効 果</w>
共 通</w>
入 れ</w>
作 る</w>
代 入</w>
互 換</w>
事 前</w>
並 べ</w>
上 書き</w>
一 度</w>
ー オブジェクト</w>
ロ ケール</w>
ル ート</w>
リ ダイ
ラ ッ
ユーザ ー
マルチ バイト</w>
マネ ージャ</w>
マ イ
ポ ジ
ペ イ
ペイ ロード</w>
ヘ ル
プロ シ
プロシ ージャ</w>
プ ッシュ</w>
ファク トリ</w>
ファク トリ
ファイ ンダ</w>
パー ザ</w>
パ イ
ハ イ
ネ レータ</w>
トレース バック</w>
デフォル ト
テーブ ル
ック ス
ッ プ
ッ ド
タイム アウト</w>
ゼ ロ</w>
セ ス
セ カ
セカ ンダ
ステータ ス</w>
スタ イル</w>
スクリ ーン</w>
ス コ
スコ ープ</w>
ス ク
ス キー
ス キ
ジェ ネレータ</w>
コード オブジェクト</w>
コマ ンド
グ ラ
クラス メソッド</w>
カレ ント
カレ ンダー</w>
カ スタ
カ ウ
オーバー ライド</w>
イン スト
ア ン</w>
を 通し</w>
わ す</w>
も つ</w>
の で</w>
に関 連付け</w>
に し</w>
と 似</w>
つ め</w>
た すべて</w>
それ ら</w>
、 (</w>
znacheni iami</w>
znach eniem</w>
zh est
zer tifi
ze il
zaversh eniia</w>
zap ushch
zap is</w>
z p</w>
z m
z 39
z39 .
z39. 5
z39.5 0</w>
yer lesti
yer le
yerle sik</w>
yapilan dir
wt-tre e-
wi r
wh o</w>
war n</w>
wait er</w>
wa ve</w>
w ron
w d</w>
vy v
vy delen
vy biraet</w>
visi bility</w>
vi val
verifi er</w>
ver sing</w>
ver net</w>
ver b
ver \
ve ase</w>
vari ante</w>
vari adic</w>
var y
var name</w>
value 2</w>
valid ation</w>
val ida</w>
vac ia</w>
v stro
v kliuchaet</w>
utilise z</w>
utili ses</w>
utf- 7</w>
ut h</w>
user name</w>
us ers</w>
ur ls</w>
upper -case</w>
up s</w>
uni versal</w>
uni quement</w>
unescap ed
unescaped _string</w>
un set</w>
un known</w>
un do</w>
un changed</w>
ug ol
uck si
ucksi ch
u bic
tur unu</w>
troz os</w>
tro uve
transparen t</w>
transi ent</w>
trans fer
trabaj a</w>
tra versing</w>
tr uth</w>
to v
to ut
to m
to do</w>
tiv nom</w>
tit lec
timest amp
ti va</w>
throwerrno if
th- first</w>
th tt
termin o</w>
termin ating</w>
tek sta</w>
tan gens</w>
table [
ta g_
t z</w>
t mp
t este</w>
t ell</w>
t an</w>
t ada</w>
t 2</w>
synta xe</w>
synon ym</w>
syn cre
syncre ad
syncread er
syncreader writer</w>
symbo l's</w>
sy ch</w>
swit ch
sut un
superi eur</w>
suf fixes</w>
succe ed</w>
subtr act</w>
subscri be</w>
sub strings</w>
su j
struc t
stroko voe</w>
string buffer</w>
string #
stop pe</w>
stat e-
st ol
stol b
st ing</w>
st able</w>
ssyla etsia</w>
ssyl ku</w>
sravn eniia</w>
splfileinfo ::
spetsi al
sp or
soed ini
socket_ bind()</w>
sm all</w>
slo p</w>
slo ader</w>
sleduiushch emu</w>
situ acion</w>
siras inda</w>
sir alar</w>
sing ular</w>
simvo liches
simultane ously</w>
sign s</w>
sib les</w>
si yle</w>
si g</w>
si ei</w>
shor ts</w>
shm _identifier</w>
sh ri
sh ed
set_ error_handler()</w>
set zen</w>
ses sii</w>
ser best</w>
sent encias</w>
sem bo
sembo lik</w>
seg mento</w>
se ulement</w>
se en</w>
sdo_ data
sdo_ das
sdo_das _
schreib en</w>
scan f()</w>
scal ing</w>
say is
satis fies</w>
san iye</w>
sag lar</w>
sa hi
s sh
s lave</w>
s ity</w>
s d
s ci
s 4</w>
s *</w>
s )</w>
rot ate</w>
ro it</w>
ri ad
retor n
resur sy</w>
req _identifier</w>
reposit ori
registro s</w>
rege x</w>
reflec ted</w>
ref res
recu encia</w>
rectang ular</w>
recor d()</w>
recogn ized</w>
reas on
re sim
re rek</w>
re peti
re lev
rb -tree</w>
rationn elle</w>
rati o</w>
ran ges</w>
rais ing</w>
radius _get_
radi ant</w>
ra w
ra qu
raqu o</w>
ra it</w>
ra c</w>
r ada</w>
qu ality</w>
pw ent</w>
pu eda</w>
prote ge</w>
propri et
propriet aire</w>
promp ting</w>
program mer</w>
profil er</w>
proces s-
pro val
pro tivnom</w>
prin ter</w>
prima ire</w>
prefer red</w>
pre gun
poto k</w>
posle duiushch
posi cao</w>
por cion</w>
popen ()</w>
polzov ate
polzovate lia</w>
polygon ()</w>
pokhozh a</w>
pod stroki</w>
pod ri
pod p
pod go
po v
pl/ sql</w>
pl antil
pi ped</w>
pho to</w>
perform ing</w>
peremen nye</w>
percent age</w>
perbo liches
perboliches kii</w>
per met
per fil</w>
pend ent</w>
pdo ::
pdo:: begin
pdo::begin transaction()</w>
pd i</w>
particuli ere</w>
paren ts</w>
paren titerator</w>
paren ce</w>
parametro v</w>
paqu et</w>
pad re</w>
pack ets</w>
pack age
pa ire</w>
p ure</w>
p ty</w>
p sych</w>
p si</w>
p exp</w>
p call</w>
p ap
oznite ligi</w>
oz kaynag
out line</w>
out _
our ne</w>
otur um
ot ros</w>
oshi bo
oshibo k</w>
ori que</w>
ori gen</w>
ori ented</w>
or _
oprede li
open ing</w>
op tname</w>
op cion
on de</w>
on ce
ol der</w>
objec tout
ob y</w>
ob servers</w>
o din</w>
nucle o</w>
normal mente</w>
normal "</w>
non ce</w>
noeu ds</w>
no sti
ning un</w>
nim mt</w>
neuron as</w>
neuron a</w>
net en</w>
neces sa
ne u
naz vanie</w>
nachrich ten</w>
n' existe</w>
n f
n ati
multipli er</w>
multi method</w>
msg list</w>
monit or
mongodb \
mongodb\ dri
mongodb\dri ver\
modul e_
mo ve
mo mento</w>
mo del</w>
min ute</w>
mi r
mi k
mik ro
mi ght</w>
method /
method/ attribute</w>
metameto do</w>
metadat a-
mem or
mathemati cal</w>
massi vov</w>
mas ki
man teni
man iere</w>
man do
m h</w>
m era</w>
m am
lv l</w>
log in</w>
log ()</w>
lock _
local e
lo te</w>
liu bo
linear ise</w>
line as</w>
ler inden</w>
le x</w>
le ap</w>
laz ily</w>
lan ce</w>
lad t</w>
la un
l'hist orique</w>
l' interface</w>
l' heure</w>
l' erreur</w>
l' ensemble</w>
l' arc</w>
l' api</w>
l' ap
l'ap parence</w>
kutuphan es
kullanil acak</w>
kullan ilir</w>
kuc uk</w>
kr y
kop ie</w>
kodirov ku</w>
kodirov ki</w>
kod unu</w>
kliucha ia</w>
keybo ard</w>
ke ep</w>
ke d
kazhdo go</w>
kal end
k at</w>
k _
juli en</w>
juli anischen</w>
jo e</w>
je do
jedo ch</w>
ival ent</w>
iti baren</w>
it ted</w>
issu es</w>
issu er</w>
iss ue</w>
ispolzovan iia</w>
islevi yle</w>
is khod
ipv 4-
interval s</w>
inter base</w>
inspec tor</w>
inspec t</w>
inoti fy</w>
ingres_ query()</w>
ing- system</w>
ing ly</w>
ing "</w>
inferi eur</w>
indi s
index e</w>
incor por
in- place</w>
in medi
in k
in file</w>
in as</w>
img_color_ sty
ima get
im pli
im li</w>
iliskil endi
il mis</w>
il et
ifa de</w>
id le</w>
id ades</w>
i sp
i rement</w>
i kin
i ed</w>
i dos</w>
htm l-
ho ur</w>
hist o
hi jo</w>
hazi r
hat anin</w>
hash map</w>
hac er</w>
ha y</w>
ha uteur</w>
h int</w>
h id
h e</w>
h au
group ing</w>
gro wing</w>
greenwi ch</w>
graph ique</w>
grafic o</w>
glob ale</w>
gi perbolicheskii</w>
ges ch
generic -
generic- procedure</w>
gener ating</w>
gener ador</w>
geb en</w>
g_ f
g ru
g os</w>
g g
g ap</w>
fun ptr</w>
fun g</w>
free- form</w>
formul ario</w>
fonc tionnellement</w>
fonc tionn
fon t()</w>
fol d</w>
fo _
fla g
finger _
finger_ tree</w>
fin fo_
fin ally</w>
filenam es</w>
file 1</w>
field_ name()</w>
field name</w>
fi ed</w>
fget ss()</w>
fetch_ array()</w>
fbsql_fetch_ array()</w>
fat al</w>
f recuencia</w>
f close()</w>
extr act
ext ends</w>
exp un
execut er</w>
execut ee</w>
ex cee
event buffer</w>
even thtt
evalu ation</w>
ev al</w>
et u</w>
et ten</w>
establec idas</w>
est ar</w>
essa ie</w>
es cu
eri an</w>
er weiter
er ste</w>
er setzt</w>
er lau
env z</w>
enumer ates</w>
entr ant</w>
eni iu</w>
end roit</w>
encryp ted</w>
encryp t</w>
en der</w>
eleman i</w>
el er</w>
ek vival
ek spor
ej e</w>
ed _
e sim
e ree</w>
e co
duplic ates</w>
dr b</w>
domdocument fragment</w>
do ing</w>
dizges ine</w>
dizges el</w>
dis positivo</w>
diri ger</w>
dimension es</w>
diferen tes</w>
di verses</w>
di entes</w>
di ch
dez im
dev elop
determin ing</w>
destruc tively</w>
destin o</w>
desc ending</w>
depend ent</w>
dep th-first</w>
deno tes</w>
delet e()</w>
deleg ate</w>
degistirges ine</w>
degisken in</w>
defaul t_
def ecto</w>
decri vant</w>
decre ment</w>
deci r</w>
debug- on-
deb erian</w>
de lay
de crit
de code
db x_
day of
date/ time</w>
datab as
dan noi</w>
d' etre</w>
d' ecriture</w>
d' affichage</w>
cur sors</w>
cur sor
cuer po</w>
cu bi
cro ss
cre ee</w>
cr iter
cor ren
conver te</w>
consi der
consec utive</w>
connec t_
config _
condi tions</w>
conc at</w>
con serv
con ecta</w>
con curren
comp i
collec tor</w>
collap se</w>
co verage</w>
cm d_
cle ar
cle aning</w>
class name</w>
class module</w>
class _name</w>
clas sloader</w>
clas s_
cir cle</w>
chun ked</w>
cht oby</w>
chislo m</w>
char- table</w>
ch erche</w>
ch ast</w>
centra l</w>
ce e</w>
categori es</w>
car te</w>
car p
car a</w>
candi dates</w>
can aux</w>
cambi o</w>
cam ente</w>
callback- funktsiiu</w>
calisti rir</w>
calend ar
cal idad</w>
cag ril
ca used</w>
by lo</w>
buyuklug une</w>
buil der</w>
buffer ing()</w>
break iterator</w>
boun ding</w>
bor ds</w>
bin aires</w>
bil diri
bi d</w>
ber ucksich
benut zer</w>
belirti l
be vent</w>
be it
be g</w>
back slas
ba itakh</w>
b c</w>
b ar
av an
aus si</w>
attribut ed
attr ()</w>
ati sti
atel em</w>
asyn chrone</w>
assotsiativ nyi</w>
asser tion</w>
asin daki</w>
asign ado</w>
as -
argument ov</w>
argument om</w>
ar beit
aqu ivalent</w>
appe ar</w>
anweis ung</w>
anterior mente</w>
anh and</w>
angegeb en</w>
and ere</w>
anch or</w>
analiz atora</w>
analiz ador</w>
anahtar i</w>
ambi to</w>
altern ate</w>
almacen ados</w>
algorit m</w>
aleatori o</w>
aleato ire</w>
al ten</w>
al ors</w>
akti vi
ak tiv
ak imi</w>
agu ja</w>
advan ce</w>
ad just</w>
ad ini</w>
activ ity</w>
accep te</w>
acce der</w>
abor ts</w>
able )</w>
abbre v
abb revi
a w
a void</w>
a is
a et
a a
a *
_ key
\ r</w>
@ return</w>
=? iso-8859-1
: toplevel</w>
6 1</w>
5 .
4 7
1- d</w>
1 3</w>
/ status</w>
. com</w>
- set</w>
(ve ase</w>
( s</w>
順 番</w>
集 合</w>
進 め</w>
識 別</w>
読み込 む</w>
読み込 ま</w>
解 凍</w>
解 像</w>
行 列</w>
色 空間</w>
繰 り返し</w>
獲 得</w>
構 成</w>
最 小</w>
時 点</w>
施 し</w>
数 字</w>
数 え</w>
拡 張
拡張 子</w>
所 有</w>
意 味</w>
子 要素</w>
固 有</w>
呼び出 す</w>
含 め</w>
合 成</w>
制 限</w>
到 達</w>
分 布</w>
再 開</w>
再 度</w>
便 利</w>
依 存</w>
作 っ</w>
以 下</w>
両 方</w>
一 番</w>
一 時
一 意</w>
ー メソッド</w>
ング システム</w>
ワ イ
ログ イン</w>
レー ム
レジ ストリ</w>
レ クト</w>
ル オブジェクト</w>
リダイ レクト</w>
ラ ジ
ユーザー キャッシュ</w>
モジュ ール
ミ リ</w>
ミ ッション</w>
マッ ピ
ペ ージ
ベ ジ
ベジ エ</w>
ファクトリ ーメソッド</w>
フ レーム
パー ミッション</w>
パ ー</w>
ネ クション</w>
ドキュ メント
ト ル</w>
デ コ
テー マ</w>
ッシ ュ
ッ チャ
ダ ンプ</w>
ソース コード</w>
セカンダ リ</w>
スト アド
ストアド プロシージャ</w>
システム コール</w>
シェ ル</w>
サブ エレメント</w>
サ イン</w>
コ ネクション</w>
クロー ン</w>
カ ラー</w>
オ フ</w>
ォ ッチャ
ウ ォッチャ
インター ネット
インタ プリタ</w>
ア ップ</w>
わ ち</w>
の に</w>
な わち</w>
つ け</w>
す なわち</w>
ご と</w>
か つ</w>
zwe i</w>
zuruck gegeben</w>
zm q</w>
zi ps</w>
zi erten</w>
zapro som</w>
zam eniaet</w>
zadan noe</w>
zadach u</w>
zad ach</w>
za registri
z li
z ados</w>
yon er
ye es</w>
yaz_ scan()</w>
yapilandir ma</w>
yaf_ dispat
y arsi
yarsi z</w>
y /
xh pr
xhpr of</w>
x509 cert</w>
x xx</w>
x )</w>
wildcar d</w>
wel ches</w>
we ist</w>
we der</w>
wal k</w>
wa y
vy so
vy m</w>
voz ni
vor komm
vorkomm en</w>
vo k</w>
vo id
vis ual</w>
vide o
verti cal
versh ine</w>
verschlussel t</w>
verro uil
verknup ft</w>
verkh nii</w>
verbindung skennung</w>
ve lich
vary ant</w>
valid ite</w>
valid ()</w>
v nes
v aut</w>
v a_
va_ list</w>
ut s</w>
us pes
uspes h
us hed</w>
ur ov
ur len
urlen coded</w>
up le</w>
unc aught</w>
un serializes</w>
un pack</w>
un dan
un ary</w>
umge wandelt</w>
ukazan nom</w>
ud scape</w>
ud or
udor an
udoran dom</w>
ud ach
uc k</w>
ubic acion</w>
u bere
u ally</w>
tt l</w>
true color</w>
tro is</w>
tri ple</w>
tre e
transi ent
tran sak
train ed</w>
train _
tra di
tr at
tr as
tov len
tot als</w>
tok ol
to_ encoding</w>
to o</w>
tiv amente</w>
tim pl</w>
tig ung</w>
ti ert</w>
ti dad</w>
th r</w>
th is
th at
text uelle</w>
termin al
ter sine</w>
tempor al</w>
tel ech
tanim lanmis</w>
tan te</w>
tam iento</w>
tam anh
tamanh o</w>
tab s</w>
ta xis</w>
t_ generic
t[k ]</w>
t es
t ado</w>
t acti
t '</w>
synchron ized</w>
syn tacti
swit ches</w>
sv n</w>
suspen ded
sushchest vuiushch
survi ent</w>
sur umunu</w>
sunucus una</w>
sunuc u</w>
success fully</w>
succes sive</w>
sub tracts</w>
sub str
stro ku
str um
str len
strlen ()</w>
str ip</w>
str f
stell ung</w>
ste p-
step- size</w>
state- monad</w>
stat ement
start tls</w>
standar t</w>
ssl socket</w>
sqlite _
sqlite 3
sql_fetch_ row()</w>
spei cher
spe ed</w>
sp lit
sp ans
spans co
spansco rer</w>
sostoian iia</w>
sostoian ii</w>
sostoian ie</w>
sor t_
sor t()</w>
sootvetstvuiushch uiu</w>
solic itud</w>
sol rob
solrob ject</w>
sokh ran
sock addr</w>
so g
sog las
soglas no</w>
so cke
socke timpl</w>
snipp ets</w>
smeshch enie</w>
sk ripta</w>
siz e
sist em</w>
siny al</w>
sin taxis</w>
sin on</w>
sin ifi
sinifi n</w>
sin first
sinfirst week</w>
simplexm l
simplexml element</w>
simil arly</w>
sim al
shor ter</w>
sh el
sh ei</w>
sh ad
sever ite</w>
session _
serv let</w>
sel ves</w>
seg ura</w>
sec ure</w>
sec und
search ()</w>
se siones</w>
se it</w>
se ed
schlussel n</w>
sati ri</w>
sal idas</w>
s[ start
s z</w>
s sa</w>
s n</w>
s b
run k
runk it
runkit _
ruby gem
ru ido</w>
rot ation</w>
ro ta</w>
ro le</w>
ro d
rewin d</w>
rever sed</w>
retourn era</w>
retour nee</w>
resum e</w>
result set</w>
resol ucion</w>
res urs</w>
repli ca</w>
renk li</w>
ren gin</w>
rem placer</w>
rela tion
reg ard
regard less</w>
referen ti
refer red</w>
rede dor</w>
recursiveiterator iterator::rewind()</w>
recuper ada</w>
rectang ulo</w>
recor ded</w>
reci be</w>
realiz ar</w>
readable datetime</w>
re ti
re pozit
repozit ori
re pos</w>
re per
re nomb
re k
re constructed</w>
raz mera</w>
raz lich
rasshiren iia</w>
ras polozh
radian os</w>
rabo ch
ra p
ra o</w>
ra g
r prop</w>
r doc
r c
quot es_
qui er
query_ param
query_param s()</w>
qual ite</w>
qu' une</w>
pu iss
puiss ance</w>
pu er
puer to</w>
pse udorandom</w>
prozes s</w>
prox y
proper ty-
proces a</w>
pro tokol
pro fun
profun di
profundi dad</w>
prior idad</w>
pres ente</w>
predstavliaiushch ego</w>
predost avlen
predic ates</w>
predetermin ada</w>
preced ence</w>
pre vent</w>
pre t</w>
pre siones</w>
pre fixes</w>
pre fijo</w>
prav il
pour ra</w>
poto m
postf ach
post eri
position al-
pos ite</w>
poriad ke</w>
popul ated</w>
poluchen noe</w>
podgo tovlen
pod ob
pod der
podder zh
po tencia</w>
po ten
po see</w>
po ids</w>
pli st
plantil la</w>
plain text</w>
pi pel
pi o</w>
ph em
pg_send_ query_params()</w>
pg_send_ query()</w>
permi sos</w>
permet tant</w>
perm its</w>
peremen naia</w>
peredan nym</w>
per l</w>
per c
pen diente</w>
pc nt
pass wor
parti ally</w>
parenthes es</w>
parall el</w>
par st</w>
pami at</w>
pad rao</w>
pa d</w>
p ul
p added</w>
p acks</w>
oz el</w>
overla p</w>
over loaded</w>
out side</w>
otno sh
ot obrazh
ot lichi
oshib ku</w>
or t</w>
or gan
opredelen nykh</w>
opredelen nuiu</w>
opredelen noi</w>
open file</w>
op posite</w>
olustur ul
olma digini</w>
old node</w>
old name</w>
ol d-
obso let
objek ts</w>
ob stack</w>
ob s
o curren
ocurren cia</w>
num _
notifi ed</w>
nomin ado</w>
nomb re_
no voe</w>
no va</w>
no kt
no dos</w>
ni uiu</w>
new metat
newmetat able)</w>
new _name</w>
neuron s</w>
neu en</w>
ne ver</w>
ne sting</w>
ne m</w>
ne f
nef ari
nefari ous</w>
nd array</w>
nab or</w>
n ur</w>
n ant</w>
n ans</w>
multi part</w>
multi _
mon oid</w>
modu l</w>
mo teur</w>
minimal day
minimalday sinfirstweek</w>
metri cs</w>
metatab elle</w>
memcached::get ()</w>
mehre re</w>
me j
max db</w>
mape a</w>
manti ssa</w>
manipul ation</w>
man in</w>
mak simal
mail _
magic _
magic_ quotes_
m y</w>
m ec
mec anis
lual_ newmetatable)</w>
low -level</w>
lorsqu' un</w>
lors qu'il</w>
lon gs</w>
logi que</w>
log_ cmd_
local time</w>
lo m</w>
listen ers</w>
list_ item</w>
list en</w>
list [
lin ed</w>
lib _dir</w>
li ft</w>
letz te</w>
ler ine</w>
len iia</w>
lem ente</w>
lec turas</w>
lea ve</w>
lat in
las s</w>
lan za</w>
lam b
l' ordre</w>
l' intervalle</w>
l' id</w>
l' epo
l'epo que</w>
l' entrainement</w>
l' en-tete</w>
l' autre</w>
l' application</w>
kutuphanes inin</w>
kur ul
kullanil an</w>
kotor ykh</w>
kontein era</w>
kon tsa</w>
kon tro
komprimi ert</w>
komm ando</w>
komand u</w>
kodlam asi</w>
kno w</w>
kle in
kil l
ki p</w>
khodi ashch
keep ing</w>
ke ine</w>
kay it
katalo ga</w>
k uiu</w>
k es
jo in
je ux</w>
j unto</w>
j day</w>
iu li
ity candidate</w>
iter ations</w>
istis na</w>
isteg i</w>
ist atisti
issu ed</w>
islev ini</w>
isim lerini</w>
is ees</w>
is _
io ref</w>
invo cada</w>
interval o</w>
inter i
inter faz</w>
inter actively</w>
inter active</w>
inst ant</w>
input source</w>
inici al</w>
ingres -
indek sov</w>
ind ents</w>
ind entation</w>
incre asing</w>
in valid
in strum
implement ing</w>
image ()</w>
im z
im pro
iler in</w>
il an</w>
ih rac</w>
if x_
if addr</w>
ie sia</w>
identifi kator
identifi es</w>
id na</w>
ic o</w>
i yle</w>
i ut</w>
i er</w>
i ent</w>
i em</w>
i 's</w>
hyper wave</w>
host names</w>
hor t</w>
hiz met</w>
hil o</w>
hier archi
hid den</w>
hi l</w>
hi jos</w>
hel p
head er()</w>
he psi</w>
hau sted</w>
hal ine</w>
h ours</w>
guard ar</w>
gu id</w>
gu ess</w>
group ed</w>
gregorian calendar</w>
grav ity</w>
gra fi
gost eri
go ing</w>
glyp h</w>
gin de</w>
gi ble</w>
get -
gerce k</w>
geo metry</w>
gener ators</w>
gener ateur</w>
gener ar</w>
gener al
gener ado</w>
gen is
gen el</w>
gen den</w>
gel o
gearmanclient ::set
ge off
ge hort</w>
gab e</w>
ga th
g ine</w>
g ancho</w>
g -
funk tions
funk tion
full t</w>
fram e
frame work</w>
frag ments</w>
fourni es</w>
format symbols</w>
fore ground</w>
for wards</w>
fon t-
fon d</w>
follow s</w>
fo to
flush ing</w>
flag s()</w>
fla gi</w>
fl exi
first dayof
firstdayof week</w>
finger print</w>
fech o</w>
fe ed</w>
fark li</w>
fann_get_cascade_ activ
fann_get_cascade_activ ation_
failo vyi</w>
failo v</w>
fai le</w>
fact ori
fac eta</w>
fa ster</w>
f ns</w>
f lock()</w>
f en
fen etre</w>
f ab
fab ri
f '</w>
eylem cisini</w>
extra its</w>
expon ential</w>
expon enti
exp ects</w>
execut ando</w>
execut ables</w>
examp les</w>
ex presiones</w>
ex hausted</w>
ex c</w>
event buffer
evalu ating</w>
ev periodic</w>
ev check</w>
et ant</w>
escal ar</w>
es hch
error_ reporting</w>
erlau bt</w>
ere -
ere- plan</w>
er r</w>
equal itycandidate</w>
enti tes</w>
ent weder</w>
ent os</w>
ent emente</w>
endi an</w>
endan ts</w>
encod ing
enco re</w>
en za</w>
en y</w>
en de
en ab
emp ty
em et
elli pse</w>
element s
elap ses</w>
el o
ekspor tiruet</w>
echantil lon
e z</w>
e phem
e g</w>
e as
e able</w>
dup lex</w>
du yarsiz</w>
du quel</w>
drugi mi</w>
drape aux</w>
dosy adan</w>
don nes</w>
document ada</w>
docher ni
doc test</w>
do pol
do ()</w>
diz imi</w>
diz geler
distribu cion</w>
distor tion</w>
dist inguis
disc rete</w>
dis connects</w>
dis able
differen ts</w>
diferen te</w>
di ap
diap az
dey imi</w>
determin ant</w>
det ec
desplaz amiento</w>
design ated</w>
descrip tors</w>
descri to</w>
der by</w>
dependency request</w>
delet ing</w>
delen iia</w>
decrit e</w>
decl are</w>
de_ fichero</w>
de st
de signe</w>
de re
de cor
de :</w>
date -time</w>
data ()</w>
da hil</w>
d in
cy clic</w>
cy cle</w>
curren t-
curren t()</w>
cur ve</w>
cubrid_ set_
coun ter</w>
cor reo</w>
cor relacion</w>
convolu tion</w>
continu ation</w>
conti guous</w>
content -type</w>
content -
conserv ant</w>
concer nant</w>
concaten ated</w>
conc rete</w>
con so
compos ed</w>
compor tamiento</w>
compon entes</w>
complet amente</w>
comparti da</w>
compar acion</w>
comp te</w>
comi enza</w>
comenz ando</w>
combin ing</w>
com plement
collation key</w>
coll ator</w>
coeffici ents</w>
codific ado</w>
cod ing-system</w>
co es</w>
clo udscape</w>
cle an</w>
clas es</w>
cir cular</w>
chromati que</w>
children ()</w>
cha st
cer tain
cent ered</w>
cast ing</w>
carp ::
cap as</w>
cancel a</w>
can tidad</w>
can oni
can ales</w>
callback ()</w>
c err
c en</w>
c data</w>
bz 2</w>
byte codes</w>
by la</w>
bund les</w>
bulun an</w>
bul k</w>
buil tin</w>
buff ere
bu y
bu cle</w>
brack ets</w>
boun ded</w>
bor des</w>
bol d</w>
bl ur</w>
bl ue</w>
bira kir</w>
binding- form</w>
binar y
bi m</w>
bestimm ten</w>
berucksich tigung</w>
bereit et</w>
bel le
be rei
bb code</w>
baz e</w>
bayt li</w>
bas ee</w>
bas ados</w>
back propagation</w>
back ends</w>
ba it</w>
b z</w>
b ur
b son</w>
b ourne</w>
b le
b est
b ed</w>
b alise</w>
avertiss ement</w>
automati c</w>
auth or</w>
ausgab e</w>
auc une</w>
auc un</w>
au ch</w>
attributed characteriterator</w>
atta ch
att end
at amente</w>
assozi atives</w>
as sign</w>
arri ere-plan</w>
array iterator</w>
arkhi va</w>
arg z_len</w>
archi v</w>
ar rete</w>
ar ama</w>
ar -
apun ta</w>
appli cation
appe ar
app ended</w>
ap par
annot ate</w>
an ything</w>
an y
an ot
an nte</w>
an im
an ge
an ex
ameli ore</w>
am bos</w>
alloc a</w>
algorith mus</w>
algorith ms</w>
algorit manin</w>
alar i</w>
al way
al rededor</w>
al noi</w>
al fan
al an</w>
aktivi ert</w>
ajout es</w>
ai oc
ai o_
aggreg ate</w>
ag rega</w>
affec tees</w>
aet ,</w>
adres u</w>
adjust s</w>
activ ite</w>
acti vo</w>
acti vi
acti ve
act ing</w>
abstr act
abor t</w>
ab rir</w>
a itre</w>
a :</w>
`# t'</w>
`# f'</w>
_key _id</w>
_encode ()</w>
__auto load</w>
_ open</w>
\ n
@ to</w>
> >)</w>
=?iso-8859-1 ?
< =></w>
:: new</w>
: un
: c
8 bit</w>
8 bim</w>
25 6</w>
2 4</w>
1. 0.0</w>
0 -
/etc/ services</w>
/etc/ host
/ 2</w>
. zip</w>
+ 1</w>
* *
( sm</w>
( <<
( ),</w>
遅 延</w>
調 整</w>
読み 取り</w>
読 ん</w>
評 価</w>
解 決</w>
見つ かっ</w>
署 名</w>
線 幅</w>
結 合</w>
組み 合
算 子</w>
積 算</w>
種 類</w>
短 縮</w>
省 略</w>
相 当</w>
相 対</w>
監 視</w>
深 さ</w>
正 しい</w>
構 築</w>
検 出</w>
本 体</w>
文 字
抽 出</w>
待 機</w>
大き い</w>
品 質</w>
取 る</w>
参照 く</w>
原 因</w>
印 字</w>
列 挙</w>
入 り</w>
乱 数</w>
下 さい</w>
一 行</w>
ーカ ー</w>
ー ジェ
ロ ールバック</w>
レスポ ンス
レジ ストリ
レ ータ
レ イ
リ ポジ
リポジ トリ</w>
ラッ パー</w>
ラジ アン</w>
モ ノ
メン バー</w>
メ ニュ
メ イン
ム ネ
ムネ イル</w>
マッピ ング</w>
マ ー</w>
マ ニュ
マ シ
マシ ン</w>
ポー ネ
ポーネ ント</w>
ベ ース</w>
プログ レス
プロ ンプ
プラ ット
プラット フォーム</w>
ブ ル</w>
フェ ース</w>
フ ック</w>
ビュ ー</w>
パッ ケ
パッケ ージ</w>
パ レ
バイナリ データ</w>
ド ライ
ト リー</w>
デ ジ
デジ タ
テーブル データベース</w>
テン ツ</w>
ッ キ
ダイア ログ
ダ ウ
ダウ ン</w>
スレ ッド
スタック トレース</w>
スキー マ</w>
ス イ
スイ ート</w>
サ ムネイル</w>
コン ポーネント</w>
コン テンツ</w>
クライア ント
ク ロ</w>
ク オ
カレ ント</w>
オーディオ フレーム</w>
オーディオ ファイル</w>
オーディ オ</w>
エン ド</w>
エ ージェ
インスト ール</w>
イテ レータ
アーカイブ エントリ</w>
を つ
をつ かっ</w>
れ ら</w>
や す
ふ た
ふた つ</w>
ど の</w>
ど ち
と も</w>
と こ
とこ ろ</w>
た か</w>
そ し</w>
ず れ</w>
こ れら</w>
く だ</w>
zugri ff</w>
zu fall
zufall s
zon es</w>
zh it</w>
zh d
zero -
zeichen sat
zei gt</w>
ze it
zaregistri rovan
zadan nuiu</w>
za visi
z op
zop as
z na
yv at</w>
yol u</w>
yere l</w>
ye ars</w>
yak in</w>
yaf_rout er</w>
yaf_ config_
ya zi
xs d</w>
xm l_
x y</w>
x bm</w>
ww w</w>
ws gi</w>
wrapper ::
wrapper:: stream_
wn d</w>
with -
wid ening</w>
wi eder</w>
wh at
wer tes</w>
web link()</w>
war tet</w>
wa king</w>
wa kes</w>
wa h
vy khod
vy bran
vu kh</w>
vt_ date</w>
vse m</w>
vor kom
vor bereit
vorbereit ete</w>
vol l
voll stan
vo s
vos stan
vo i
vnes h
virtu el</w>
virtu al
vi ia</w>
vi gab
vigab leset</w>
verro us</w>
verifi cacion</w>
ver weist</w>
ver inin</w>
ver fug
ve il
valu e-
v me
v kliuchaia</w>
v kliuch
v itel
v i</w>
v ement</w>
v el
v an</w>
v am</w>
uyg ulam
uy arak</w>
utiliz ada</w>
ustanov len</w>
us ados</w>
ur face</w>
unmodifi able</w>
unifi cation</w>
un zip</w>
un resolved</w>
un links</w>
un install</w>
un documented</w>
un defined</w>
um unun</w>
ukaz atelem</w>
ukaz an</w>
ubere in
u tion
u ma
u hr
type 1</w>
typ s</w>
ty con
tur u</w>
tsvet om</w>
tsv eta</w>
tselo e</w>
try lock</w>
trouve es</w>
tron que</w>
tro u
tri ang
transp ort</w>
transl ated</w>
transl ate</w>
transak tion</w>
tran za
tr ying</w>
tr un
tol string</w>
to ward</w>
to mati
tomati ches
to ()</w>
tmp nam
time out
ti meto
timeto live</w>
ti le</w>
thread ing</w>
them selves</w>
thas h</w>
th re
th ()</w>
text ure</w>
terator ()</w>
tep ki
tepki yi</w>
templat e
telech ar
telechar ge</w>
te ed</w>
te dexception</w>
tc ut</w>
tas k
targ ets</w>
tare as</w>
tar file</w>
tamam ini</w>
takvi m</w>
tag ged</w>
tab el
tabel len
ta ki</w>
t[k ],</w>
t umunu</w>
t rech
trech o</w>
t k
t ent
t el</w>
t b</w>
t 1</w>
syntacti c</w>
suz gec
sustitu cion</w>
sus pend()</w>
sur veil
supporte es</w>
supporte e</w>
suppor tes</w>
supplement ary</w>
supplement al</w>
super classes</w>
sup primer</w>
sunuc unun</w>
sum a</w>
subtr action</w>
substit ut
sub section</w>
sub map</w>
sub m
subm its</w>
sub ject
su i
sui van
styleshe et</w>
stven no</w>
strukt ur
stroku ,</w>
stream wrapper::stream_
stra r</w>
stra ight</w>
str to
str ong
str at
strat eg
strateg y</w>
str any</w>
str 2</w>
str 1</w>
stop ping</w>
stolb t
stocke es</w>
stati call
staticall y-allocated</w>
statement ::
st ut
st o</w>
st mt</w>
st ellen</w>
ssh 2</w>
sqlsrv_ prepare()</w>
sqlite 3</w>
sql_ connect()</w>
sq rt</w>
split ting</w>
splfileinfo:: is
splfile object::
spel l_
specifi ant</w>
sp hin
sphin x
sootvetstvuiushch ii</w>
sonlan dirir</w>
solu to</w>
sol _
sol_ terim</w>
socket permission</w>
so y
so por
smt p/
smtp/ tls</w>
slu zh
sli ce</w>
sleduiushch uiu</w>
sleduiushch ii</w>
sk rip
sit e-
sistem i</w>
sist eme</w>
sini fin
sinifin in</w>
simvo la</w>
simplexmliter ator
simplexmliterator ::
sim ule</w>
sign key</w>
sign a</w>
sig ni
sif rel
si l
si ia</w>
si bili
si aliz
shri f
shor tcut</w>
sho wn</w>
shif ts</w>
sh ir
sh ab
shab lon
setop t()</w>
set /
session 's</w>
server socket</w>
server ()</w>
serializ ada</w>
serializ able
semanti cs</w>
selec ciona</w>
sel lestirir</w>
sel f-
sek und</w>
sein er</w>
seek ()</w>
second aries</w>
se m</w>
se an</w>
sd vig
scrol ling</w>
schedul ing</w>
sched ules</w>
sch ri
sc ene</w>
sav e-
satur ation</w>
sar mal
sam connection</w>
sab it
sa uve</w>
sa o</w>
sa g_
sag_ terim</w>
sa g</w>
sa ch
s succeeds</w>
s mi
s lush
s l
s kogo</w>
s end
s cha
s ap
s :</w>
s '</w>
run time
ru ft</w>
rp n</w>
rot ates</w>
roll back
rollback ()</w>
rod itel
ro und
ro u
ro py</w>
ro m</w>
revi ent</w>
rever t</w>
retriev al</w>
reti re</w>
ret o</w>
ret ain
resur som</w>
result _identifier</w>
restric ted</w>
resta ure</w>
rest o</w>
respon se
res sion</w>
res et
requi re_
repositori o</w>
repos _url</w>
ren vo
remote _file</w>
remo s</w>
rem et</w>
releas ed</w>
relac ement</w>
rela ti
regul aren</w>
reg ression</w>
reg las</w>
refres h</w>
reflej ando</w>
reflec tion</w>
refl exion
referenti el</w>
ref err
referr ing</w>
redirec ts</w>
recursiveiterator iterator::
recursive filteriterator</w>
rec v
realiz ada</w>
real float</w>
read only</w>
read _
re named</w>
re interrupts</w>
re entrant</w>
re and
reand set</w>
raspako vyvaet</w>
radian es</w>
radi ana
rab at
r ten</w>
r ng</w>
r mi</w>
r dn</w>
r cs</w>
quanti ty</w>
qual quer</w>
qu ic
put ting</w>
put stream</w>
push back</w>
pun kt</w>
publi que</w>
psev don
ps_add_ weblink()</w>
ps_add_ pdf
ps_add_pdf link()</w>
prox ied</w>
provi der</w>
proveri aet,</w>
prostranst ve</w>
property- change</w>
property change</w>
proiz o
proizo shed
produ it</w>
proces s_
proces os</w>
pro mo
pro ject</w>
pro g</w>
pro files</w>
pro fil</w>
pro f_
privile ges</w>
priv eden
pri ch
prev ents</w>
preser ve</w>
pres et</w>
pres ence</w>
prep ends</w>
preferences put
pre pend()</w>
pre de
pre c</w>
pr o</w>
pr ng</w>
post /
post -
posi tif</w>
pos ()</w>
por ts</w>
pop 3</w>
pole i</w>
pol l()</w>
pois k</w>
pointe e</w>
poin te</w>
po de</w>
plat a
plac ed</w>
pl ano</w>
pix eli
pixeli terator</w>
piksel leri</w>
pik sel</w>
pic ture</w>
pi ec
php nin</w>
pes o</w>
personn alisee</w>
personaliz ada</w>
persist ent
permut ations</w>
permut ation</w>
peremen nuiu</w>
perc ent</w>
per miti
per man
per m</w>
pel o</w>
pec l
pecl /
pe z
pe qu
pe er</w>
pass words</w>
pass wd</w>
pas t</w>
pas sees</w>
particuli er</w>
parti al</w>
parser- macro</w>
paramet ry</w>
paramet ra
paramet er()</w>
paral le
par o
par che
parche a</w>
pal eta</w>
pal et
page ()</w>
pa ys</w>
pa y
pa ires</w>
p tion</w>
p store</w>
p spell_
p lo
ozel lik</w>
ow ner
output -
otnosh eniia</w>
ot meniaet</w>
ot kry
ord ure</w>
or _name</w>
oper at
oper abili
operabili dad</w>
open struct</w>
open _
op cional</w>
oni cally</w>
one- dimensional</w>
on_ off</w>
omi sion</w>
od noi</w>
od n
odn u</w>
oct et</w>
oci_ new_
oci_new_ descriptor
oci_new_descriptor ()</w>
oci_ execute()</w>
och ere
ochere di</w>
oc up
oc sp</w>
obten ida</w>
objectout putstream</w>
obje tivo</w>
obj `</w>
ob stack
ob serve</w>
ob nov
ob khodi
o stat
o s-
num be
numbe red</w>
notifi cations</w>
nom me
nom er
node *</w>
nit el
ni ce</w>
new lines</w>
new _path</w>
neskol ko</w>
nes nen
nesnen in</w>
ne ues</w>
ne igh
ne arly</w>
nat sort</w>
nam ens</w>
nam en
nach sten</w>
na vigableset</w>
n' y</w>
n' a</w>
n frames</w>
n ap
n ai
n age</w>
n ]</w>
mysqli_ connect()</w>
multipli es</w>
multi ()</w>
mu est
muest reo</w>
ms sql</w>
ms -
move ()</w>
monit or</w>
mongo cursor</w>
mongo command
mon go</w>
modific ar</w>
modific acion</w>
mo vi
mo strar</w>
mo ment
mo d_
mno zhest
mix ed</w>
min us</w>
mi x</w>
metri e</w>
metadata- map</w>
meta- data</w>
met tre</w>
mes ini</w>
memo -
mem set</w>
mej ora</w>
mehre ren</w>
may usculas</w>
maxim a</w>
max _t</w>
mat h</w>
mas cara</w>
mark down</w>
mar que</w>
mail_ move()</w>
mail ca
mailca p</w>
mail bo
mailbo xes</w>
ma ya</w>
ma tion</w>
ma th
m orph
m cryp
m b</w>
m :</w>
lua_ push
lu sive</w>
loop back</w>
long est</w>
long est
longest waiting</w>
lokal nym</w>
lokal noi</w>
log arit
logarit mo</w>
local e's</w>
loc ations</w>
loc ated</w>
lob s</w>
loadfrom file()</w>
load -
lo go</w>
lo ()</w>
lit t
list_ db
list_db s()</w>
list eler</w>
list ()</w>
lin ked
limit es</w>
libe vent</w>
libe io</w>
lib r
lib er
lib c</w>
li miti
li es</w>
li ee</w>
lex ical</w>
lev a</w>
let ra</w>
leng ths</w>
len ame</w>
lem ek</w>
leg al</w>
le m</w>
le ktsii</w>
le d
la ge</w>
l'ar bre</w>
l' uri</w>
l' un</w>
l' ori
l' oper
l' espac
l'espac ement</w>
l' aide</w>
l y-
l um
l uc
l tura</w>
l stat()</w>
l l
l exi
lexi co
l ac
kumes indeki</w>
kullanil mak</w>
kullanil arak</w>
kop f
kon umunu</w>
kon um</w>
kon stan
kon nen</w>
kon ak</w>
kon ak
kom mando
kol on
kol lektsii</w>
kod lanmis</w>
kli enta</w>
klas s
kim ligi</w>
ki kh</w>
khran eniia</w>
kh v
key maps</w>
key fn</w>
key ed</w>
katalo g</w>
kat sii</w>
karsilastir masi</w>
karakter i</w>
kal ender</w>
ka ku</w>
k anal
k ami</w>
juli ana</w>
jar outputstream</w>
jan e</w>
j um
iz quier
iv ent</w>
iuli ans
iterat eurs</w>
iter acion</w>
iss ant</w>
iskliuch eniia</w>
is er</w>
is ant</w>
ip_ address</w>
ip v</w>
invo king</w>
interrup tedexception</w>
inter ro
inter operabilidad</w>
inter fe
integr ate</w>
instruc ts</w>
install ation</w>
inser t()</w>
input- schema</w>
input _
ink lusive</w>
initializ ing</w>
initi alisiert</w>
init sializ
init -
inici aliz
inform acao</w>
indi zes</w>
indi si</w>
indi r</w>
indi quant</w>
ind ent
in ti
in thash</w>
in se
in forme</w>
in et</w>
in es</w>
impor ta</w>
ime iushch
imap_ mail_move()</w>
image fil
iliskilendi rir</w>
ilet inin</w>
il klen
igu ales</w>
ignor able</w>
id set</w>
id i</w>
ic u</w>
i ado</w>
hw _
hw_ api_
horizon t
high er</w>
hget posn</w>
hermit ee</w>
he bre
haru encoder</w>
harf e</w>
hand sha
hand led</w>
hal ts</w>
habili tar</w>
ha ya</w>
h wnd</w>
h ref</w>
h ili</w>
h es
hes ap
h at</w>
h app
gzip writer</w>
gzip reader</w>
gz- datei</w>
guar an
guaran teed</w>
grup pu</w>
gren t</w>
gre en</w>
graph ical</w>
gra d</w>
gr ace</w>
gor sellestirir</w>
go v
gnupg_add signkey</w>
gn um</w>
global en</w>
glob ()</w>
glei ch</w>
gi yle</w>
gettimeof day</w>
geti terator()</w>
get children()</w>
get /
get/ post/
gest ores</w>
gerce k
geo metric</w>
gener ator
gener aliz
gel in
gel es
geb ra
gearmanclient ::add
gearmanclient::add task
ge liefert</w>
ge -
gaus sian</w>
g lo()</w>
g ement</w>
g dbm</w>
fusion ne</w>
funktions argument</w>
function ality</w>
full name</w>
from _encoding</w>
fri end
friend ly</w>
fourn it</w>
four ier</w>
fornec ida</w>
format os</w>
format a</w>
foreign ptr</w>
foreign -
fore ver</w>
for t</w>
fol dl</w>
fli pped</w>
fl at</w>
finis h
file pro</w>
file handle</w>
file 's</w>
fil tr</w>
fi ja</w>
fetch ing</w>
fetch ()</w>
fel d
fehler nummer</w>
fehler meldung</w>
feh l
fb sql_
far ki</w>
fai re</w>
fai r</w>
fa ult</w>
f y_
f sock
f ran
f oc
f ec
exten di
ext remos</w>
ext end</w>
expun ge</w>
expand ing</w>
exist ant</w>
exclusi vo</w>
exception ::__construct()</w>
excep te</w>
excep ciones</w>
ex ac
eventbuffer ::
event:: write</w>
event:: read</w>
event ually</w>
event log</w>
eto go</w>
eti m</w>
et oi</w>
estati co</w>
establish ed</w>
est order</w>
especific ar</w>
espac ios</w>
espac es</w>
esp ejo</w>
esles tir
esim o</w>
escu ch
escuch a</w>
escri bir</w>
escap a</w>
es siz</w>
es sa</w>
es ki</w>
es i</w>
error_ code</w>
eri sim</w>
eri ch
ereg _
ereg_ replace()</w>
er halt</w>
eq v
enz o</w>
envo ye</w>
envo ltura</w>
envi ada</w>
entsprech end</w>
entr ad
entrad a/
entrada/ salida</w>
ent ropy</w>
ent relacement</w>
ent reg
enlaz o</w>
encryp tkey</w>
enc abe
encabe zados</w>
en tion</w>
en nuiu</w>
emp re</w>
em pez
elimin ar</w>
element ami</w>
el ess</w>
el en
ekvival ent
eklent i</w>
ek lenti
ejecut able</w>
eg ten</w>
effici ently</w>
ed -
echo ue</w>
e path</w>
e ds</w>
e dit</w>
e ded</w>
e be
ebe ve
e ar
dynam ically</w>
dur um</w>
dur uk</w>
dugum unu</w>
down load</w>
dou bles</w>
dopustimy m</w>
dopustimo mu</w>
dondurul en</w>
dondur mesi</w>
dogr ulam
document ee</w>
doc type</w>
dob avlen
do v</w>
do ivent</w>
diz ilerin</w>
divi dend</w>
distribut ing</w>
distan cia</w>
direktor iiu</w>
dig est
diff er</w>
diferen cias</w>
dies es</w>
dic ated</w>
di re</w>
dey im
devuel tos</w>
develop ment</w>
determin er</w>
destro y</w>
desh abili
descriptor _
descriptor_ de_fichero</w>
desc endants</w>
des loc
des comprime</w>
der 's</w>
depur acion</w>
dep s</w>
deleg ates</w>
delay ed
del ta</w>
dekodi ert</w>
deist vitel
degistirges inde</w>
def rag
decryp ts</w>
decre mente</w>
decompres se</w>
decode d-
decoded- time</w>
declar acion</w>
decl ara
decimal formatsymbols</w>
deci de</w>
debug ger</w>
debo guage</w>
debo gage</w>
de se
de ep</w>
de e</w>
de dicated</w>
de cro
dd d</w>
dbplus_ open()</w>
datensat z
datenbank server</w>
datein am
date interval</w>
date format</w>
datagram socket</w>
dat um
dat o</w>
dan nymi</w>
dam g
da hili</w>
d' environnement</w>
d' entrelacement</w>
d y-
d vukh</w>
d sa</w>
d nei</w>
d ades</w>
d ad
d ab
cumul ative</w>
cryp to
cryp ted</w>
criter ia</w>
cre ada</w>
cour t</w>
corri ente</w>
corren te</w>
contr ast</w>
contr acting</w>
conteni dos</w>
cont ours</w>
cont orne
consum ption</w>
consum ed</w>
constru ction</w>
conso le</w>
cons -
configur ations</w>
condi tional</w>
concaten ate</w>
con signa</w>
compon ente</w>
compa reandset</w>
com il
com _*</w>
collection 's</w>
collec t</w>
coincid encia</w>
coinci de</w>
codific ados</w>
codi gos</w>
cli ck
classi fication</w>
classi c</w>
cla use</w>
cir cul
ci z
ci es</w>
ci er
chislo ,</w>
chiff re</w>
chem ins</w>
chan ger</w>
chain ykh</w>
cel ui</w>
cat alo
case- insensitive</w>
cas ec
car rega</w>
cap tures</w>
cap ture</w>
cap able</w>
canoni cal
call er's</w>
calis ma</w>
calendar 's</w>
cairoimages urface</w>
c ru
c ero</w>
c entre</w>
bzip 2-
by li</w>
buy uk</w>
buil der's</w>
buck et</w>
bro ad
br ute</w>
bor rar</w>
bo u
bo dy-
bin d_
bicem li</w>
biblioth ek</w>
biblio teki</w>
bi ri</w>
bi rer</w>
bi gnum</w>
bi direc
besch rieb
bes sel</w>
berei ch</w>
benutzer definierten</w>
ben zer
bel leg
bel ge
be gun</w>
baz oi</w>
base- e</w>
bas ename</w>
bag li</w>
bag lam
bag in</w>
back ed</w>
ba g</w>
b un
b ordure</w>
b ido</w>
b idi</w>
b es</w>
b as</w>
b ander
bander as</w>
b .
ayi klam
ay ant</w>
avan za</w>
av tomatiches
av el</w>
author ity</w>
authentic ator</w>
authentic ate</w>
auth ors</w>
aut enti
aufru fen</w>
aufru f
atribut y</w>
associ ate</w>
asso c
asoci adas</w>
arrayobject:: getiterator()</w>
argument en</w>
arbit r
ara y
ar lo</w>
approxim ate</w>
appear ance</w>
app ed</w>
apc iterator</w>
ans wer</w>
anot acion</w>
ang ulo</w>
ander ungen</w>
and ert</w>
analiz ar</w>
an n</w>
an iz
an ie</w>
am ong</w>
alway ssucceeds</w>
align ment</w>
ali p</w>
alf a</w>
aleatori os</w>
alan inda</w>
al te</w>
aktuel l</w>
ajust a</w>
ajout er</w>
aioc b
affich er</w>
aem yi</w>
adverti ses</w>
adi ciona</w>
actualiz ar</w>
activi dad</w>
act uelle</w>
acep ta</w>
accept_list_item _star
accept_list_item_star t_
accept_list_ end_
accep ter</w>
ac ente</w>
ac cur
absol ut
ab stra
ab soluto</w>
ab sent</w>
ab er</w>
a un</w>
a ison</w>
a .
a )</w>
` obj`</w>
_ type</w>
_ info</w>
_ functions</w>
_ errno</w>
_ code
[ b
[ ]</w>
: paragraph</w>
: http</w>
: drb
99 %</w>
6. 7</w>
6 5</w>
6 00</w>
5 -
3 c</w>
25 5</w>
2 つ</w>
2 822</w>
2 1</w>
1 4</w>
/etc/host s.
. tzinfo</w>
. e
. bz2</w>
. app</w>
. )</w>
-- #
--# include</w>
- name</w>
- like</w>
- ></w>
'# '</w>
$ _
! --#include</w>
! !</w>
類 似</w>
静 的</w>
除 算</w>
開 鍵</w>
遭 遇</w>
連 結</w>
輝 度</w>
認 識</w>
角 度</w>
補 完</w>
表 わす</w>
考 慮</w>
翻 訳</w>
組み合 わせ</w>
破 線</w>
演 算子</w>
注 記</w>
決 定</w>
正 しく</w>
次 元</w>
最 新</w>
書き込 ま</w>
書 記</w>
日 曜日</w>
文字 数</w>
指 示</w>
拡 大</w>
折 り返し</w>
手 法</w>
必 須</w>
復 号</w>
得 る</w>
平 均</w>
左 側</w>
左 上</w>
実 効</w>
始 め</w>
多 く</w>
増 や</w>
基 底</w>
埋 め
型 名</w>
取り除 い</w>
単 純</w>
前 景</w>
列 内</w>
列 値</w>
列 中</w>
切 り
分 散</w>
出 す</w>
公 開鍵</w>
個 々</w>
修 飾
使 える</w>
何 らか</w>
予 定</w>
中 止</w>
上 位</w>
一 般</w>
ン マ</w>
ワ ード
ワ ーカー</w>
ロ ール
レー ティ
レイ ヤ
レイヤ ー</w>
ルー チ
ルーチ ン</w>
ル ート
ル シ
ルシ ート</w>
リモート ファイル</w>
リ レーション</w>
リ ミット</w>
ユニ ーク</w>
モジュール オブジェクト</w>
メント リソース</w>
メモリ ブロック</w>
ミ キ
ミキ サ
マニュ ア
マニュア ル</w>
マ フ
マフ ォ</w>
マ スク</w>
ポ リ
ポ ラ
ボ ックス
ペ レーティ
ベ ージ
プロンプ ト</w>
プログ ラ
プロ ファイ
プロ バイ
プロバイ ダ</w>
ブロ ッキ
ブラ ウ
ビット グレースケール</w>
ビ ジ
パレ ット</w>
パッ チ
パッチ ファイル</w>
パス ワード
パイ プ</w>
ハンド ルオブジェクト</w>
デバッ グ
デコ レータ</w>
ディレクトリ エントリ</w>
ディ ング
テスト ケ
テキスト ノード</w>
テ ゴ
テゴ リ</w>
ット ダウン</w>
タイ トル</w>
セ ル
セ マフォ</w>
セ キュ
スペ ース</w>
ステート メントリソース</w>
スタ イ
スタイ ルシート</w>
ス ライ
ジ ン</w>
シー ク</w>
シャ ットダウン</w>
サービ ス
サンプル サイズ</w>
コン フィ
グローバ ル
グラ フィ
グ リ
グ ラム</w>
クライアント ライブラリ</w>
クス チャ</w>
クオ ート</w>
キュ ー
キャ ン
ガ ベージ
カレント ディレクトリ</w>
カスタ ム
カウ ント</w>
カ テゴリ</w>
オ ペレーティ
エン ジン</w>
ウ ンド
インタ フェース</w>
イテレータ インスタンス</w>
れ か</w>
の い</w>
の い
に対 応
どち らか</w>
と 同じ</w>
と づ
とづ い</w>
で も</w>
つ か</w>
ず れか</w>
じ る</w>
さ ず</w>
か し</w>
お り</w>
い ませ</w>
| )</w>
zust and</w>
zusam men
zus at
zusat zli
znachenii am</w>
zip- arkhi
zip info</w>
zh det</w>
zertifi kat</w>
zer legt</w>
zeil en-
zeilen- history</w>
zeich net</w>
zavisi mo
zat ron
zatron ut
zatronut ykh</w>
zapis ei</w>
zan ima
zah len</w>
zah len
zadan nymi</w>
zadan nykh</w>
zadan ie</w>
z ten</w>
z te</w>
z li</w>
z en-
z ashch
zashch ishch
yy y
yp e_
ype_ xxx</w>
yoner ges
yi m</w>
yerlesti ri
yeni den</w>
yar _
yan si
yansi til
yan k-
yaf_route_ static</w>
ya z</w>
y/ x</w>
y p</w>
y ol</w>
y ama</w>
y ,</w>
xml_ document</w>
xml- rpc</w>
xml- name</w>
x code</w>
writ e-
work group</w>
word list()</w>
wor l
wis h</w>
win k
which pred</w>
what ever</w>
wel l-
well- formed</w>
web -
weak ly</w>
we ise</w>
we gt</w>
we eks</w>
we bri
webri ck</w>
we '
wa p</w>
w ever</w>
w c</w>
w all</w>
w 3c</w>
vyzvan a</w>
vyv ai
vyvai as</w>
vyso tu</w>
vy zov
vy tal
vytal ki
vytalki vaet</w>
vy kh</w>
vy bor
vybor ki</w>
vu iut</w>
vozvrashch aia</w>
vollstan di
vo da</w>
vis u
virtual ...
virtual... --</w>
verschi eden
verschieden er</w>
ver sal
ver sa</w>
ver halt</w>
vent ana</w>
vend or_
velich inu</w>
vel ce</w>
ve -
vari avel</w>
vari an
var binary</w>
valu e()</w>
validat or</w>
valid ity</w>
valid acion</w>
vali date</w>
vac io</w>
v8j s</w>
v8j s
v8js ::
v uel
v u</w>
v khod
v ise</w>
v ec</w>
v ami</w>
uv ant</w>
utiliz arse</w>
utilis ateurs</w>
ut mp</w>
ut mp
uspesh no</w>
ushch est
ushchest v
user- supplied</w>
user- specified</w>
uscul as-
usculas- minusculas</w>
us ual</w>
us e_
us e-
url- encoded</w>
url connection</w>
up date
unter stut
unikal nyi</w>
uni versal
uni byte</w>
un named</w>
un locks</w>
un ites</w>
un dex</w>
umgeb ung</w>
umeri cos</w>
um er
um bn
ulti ruiushch
ul yen</w>
ukazan nye</w>
ukazan nomu</w>
ukaz yvaet</w>
ugol ni
uberein sti
u zhe</w>
u voir</w>
u red</w>
u la</w>
u iu
u chast
typ es
typ eli
typeli b</w>
two- element</w>
tw are</w>
turun dey
turundey se</w>
tup le
tu re
trou ver</w>
tri dimensional</w>
tri angle</w>
tras si
transfer -
trans pose</w>
trans forme</w>
trail ing"</w>
trac er</w>
tra ite</w>
tr atar</w>
tr ad
tr ack
top most</w>
ton ality</w>
token ize</w>
toch ki</w>
to_ s</w>
to_ parse</w>
to_ json</w>
to string</w>
to gg
tiv ement</w>
tip i</w>
tion error</w>
timestamp non
timestampnon ce
ti len</w>
ti g</w>
ti enne</w>
throwerrnoif minus
thread- specific</w>
tho ugh</w>
that 's</w>
thas h
thand ler</w>
th umbn
text encoding</w>
text domain
test case</w>
term vector</w>
term s
terms component</w>
ter mi
tempor aire</w>
tem per
tel les</w>
tek rar</w>
te kil</w>
te iro</w>
tari h
target -
tarayici ya</w>
tar a</w>
tanim li
tan to</w>
tam sayi</w>
tak zhe</w>
tak imi</w>
tail les</w>
tail able</w>
tag name</w>
table -
tab lo</w>
ta ux</w>
ta k</w>
ta -
t_generic ()</w>
t_ return
t_return transfer</w>
t wi
t t</w>
t sat
tsat erich
t s()</w>
t on</w>
t ob
t elle</w>
szh imaet</w>
szh ati
system wide</w>
syn the
symbo l
switch -
switch- to-
svoist vo</w>
sv m</w>
sv ai
sur umu</w>
sur ing</w>
suppor te</w>
super var</w>
super fici
superfici e</w>
sum mar
suj et</w>
suc ces</w>
substr ()</w>
substitut ing</w>
subject :</w>
sub- process</w>
sub tree</w>
sub str</w>
sub stitu
su je
suje to</w>
su by
suby acente</w>
stu ff</w>
strukt u
strukt or</w>
stringi o</w>
string- or-
string 's</w>
stream_ filter_
str uk
stor able</w>
steep nes
stat d</w>
start buffering()</w>
standar t
stand ing</w>
stan tes</w>
stan ds</w>
stagn ation_
stagnation_ epoch
stagnation_epoch s()</w>
stack trace</w>
stab lec
st ren
stren g
st elle</w>
st ei</w>
st av
st al
st ab</w>
ssl /
sr c_
sqlite -
sql_fetch_ array()</w>
sql err
spezifi zierten</w>
specifi er</w>
specifi e,</w>
specializ ed</w>
special ised</w>
speci aux</w>
spec 's</w>
sp lob
sp ins
spins blocks</w>
sp ent</w>
sp at
soz dizimi</w>
sous crip
souscrip tion</w>
source list</w>
sour cen</w>
sorg u</w>
sootvetstvuiushch ei</w>
soli ut
sol ve</w>
sok ete</w>
socket_ set_
socket_ last_error()</w>
socket_ accep
socket_accep t()</w>
sob res
sobres cri
soap server
so_ reus
so_reus e
so_reuse addr</w>
so undex</w>
so obs
soobs hchaet</w>
so fer
sofer n</w>
so f
sof tware</w>
snipp et</w>
sn ap
snap shot</w>
small "</w>
slush aiushch
slo t-
sk h
siral ama</w>
sini r
sin tak
sin h</w>
sin cron
simvo l
simple immut
simpleimmut able
simpleimmutable entry</w>
simil ares</w>
sim ula</w>
sim plem
sign er</w>
sig no</w>
sig nee</w>
sig ne
si fres
si f</w>
si empre</w>
shuff ling</w>
shrif ta</w>
shir inu</w>
shif ting</w>
shel l-
sha 1</w>
sh est
shest n
shestn ad
shestnad tsaterich
sh e</w>
sh are</w>
seu il</w>
set table</w>
session .
session -
ses _
server ov</w>
server -
server 's</w>
ser ves</w>
separ ates</w>
sen al
self- signed</w>
selec tion</w>
sel y</w>
sel f
sein es</w>
second ary</w>
secon de</w>
secen ek
secen eg
sec -
se us</w>
se u</w>
se al
se ()</w>
sdo_das_ xml_document</w>
scrol ls</w>
sci enti
scienti fic</w>
schreib -
schnit t
schlussel -
sched ule</w>
sch ema
sch e</w>
scan ned</w>
sb ras
sbras yvaet</w>
sayis al</w>
save_ wordlist()</w>
sau f</w>
sam pl
sal t</w>
sab lon</w>
s' est</w>
s wap</w>
s un</w>
s scanf()</w>
s objekt</w>
s g</w>
s do</w>
s core</w>
s and
s ?</w>
s 2</w>
rut as</w>
rovan nuiu</w>
root object</w>
ro utes</w>
ro red</w>
ro jo</w>
ro ff
ril misse</w>
ril an</w>
ri ed</w>
ri d</w>
ri ci</w>
rez ultiruiushch
rewind iterator</w>
retro propag
retropropag acion</w>
ret r
ret ain</w>
resum ed</w>
respec tive</w>
resol v</w>
reser ved</w>
res sourcen</w>
res me</w>
requi res</w>
request ing</w>
requ is</w>
represent a
representa tional</w>
repras entation</w>
repe ated</w>
repe at</w>
renvo ie</w>
renomb ra</w>
ren n
remar c
rem plac
relev ant</w>
rei hen
regul ares</w>
regexiterator:: set
reflection function</w>
reflec tor</w>
referen cing</w>
recursive iterator</w>
recur sion</w>
recuper acion</w>
recup eree</w>
recor ding</w>
reci entemente</w>
rec o</w>
rec ente</w>
realiz uet</w>
real m</w>
read me</w>
read gz
read dir</w>
rea ch
re z</w>
re xml</w>
re starts</w>
re positions</w>
re p</w>
re nomme</w>
re l</w>
re ject</w>
re inicializa</w>
re inicia</w>
re form</w>
re dimension
re defines</w>
rdoc -
raz res
raz deli
raz bi
rasshiren ie</w>
rani ashch
random ly</w>
rand 48</w>
rac cour
ra idset</w>
ra id</w>
r w
r ushed</w>
r t
r m
r ing
r ant</w>
quickhash int
quic k</w>
query _identifier</w>
quer ying</w>
quanti te</w>
qu ota</w>
qu it
qu el
qu ee</w>
qu and</w>
q ?
put _
pspell_ save_wordlist()</w>
psevdon imo
psevdonimo m:</w>
pru fung</w>
prover ku</w>
protses su</w>
protoko la</w>
proto tipo</w>
prop name</w>
prom ise</w>
proizoshed shei</w>
produc ing</w>
produ ite</w>
process '</w>
procedimi entos</w>
prob l
pro le
prole p
prolep tic</w>
pro fi
pro cur
pro che</w>
priv ate_
prior it
princi pio</w>
pri svai
pret ty-
preser ving</w>
pres ent
preobrazovan ie</w>
pregun ta</w>
preferences get
predstavlen iia</w>
prede ces
preced ent</w>
pre qu
pre fix
pre fik
pra va</w>
pp e</w>
pov ed
poto ke</w>
pot ential</w>
posteri or</w>
posledne m</w>
posled nii</w>
posix file</w>
position ed</w>
posi ble</w>
pos al</w>
port ement</w>
port 's</w>
por tions</w>
pon teiro</w>
poly g
polyg on</w>
poli ces</w>
poin ting</w>
podp is
pod schityvaet</w>
pod program
pod kliuch
po uvoir</w>
po ol
po inter
pointer s</w>
plur al</w>
platform ?</w>
plac e
pl au
plau sible</w>
piksel i</w>
piec e
phar:: startbuffering()</w>
ph ars</w>
person al</w>
permis sion
periodi cally</w>
pere khv
per ten
per ror</w>
per files</w>
pecl/ gearman</w>
pec ts</w>
pe p</w>
pcnt l_
pc re</w>
patter n
pat ches</w>
pas ados</w>
pas a</w>
parti es</w>
parse ()</w>
parametra kh</w>
paramet r
paramet er
param s
parall el
paragraph s</w>
par u</w>
pap er</w>
palet li</w>
pa ger</w>
p ull</w>
p t_returntransfer</w>
p k</w>
p connect()</w>
ozniteli ginin</w>
ozet leme</w>
ow ned</w>
overri ding</w>
over flow</w>
out standing</w>
out lines</w>
out er</w>
out !
out! !!</w>
otprav len
otlichi e</w>
ot razh
ot onically</w>
ot kliuch
osno vyvaias</w>
os ushchestv
ord ers</w>
or neg
or g</w>
or d</w>
or "</w>
option parser</w>
oprede lit</w>
open dir</w>
opcion almente</w>
opac ity</w>
opac ite</w>
opac idad</w>
op posed</w>
op a
on nees</w>
on ces</w>
on belle
on /
okruzh eniia</w>
ok uy
off ent
of ten</w>
ocurri o</w>
oci_ parse()</w>
obten ue</w>
obten ido</w>
obten cion</w>
obrat nom</w>
object )</w>
objec to</w>
objec t-
obi az
obiaz atel
obi avlen
ob tient</w>
ob rabat
ob iavli
ob en</w>
ob em</w>
ob array</w>
ob a
oba it
oauthprovider:: call
o cur
numeris che</w>
numeric a</w>
numeri cos</w>
number '</w>
numar asi</w>
null- terminated</w>
nov uiu</w>
noti fy
non- zero</w>
non zero</w>
non null</w>
non cancelled</w>
node map</w>
no te
no t-
no rewinditerator</w>
no op</w>
no ise</w>
nn tp</w>
niz h
nive aux</w>
niv eles</w>
new est</w>
new ()</w>
net to
nesnes inin</w>
neces ita</w>
ne udach
ne obkhodi
ne gr
named nodemap</w>
name error</w>
nam ente</w>
nachrich ten
na khodit</w>
n- dimensional</w>
n' importe</w>
n il
n digit</w>
n bytes</w>
n av
nav eg
n ad</w>
n ],</w>
mysqln d_
mysql_ field_name()</w>
ms _
mp 3</w>
mon th
mon otonically</w>
mon et
monet ary</w>
mog ut</w>
modi fy
mo ver</w>
mo tor</w>
mo s</w>
mnozhest ven
mno g
mnog obait
mit /
mit/ gnu</w>
mir rored</w>
min io</w>
meto dos</w>
metho d_
metatab lit
metameto dos
metametodos )</w>
metametho den</w>
metad onnees</w>
met ap
metap h
mensa gem</w>
men os</w>
memcached::get delayed
medi an</w>
medi a</w>
me kh
mekh aniz
me gab
may usculas-minusculas</w>
max length</w>
max _
matri ces</w>
mat te</w>
mas k
map 's</w>
manu el</w>
manteni endo</w>
malloc bytes</w>
make file</w>
main ement</w>
mac ite</w>
m se()</w>
m ppe</w>
m kt
m exp</w>
m es</w>
m en</w>
m b
m -
lual_ prep
lua_ tolstring</w>
lua_ state</w>
lua_ state
lua_ settable</w>
losch en</w>
long varbinary</w>
logic a</w>
local s</w>
local ly</w>
local isation</w>
local e-
load er
load _
lo pt_returntransfer</w>
lo at</w>
listi terator</w>
listi tem</w>
list 2</w>
link -
line join</w>
lin ec
linec ap</w>
lik us</w>
lik li</w>
lic en
libr aries</w>
li sh</w>
li p</w>
li er</w>
li che</w>
li aiushch
les en</w>
les e
les )</w>
ler iyle</w>
len ge</w>
lec i</w>
le yici
le rek</w>
le db
ledb rushed</w>
le aving</w>
le ak</w>
lay out</w>
lay ers</w>
lay arak</w>
last error
larg o</w>
lar ina</w>
lar a</w>
lan dirir</w>
lamb da</w>
lam a</w>
lad yvaet</w>
lac es</w>
l'et at</w>
l' iteration</w>
l' interi
l'interi eur</w>
l' action</w>
l us</w>
l m</w>
l leva</w>
l ere</w>
l ated</w>
l asso
l 1</w>
kur sor</w>
kullan mak</w>
kullan icinin</w>
kor uyarak</w>
kop iert</w>
koordinat lari</w>
koordinat akh</w>
konak adi</w>
kon u</w>
kon struktor</w>
kommando zeilen-history</w>
kom ut</w>
kom pon
ko mut
ko dom</w>
kliucha m</w>
kliuch i</w>
klass _name</w>
kin ds</w>
kim likli</w>
kil led</w>
ki e</w>
kho d</w>
kh ron
kh raniashch
ke yp
karsilastir ma</w>
karsilas tirir</w>
kalend aria</w>
kal dirir</w>
ka kh</w>
k te</w>
k lerini</w>
k lasso
k ext</w>
k end
just e</w>
json -
je dem</w>
j ulyen</w>
j ste</w>
j statd</w>
j p</w>
j e</w>
j a
izquier da</w>
iz ing</w>
iz in
iter ating</w>
iter adora</w>
it uellement</w>
it h</w>
it ely</w>
ist em
ispolzuem yi</w>
ispolzu et</w>
ispolzovan iem</w>
islev inden</w>
is on
is eof</w>
is el</w>
is )</w>
irov an</w>
ipv 6
intro duc
interpret a</w>
interpol ation</w>
intern al
inter namente</w>
inten sity</w>
inten sidad</w>
integer 's</w>
instanti ates</w>
instan cias</w>
instal l_
inser ting</w>
inoti fy_
inmedi atamente</w>
initsializ iruet</w>
ing les)</w>
ing _
infin ite
indic ar</w>
indic ada</w>
index ing</w>
indek sa</w>
inde pendent</w>
incre mente</w>
include _path</w>
inclu ant</w>
incl uso</w>
incl ure</w>
in y</w>
in variants</w>
in secure</w>
in its</w>
in ge</w>
in filename</w>
in daki</w>
impor ter</w>
implement acion</w>
img_color_sty ledbrushed</w>
imap_ delete()</w>
imap_ aler
imap_aler ts()</w>
imaget ype_xxx</w>
imagecoloralloc ate()</w>
image polygon()</w>
ima gelin
imagelin e()</w>
im ini</w>
ilisk isel</w>
ikin cisi</w>
ignor adas</w>
ifa de
id3 v1</w>
id _
ic indir</w>
ibase_blob_ open()</w>
ibase_blob_ create()</w>
ibase_ connect()</w>
i i
i f-
i endo</w>
i b
i az
iaz y
i at
i .e</w>
hyperbo likus</w>
hw api_
hwapi_ insert()</w>
hu mainement</w>
hu ge_
huge_ val</w>
htt p-
htt p
hol t</w>
ho wever</w>
ho t</w>
histo gram</w>
hesap lar</w>
hel lo</w>
hebre v()</w>
head er
hazir lar</w>
hazi r</w>
haru annotation</w>
har d
handsha ke</w>
hal f</w>
hab ituellement</w>
ha ut</w>
h set
h s
h it</w>
h i</w>
h en</w>
gz- file</w>
gulti gen</w>
guar dado</w>
grup pe</w>
groβ buchstaben</w>
graph ically</w>
graph eme</w>
grafi cos</w>
gra y</w>
gra y
gra fik
go v</w>
gnupg_add encryptkey</w>
gl ue</w>
gi zli</w>
gi ving</w>
gi rir</w>
gi do</w>
getimage size()</w>
get/post/ cookie</w>
get ting</w>
get ch</w>
genut zt</w>
generic 's</w>
gener iruet</w>
gener ada</w>
gen re</w>
gen en</w>
gebra ic</w>
gearman task</w>
gearman client</w>
gearman _errno</w>
ge gen</w>
ge gen
g n</w>
g led</w>
fun coes</w>
fuh rten</w>
ft p_
fsock open()</w>
from element</w>
fro zen</w>
free ing</w>
foto grafico</w>
font- spec</w>
fol low</w>
fol genden</w>
fol dr</w>
flo u</w>
flo t
flexi ble</w>
finaliz ers</w>
fin der</w>
fin d-
fin d()</w>
filtro v</w>
filter_ var()</w>
filesyst em
filenam e
field_ offset</w>
fiel d()</w>
fi tri
fi ber</w>
ff set</w>
fe at
fann_get_cascade_activation_ function
fann_get_ mse()</w>
fall back</w>
fal li
fail ing</w>
facet.date. other</w>
fa ites</w>
fa isant</w>
f string</w>
f stab</w>
f put
f indet</w>
f ang
f act</w>
exter nos</w>
ext rem
ext ent</w>
exit ed</w>
exit ()</w>
exclu ding</w>
exception -
excee ded</w>
exact amente</w>
ex plicit
ex emp
exemp le</w>
eventhtt p
event_ add()</w>
event buffere
even ly</w>
ev velce</w>
ev timer</w>
ev prepare</w>
ev ed</w>
etc .</w>
et ki</w>
et -
establi sh</w>
est an
esper ar</w>
espac iado</w>
esles en</w>
eshch e</w>
errno ()</w>
ergebnis kennung</w>
ereg ()</w>
ere z</w>
er handler()</w>
er halten</w>
er b</w>
eqv ?</w>
equal ity-
envo yees</w>
envi o</w>
env elop
enumer ate</w>
enum era</w>
entry set</w>
entry future</w>
entreg ada</w>
entr y-
enth alten</w>
ent ren
ent onces</w>
ent ers</w>
ent ered</w>
enregist rees</w>
enn ent</w>
ende reco</w>
end-of- line</w>
end-of- file</w>
encryp ts</w>
encryp tion</w>
encontr ados</w>
encontr ado</w>
encode e</w>
encapsul ated</w>
enable disable</w>
en suring</w>
en o
en nym</w>
en han
en ed</w>
en do
emo de</w>
embed ded</w>
em p</w>
em iti
em ise</w>
elements by
el e
ejecut ando</w>
eigen values</w>
effici ent</w>
ed win</w>
echo uee</w>
echantillon nage</w>
ec o</w>
e_ name</w>
e. g</w>
e w
e value</w>
e uc
e ous</w>
dur umunu</w>
dur dur
dur ation</w>
drugo i</w>
drugi kh</w>
dro ps</w>
dro its</w>
dro ite</w>
doub le
dostup nym</w>
dostup nykh</w>
dostup en</w>
dopol nitel
domain s</w>
domain name</w>
dom namednodemap</w>
dom c
domc datas
domcdatas ection</w>
dol gu</w>
dokum ente</w>
document acion</w>
docherni e</w>
doc s</w>
do ts</w>
do minio</w>
dn s
dizis indeki</w>
dizi 1</w>
distribut ed</w>
distinguis hed</w>
distan te</w>
dispat ches</w>
disc ard</w>
disable _functions</w>
dis posicion</w>
direc tonality</w>
direc ta</w>
dich o</w>
dibu jar</w>
di vise</w>
di kten</w>
di k
di a</w>
devuel ta</w>
devol vi
dev rait</w>
detail ed</w>
det all
detall ada</w>
destruc tive</w>
desplaz a</w>
des vi
des empilha</w>
des acti
dep ends</w>
dep endi
del aet</w>
dekodi ruet</w>
degi l
deg re</w>
def un</w>
def loat</w>
decryp ted</w>
declara tions</w>
de yim</w>
de tiene</w>
de rech
de mas</w>
de crypt</w>
de -
dbase_ identifier</w>
dav ran
dateinam en</w>
das h</w>
dar stellung</w>
dar stellt</w>
dab ei</w>
d_ text</w>
d' utilisateur</w>
d' operations</w>
d' hote</w>
d' attributs</w>
d v
d re
d ingly</w>
d ark
d ant</w>
d /
curl_ setopt()</w>
curl_ exec()</w>
curl_ close()</w>
cur va</w>
cur sor::
cur lopt_returntransfer</w>
cubrid_ execute()</w>
cubi c</w>
cuad rada</w>
cu y
cu ales</w>
crypto graphic</w>
cre acion</w>
cr ack
cp y</w>
cozum len
cour be</w>
coun table</w>
correspon der</w>
converti r</w>
converti do</w>
conven tions</w>
control ador</w>
contro lar</w>
continu a</w>
contin ues</w>
context ()</w>
contex ts</w>
cont ando</w>
consum erhandler()</w>
consist e</w>
cons- cell</w>
connection _string</w>
conn _identifier</w>
conjun tos</w>
conflic t</w>
conect ado</w>
conect ada</w>
con soli
con n</w>
con den
comput a</w>
compres s</w>
compos ants</w>
compor te</w>
compil ation</w>
compi le-
compar ison
compar aison</w>
compa red</w>
comp an
compan ion</w>
comment aire</w>
comi enzo</w>
com poses</w>
com portement</w>
com andos</w>
color map</w>
col ls</w>
coinci da</w>
codific ador</w>
code point</w>
code -
co sinus</w>
co sh</w>
co in</w>
clon eable</w>
cli entes</w>
clean up</w>
cl av
cir c
ci ble</w>
chro macite</w>
children 's</w>
charg ement</w>
character _set</w>
char- set</w>
char list</w>
chan ge
cha sti</w>
ch erez</w>
ch ap
ch ant</w>
ch an</w>
ch ama</w>
ch al
chal lenge</w>
certain s</w>
cel ls</w>
ce rez</w>
ce m</w>
cat ch
caracter isti
car ree</w>
captu red</w>
cap abili
capabili ties</w>
candi date_
can ce</w>
calis masini</w>
calend ario</w>
cad en
cach es</w>
cach e_
cab o</w>
ca girir</w>
c ut
c mp</w>
c m</w>
c f</w>
c er</w>
c elle</w>
c .
bz w</w>
byte array</w>
bus car</w>
bru it</w>
boy unu</w>
bound aries</w>
boole ans</w>
boole ano</w>
body- form</w>
bo ites</w>
blo ques</w>
blo ki
blan c</w>
bit mask</w>
binary _string</w>
bin hex</w>
bildiri mini</w>
bildi rilmisse</w>
bildi ren</w>
bi cem</w>
bi ased</w>
bezi eh
betim leyen</w>
bet roff
benzer inin</w>
ben zer</w>
ben annte</w>
beliebi gen</w>
bel ge</w>
begin n
be zopas
be wegt</w>
be handl
baslik larini</w>
bas ant</w>
baglanti yi</w>
back gro
b yp
b s</w>
b or</w>
b ly</w>
b lei
b and
band era</w>
b a</w>
b -
ay rilan</w>
av ance</w>
autor ise</w>
automati camente</w>
automati ca</w>
author ization</w>
ausgabepuff ers</w>
ausgabepuff er</w>
aus dr
au to</w>
au g
atur a</w>
attr _
atta che</w>
ato v</w>
asynchron ously</w>
assoc ()</w>
asser tionerror</w>
asoci ativa</w>
ascii- ar
as pects</w>
as p</w>
arsi v
array list</w>
arali k</w>
ar ti
ar rows</w>
ar inin</w>
ar asindaki</w>
ar an
appli cations</w>
appe ars</w>
apari encia</w>
anti slas
anon im
ang les</w>
anex a</w>
ander n</w>
and or</w>
analy ze</w>
analy sis</w>
an si</w>
an os</w>
an fitri
an cil
am m
alphabeti ques</w>
alphab et</w>
almacen ar</w>
alloc ations</w>
allo uee</w>
allo ue</w>
align ed</w>
ali as
algorit ma</w>
alg un
alfan umericos</w>
alf ab
alfab eti
alan li</w>
al lo</w>
al isation</w>
al in
al gebraic</w>
al ama</w>
aktar ilan</w>
aj e</w>
aiushch eisia</w>
ai r</w>
af_ inet</w>
af fix</w>
advan cing</w>
adres i</w>
adi cional</w>
adi cion</w>
accor dingly</w>
accept_list_item _
accept_list_item_ end_
ac counting</w>
ac com
abor ting</w>
ab soliut
ab schnit
ab s
ab normal</w>
a yi</w>
a vi
a verage</w>
a red</w>
a propi
a delante</w>
a [b
_get ()</w>
_ y</w>
_ x</w>
_ veri</w>
_ result</w>
_ r</w>
_ print</w>
_ line</w>
_ field</w>
_ code</w>
[ start</w>
? ?
? =</w>
? )</w>
< <</w>
< !
; rfc</w>
:drb sslsocket</w>
::add ()</w>
: x
: ssl
: name</w>
: heading</w>
: end]</w>
: dependency</w>
: attr</w>
9 65</w>
8 6
86 01</w>
8 -
7 7
3 3
2 e</w>
1 つ</w>
1 00
1 )</w>
00: 00</w>
00: 00:00</w>
0 600</w>
/etc/ passwd</w>
... ,</w>
. sqlerr
. readonly</w>
. gz</w>
. f
. conf</w>
-- the</w>
- rom</w>
- printable</w>
- or-
- map</w>
- fn</w>
(<< kernel
( x</w>
( self</w>
( i</w>
( esto</w>
' '</w>
" trailing"</w>
" suspended
" small"</w>
" runn
" normal"</w>
! )</w>
順 位</w>
隠 し</w>
階 層</w>
除 け</w>
除 き</w>
除 い</w>
開 く</w>
閉 じる</w>
透 明</w>
逆 順</w>
逆 正</w>
逆 双</w>
購 読</w>
調 べ
調べ る</w>
読み 出
詰 め</w>
見 つ</w>
表 し</w>
行 数</w>
色 度</w>
自 身</w>
背 後</w>
経 由</w>
終 え</w>
素 単</w>
紀 元</w>
管 理</w>
秘 密</w>
直 線</w>
白 い
白い 点</w>
発 行</w>
画 面</w>
現 行</w>
独 自</w>
物 理</w>
減 ら</w>
消 費</w>
求 め</w>
正 確</w>
束 縛</w>
本 文</w>
期 限</w>
最 上</w>
書 内</w>
明 示</w>
文 法</w>
文 書内</w>
整 形</w>
排 他</w>
強 度</w>
弱 参</w>
廃 止</w>
専 用</w>
完 了</w>
子 孫</w>
多 角</w>
変 え</w>
報 告</w>
基 準</w>
地 域</w>
囲 み</w>
回 転</w>
向 上</w>
向 こ
向こ う</w>
同 名</w>
各 行</w>
号 化</w>
取 っ</w>
収 集</w>
双 方向</w>
列 型</w>
切 断</w>
再 初</w>
共 に</w>
保 護</w>
促 す</w>
作 ら</w>
余 弦</w>
付 ける</w>
付 い</w>
二 つめ</w>
中 断</w>
不 透</w>
一時 的</w>
一 年
ー フ</w>
ー テ
ーテ ックス</w>
ー エンジン</w>
ロール バー</w>
ローカル ファイル</w>
ログ オン</w>
ロ ケ
レジストリ キー</w>
レ ース</w>
レ オ</w>
ルート ロガー</w>
リン ク
リンク リスト</w>
リ ー
リ ビジ
リビジ ョン</w>
リ ティ</w>
ラ ル</w>
ラ ップ</w>
ラ ッシュ</w>
モノ ラル</w>
モ ー
メニュ ー</w>
メッセ ージオブジェクト</w>
ミュ ーテックス</w>
ミ ラー</w>
マッ チ
マッチ ング</w>
マッ タ</w>
マイ クロ</w>
マ ウ
ポリ シ
ポリシ ー</w>
ポラ リ
ベ ース
ベ ンダー</w>
プロファイ ラ</w>
プロ セス
ブロ ック
ブラウ ザ</w>
フォー マッタ</w>
フェ ッチ</w>
フィールド オフセット</w>
ファイル ストリーム</w>
フ ト</w>
フ ック
ピク セル
ビュ ーエンジン</w>
ビ ル
ヒ ット</w>
ヒ スト
ヒスト グラム</w>
パスワード データベース</w>
パ ート</w>
パ ボリック
バック ス
バックス ラッシュ</w>
バック エンド</w>
バイナリ ダンプ</w>
バイト ストリーム</w>
ハード リンク</w>
ハード ウェ
ハイ パボリック
ナ ー</w>
ドライ ブ</w>
トラ ック</w>
データベース ファイル</w>
データ ポインタ</w>
デバッグ レベル</w>
デバイ ス
デジタ ル
テン ポラリ
テストケ ース</w>
テ クスチャ</w>
チャン ク</w>
チェック ボックス
チェック サ
チェックサ ム</w>
ダイアログ ボックス</w>
タイ マー</w>
ソース ファイル</w>
セ ーフ</w>
セ ット
スライ ス</w>
スト ップ</w>
ステ レオ</w>
スク ロールバー</w>
スキ ーム</w>
スキ ップ</w>
ス ケール</w>
シー ン</w>
シン ボ
サー バー
サンプ リング</w>
サ マ
コンフィ ギ
コンフィギ ュ
グリ フ</w>
クリ エ
クリエ ータ</w>
クエ リー</w>
キャ ッシュ
ガベージ コレクション</w>
ガ ンマ</w>
オペレーティ ングシステム</w>
エージェ ント</w>
ウォッチャ ー</w>
インター プリタ</w>
アン シリアライズ</w>
アプリケー ション
アク セス
アク ション</w>
わ せる</w>
ま っ</w>
へ の</w>
に と
にと って</w>
と り</w>
だ っ</w>
た ど
そ の
そ して</w>
こ み</w>
く つか</w>
い くつか</w>
あら わ</w>
あ わせる</w>
あ っ</w>
√ x)</w>
β er</w>
| x
|x |)</w>
{ #
zust ellen</w>
zusatzli cher</w>
zusam men</w>
zu falli
zon a</w>
znacheni iu</w>
zip- archiv</w>
zi pp
zipp er</w>
zi ff
zi erte</w>
zi elle</w>
zhd enie</w>
zh id
zero es</w>
zeichenk etten</w>
zeichen s</w>
zat em</w>
zaregistrirovan nykh</w>
zanima em
zaman _
zam en
zamen eny</w>
zakodirovan nuiu</w>
zagolov ka</w>
zadan nye</w>
zad an</w>
z uv
zuv or</w>
z or
z ing</w>
yyy y</w>
yv aiushch
yst em</w>
yp es</w>
yaz_ search()</w>
yaz_ present
yaz_present ()</w>
yaz_ item
yaz_item order
yaz_itemorder ()</w>
yaz ma</w>
yan it</w>
yaf_route_ supervar</w>
yaf_dispat cher</w>
yaf_ view
yaf_view _
y tes</w>
y sa</w>
y ou
you )</w>
y ok
yok sa</w>
y linked
ylinked list
ylinkedlist ::
ylinkedlist:: serializ
ylinkedlist::serializ e()</w>
y in
y esini</w>
y enne</w>
y *
xsltproces sor
xsltprocessor ::set
xsltprocessor::set parameter()</w>
xml- !
x y
x ww
xww w
xwww form
xwwwform urlencoded</w>
x ten
xten sion
xtension ()</w>
x ar</w>
wt-tree- 2</w>
wt-tree- 1</w>
wron g</w>
wron g-
write_ var()</w>
write_ close()</w>
write object</w>
write able</w>
wrapp ing</w>
wor t</w>
wo h
win32ole_ typelib</w>
win32ole_ method</w>
wid gets</w>
wi de
wide -string</w>
which ever</w>
wer fen</w>
weiter e</w>
wei ght
weight -
weight- balanced</w>
weak class
weakclass key</w>
weak -
weak- pair</w>
we' re</w>
wat ch
wait pid</w>
w w</w>
w on
w ech
wech sel
wechsel t</w>
vyzyv atsia</w>
vyzo v</w>
vyrazh eniia</w>
vyrazh eniem</w>
vypolni aiushcheisia</w>
vypolni aetsia</w>
vy kliuchaet</w>
vozni k
vosstan avlivaet</w>
void ing</w>
voi ch
vo tre</w>
vo mu</w>
vo k
vok ru
vokru g</w>
vo d
vnut ri</w>
vkhod nykh</w>
visu alisation</w>
visi t</w>
vir gu
virgu le</w>
video stream</w>
vi sib
vi di
vertical e</w>
verti cally</w>
verschi ed
vers able</w>
verrouil le</w>
verknup f
verkh nego</w>
ver t</w>
ver de</w>
ver dad
verdad ero</w>
ver arbeit
veni lir</w>
vector i
vec to
vecto res</w>
vari ance</w>
var sa</w>
var s()</w>
var _array</w>
valu ed</w>
valid nomu</w>
v8js:: regist
v8js::regist ere
v8js::registere xtension()</w>
v y</w>
v voda</w>
v t</w>
v si
v pered</w>
v lozh
vlozh en
v at</w>
v amente</w>
v ad
vad rat
uza k_
uz lu</w>
uz lom</w>
uygulam a_
uygulama_ adi</w>
uy ar
uve z</w>
uve lichi
uvelichi vaet</w>
uve dom
utmp x</w>
ut sa</w>
ust ug
ust u</w>
us eless</w>
us arla</w>
us age
usage :</w>
us adas</w>
us able</w>
url connection
urlconnection 's</w>
ur isti
uristi cally</w>
ur is</w>
ur i's</w>
ur g
up _
unicode data</w>
uni x
uni form</w>
uni form
uniform ly</w>
ungs variable</w>
ung st
under line</w>
undan te</w>
un zip
un used</w>
un registers</w>
un processed</w>
un packs</w>
un masked</w>
un link</w>
un like</w>
un it
un interrup
uninterrup ti
uninterrupti b
uninterruptib lem
uninterruptiblem ask</w>
un idades</w>
un hash</w>
un expected</w>
un evaluated</w>
un dexception</w>
un ction</w>
umgeb ungsvariable</w>
uma bly</w>
um k
ul y</w>
ul d
ukazan noe</w>
uiu sia</w>
uhr zeit</w>
ugolni k</w>
uf ru
uel ve</w>
ud p/
udp/ ip</w>
ud p
udp socket</w>
uc ks</w>
uc d</w>
uber schreiben</w>
u f</w>
u ch
u alpha</w>
types af
typesaf e</w>
typ ere
typere p</w>
typ ef
typef la
typefla g_f
ty con</w>
twi ce</w>
turun de</w>
tur ing</w>
tu vo</w>
tt f</w>
tsv et</w>
tsi k
tsi fro
tselo chislen
trig gers</w>
trig ger</w>
triang ular</w>
tree map</w>
tre es</w>
transparen cy</w>
transform ers</w>
transform ed</w>
transform acion</w>
transac ciones</w>
trad u
track ing</w>
trace point</w>
tra za</w>
tra versable</w>
tra vers</w>
tra p</w>
tra n</w>
tra it
tra e</w>
tr y_
tr uly</w>
ton o</w>
tom doc</w>
tob ase</w>
to- left</w>
to v</w>
to ur</w>
to tal
to po
to key</w>
to i</w>
to da
toda via</w>
titlec ased</w>
titlec ase</w>
tit le
tip u</w>
tion -
timezon e_
timezone_ set()</w>
timestampnonce handler()</w>
time _t</w>
ti x</w>
ti tre</w>
ti po
ti led</w>
ti enen</w>
ti e</w>
ti d</w>
ti cal</w>
thumbn ail</w>
throw to</w>
throw exception</w>
throw _
throw_ ie</w>
thres hol
threshol di
thresholdi mage
thresholdimage ()</w>
thread- local</w>
threa ded</w>
them ename</w>
thand ler
th ing
th igh
thigh light
th i
thi ck
thick ness</w>
th eta</w>
text flus
text -
termi os-
termios- p</w>
ter s
ters bol
tent ative</w>
tekushch emu</w>
tekushch em</w>
tek sto
tec i</w>
te gov</w>
te d
tcl /
tcl/ tk</w>
tanitici sini</w>
tanitici sinda</w>
tanimli ysa</w>
tam bien</w>
tam anos</w>
tain ted</w>
table _set</w>
table _get</w>
tab lo
tab las</w>
tab l
tabl espace</w>
tab -
ta m</w>
ta ima
t ted</w>
t ski
tski plist
tskiplist map</w>
t none</w>
t m</w>
t in
t data</w>
t ard</w>
t ales</w>
t adas</w>
t 64</w>
t 61</w>
t /
t .e</w>
t 's</w>
szhati ia</w>
system exit</w>
synchron ously</w>
synchron ise</w>
syn ce
synce vent</w>
symbo li
sym link</w>
sw f
swf videostream</w>
sw apped</w>
sviazan nye</w>
sut un</w>
suspen ded</w>
suspen de</w>
sushch no
sushchno stei</w>
sure ::
sure:: bind
sure::bind to()</w>
suppres sion</w>
superi eure</w>
sun day</w>
summar y
suc c</w>
sub siguientes</w>
sub mitted</w>
sub ido</w>
sub ()</w>
sty les</w>
strong ly</w>
stro ki
string-or- char</w>
string- like</w>
string inthash</w>
string /
string/ array</w>
stri ps</w>
stri ch
strf time()</w>
streng th</w>
streamwrapper::stream_ open()</w>
stre f</w>
str casec
strcasec mp()</w>
stolbt sov</w>
stoian noe</w>
stoi ashch
stock er</w>
sto re
sti le
stile i</w>
sti ck
steep ness</w>
status callback()</w>
status ?</w>
statisti ku</w>
stati ques</w>
stati ches
stat s.
stat e()</w>
stat #
star t-
stap el</w>
standar d-
stan o
stablec e</w>
st ret
st or</w>
st eu
ssyl ki</w>
ssl_ ciph
ssl_ciph er
ss l-
ss ant</w>
sravn enii</w>
sqlite_ last_error()</w>
sqlite3 result</w>
sql code</w>
splfile object
splfileobject ::set
splfileobject::set max
splfileobject::setmax lin
splfileobject::setmaxlin elen
splfileobject::setmaxlinelen ()</w>
spl dou
spldou bl
spldoubl ylinkedlist::serialize()</w>
spl _
spl_ auto
spl_auto load()</w>
spis ku</w>
spet s
specifi cally</w>
specializ er</w>
speci ale</w>
spe zielle</w>
spar ks</w>
spar k</w>
spac ed</w>
sp ra
sp alte</w>
sozdan ie</w>
soz dat</w>
soy ler</w>
sous- chaine</w>
source- filename</w>
sorg ul
sor ties</w>
sor te</w>
sopor ta</w>
sootvetstvuiushch ikh</w>
sootvetstvuiushch ee</w>
sootvetstvi e</w>
soobshch eniia</w>
son sten</w>
son de
sonde o</w>
som bre
sombre ado</w>
solu tion</w>
solrquery:: se
solrquery::se thighlight
solrquery:: facet
solrquery::facet _
solrquery::facet_ sort_
sokhrani aia</w>
sok ar</w>
soedini aet</w>
socket_ listen
socket_listen ()</w>
soap param</w>
so_ timeout</w>
so_ sn
so_sn d
so_snd buf</w>
so versh
so und</w>
so la</w>
slushaiushch im</w>
slo var</w>
slo va</w>
sli ces</w>
sle ep</w>
skrip ts</w>
ski i</w>
sk uiu</w>
size from
sion noi</w>
sion al
sintak si
single- byte</w>
sincron iza</w>
sin k
sink object</w>
sin am
sin al</w>
simvoliches kuiu</w>
simvo lam
simvolam i</w>
simpli fied</w>
simplem ente</w>
simple dateformat</w>
simpl est</w>
sikisti ril
sikistiril mam
signat ures</w>
signat ure
sig wait
sifres ini</w>
sifrel eme</w>
sibili te</w>
si ruet</w>
si lin
si des</w>
shut s</w>
shad ing()</w>
shablon om</w>
sh ee</w>
sh ap
sh a</w>
sevi yesini</w>
sever idad</w>
setop tion()</w>
set_ state()</w>
set/ get</w>
set- like</w>
set filename</w>
set cookie</w>
set cooki
setcooki e()</w>
session_ write_close()</w>
ses leti
sesleti m</w>
serializable exception</w>
serializ uet</w>
serializ acion</w>
seri es_
seri e</w>
seri al
sent in
sentin el</w>
sent ence</w>
senal ado</w>
sen cil
sen al</w>
semaph or</w>
sema for
semafor o</w>
sem b
selec t()</w>
segu im
seguim iento</w>
secund arios</w>
second aires</w>
secen ek</w>
se urs</w>
se para</w>
se p
se kil
se it
se h
se bi
sebi a</w>
se )</w>
sdo_data objects</w>
sdo_data object</w>
scrol l
schem es</w>
scan f</w>
scal ar-
sc p</w>
sc m</w>
sc ap
scap .ini</w>
say f
sav epath</w>
sav e()</w>
sarmal ay
sam b
samb lar</w>
sahi p</w>
sa fe
sa de
sade ce</w>
s_ family</w>
s[start :end]</w>
s[ i
s' y</w>
s mo
s les
s ke
s funktion</w>
s cre
s ami</w>
s 1</w>
s "</w>
runkit_ sand
ruiushch ii</w>
rubygem s_
ru z
rrd graph
rrdgraph ::__construct()</w>
row s()</w>
row _number</w>
rov ku</w>
rot ating</w>
rot 13</w>
root _
root_ device</w>
ro vok</w>
ro om</w>
right- to-left</w>
right- justified</w>
right- associative</w>
riad u</w>
riad ov</w>
rezult atov</w>
rezult at
rezultat y</w>
revi erte</w>
rever sing</w>
rev ents</w>
retour nees</w>
retorn ados</w>
ret ras
resum e()</w>
result _error()</w>
result -set</w>
restric ciones</w>
resta ura</w>
respon ses</w>
resim deki</w>
res uelve</w>
res mini</w>
res el</w>
require_ once</w>
requi re
request -
requ es
represent ations</w>
represent ar</w>
represent an</w>
represent ada</w>
repras enti
repozitori ia</w>
repli cation</w>
reper e</w>
repe ating</w>
rep rend</w>
ren in</w>
ren gi</w>
ren e
ren du</w>
ren dimi
rendimi ento</w>
ren ders</w>
ren cont
remarc ados</w>
remar cado</w>
relation ship</w>
reihen fol
reihenfol ge</w>
registri ruet</w>
regi ona</w>
reg les</w>
reflexion ada</w>
reflec ting</w>
referen cias</w>
ref let
red stvenno</w>
recursivetree iterator</w>
recursivetree iterator::rewind()</w>
recursiveiterator iterator</w>
recuper ation</w>
recor te</w>
recor d_
recor d
recogn ize</w>
rech er
recei ving</w>
reason s</w>
rean uda</w>
readgz file()</w>
re write_var()</w>
re write</w>
re vis
re sizes</w>
re positionne</w>
re plic
re mapping</w>
re loaded</w>
re interrupt</w>
re hash</w>
re fi
re don
re display</w>
re constru
re code</w>
re alloc
re -</w>
rc 4</w>
razlich nykh</w>
raz nit
ran s
rais on</w>
radius_get_ attr()</w>
radiana kh
radi us_
rabot u</w>
raboch ei</w>
ra z</w>
r uck
r ts</w>
r ror</w>
r m</w>
r limit</w>
r find</w>
r ature</w>
r and</w>
r \n</w>
quickhash stringinthash</w>
qui et</w>
quel ques</w>
quad rature</w>
qu' au</w>
qu its</w>
qu ando</w>
qu al</w>
q? pr
q?pr =
q?pr= fc
q?pr=fc fun
q?pr=fcfun g_f
q?pr=fcfung_f =
q?pr=fcfung_f= f
q?pr=fcfung_f=f cr
q?pr=fcfung_f=fcr ?=</w>
q l-
q f</w>
q bytes</w>
pw ww</w>
pw l</w>
put char</w>
puff er</w>
publi ca</w>
publi c_
pu b
pub _key_id</w>
pseu do</w>
ps_ shading()</w>
proxim a</w>
proval a</w>
protocol o</w>
prote gido</w>
propi o</w>
propi et
propiet ario</w>
propag ate</w>
promp ts</w>
programm ing</w>
program m</w>
profi lage</w>
produc er</w>
process_ id</w>
procedimi ento</w>
probl ems</w>
prob leme</w>
prob lem</w>
pro t_
priv ada</w>
prisvai vaet</w>
priorit etom</w>
prior ity-
print f()</w>
princi pal
prin ad
prinad le
prinadle zhit</w>
pri vee</w>
pri soedin
pri amo
previ a</w>
prev -
pres umably</w>
prequ est</w>
prep end</w>
predstavliaiushch ii</w>
predeces sor</w>
prec 2</w>
pre duce</w>
pre du
predu pre
potom kov</w>
poto ko
postgres ql-
posledovatel nosti</w>
posled niuiu</w>
posled nim</w>
posi ti
posi ciona</w>
pos redstvenno</w>
por tee</w>
pop en</w>
polzovatelski kh</w>
polynom i
polynomi als</w>
polozh eniia</w>
pole z
pol ls</w>
pois ka</w>
poin t-
podri an</w>
podri a</w>
podderzh iv
pod kliucha
podkliucha etsia</w>
po uvez</w>
po stoiannoe</w>
po p-
po meshchaet</w>
po le</w>
po k
po d</w>
plem ento</w>
plat ziert</w>
place hol
placehol der</w>
pkcs 12</w>
pipel ine</w>
piece wise</w>
pi co
pico sec</w>
phar .readonly</w>
ph as
pg_ result_error()</w>
pg_ last_error()</w>
peti t</w>
persist entes</w>
perm ute</w>
perm itted</w>
peredan nuiu</w>
pere opredelit</w>
pere dav
pere dan</w>
per mit</w>
pequ eno</w>
pen dientes</w>
pe eks</w>
path parser</w>
path info()</w>
path ed</w>
path 2</w>
path 1</w>
pat che</w>
passwor d_
password_ hash
password_hash ()</w>
pas ar</w>
parta ge</w>
parser s</w>
paro la</w>
parcas ini</w>
parcas i</w>
parametr ami</w>
paramet ern</w>
param _
paralle le</w>
paral el
paralel o</w>
paragraph _
par sera</w>
par ci
pal itre</w>
pagin as</w>
pagin acion</w>
package -
pack ages</w>
pa res</w>
pa is</w>
pa in
pain ting</w>
p r</w>
p prof_
p one</w>
p ob
p ente</w>
p em
p ela</w>
p close()</w>
p c</w>
p .e
p.e j</w>
p ()</w>
oznite ligini</w>
oznite ligin</w>
ozkaynag ini</w>
ozet ini</w>
ozel ligin</w>
ozel li
oz eti</w>
oz dev
ozdev in
ozdevin imli</w>
over taking</w>
over head</w>
ov uiu</w>
ov len
output_ add_
output_add_ rewrite_var()</w>
out_ charset</w>
otur umu</w>
otpravlen y</w>
other_ str</w>
ot kliuchaet</w>
ot del
osushchestv liaet</w>
ostat ok</w>
osno van
os cur
orneg in</w>
organ iz
ord n
orac le-
or ization</w>
optim ized</w>
opt val</w>
opt sional
opredeli aemyi</w>
opredelen nye</w>
oprede len</w>
opisan iia</w>
oper ates</w>
oper andos</w>
opa que</w>
one- line</w>
one- character</w>
once ki</w>
on/ off</w>
olustur up</w>
ol ustug
ol dugu</w>
ol -
okuy up</w>
od nim</w>
oci_ result()</w>
oci_ fetch()</w>
oci_ define_
oci_define_ by_name()</w>
oci 8</w>
obsolet e-
obshch ii</w>
obrat nogo</w>
obo znach
obo ikh</w>
objectstream field</w>
obj s</w>
obekt y</w>
obek te</w>
ob teni
ob tem</w>
ob e</w>
oauthprovi der</w>
o zhid
o vom</w>
o li
o go</w>
o chis
numeris chen</w>
numeri ques</w>
number format</w>
num py</w>
nuev as</w>
notifi es</w>
not serializableexception</w>
not fo
notfo undexception</w>
nosti u</w>
normaliz es</w>
non-over loaded</w>
non- default</w>
nomme e</w>
nomer om</w>
node 's</w>
no vogo</w>
no den
noden ame</w>
no ch</w>
nit i</w>
ni kh</w>
ni ch
nf k
next _
new_ value</w>
new er</w>
neuron es</w>
neur one</w>
net scape</w>
net group</w>
neg ativo</w>
necessa ire</w>
ne posredstvenno</w>
navig ateur</w>
naveg ador</w>
nastro ek</w>
nar row
name 1</w>
nam et
namet uple</w>
nai bolsh
nab ora</w>
na k
n ten</w>
n ex
n ete</w>
n as
n arg-
narg- yi</w>
n ada</w>
mysql_ connection</w>
my av
myav g</w>
mutable big
must er</w>
multipli cation</w>
multi plied</w>
multi plic
multi pathed</w>
multi dimensional</w>
multi conjunto</w>
ms- chap
ms sql_connect()</w>
mq series_
moun ts</w>
month dates</w>
mongocommand cursor</w>
mongocollection:: aggreg
mog li
mogli cht</w>
modul ei</w>
modu lia</w>
modific a</w>
modifi katsii</w>
modifi cation
mod_ include</w>
mo yenne</w>
mo use-
mo ins</w>
mk time()</w>
mix in</w>
miti an</w>
mit ting</w>
minim a</w>
min uscul
min imal</w>
mime -
micro sec</w>
mi li
mi kt
mi c</w>
metri cas</w>
method name</w>
metho d's</w>
metaph one</w>
met h</w>
messa ges
messages ?</w>
messa ge
mer k
memor y
memo ized</w>
memo ization</w>
memcached::getdelayed ()</w>
memcached::get multi()</w>
memcached:: setoption()</w>
memcached:: prepend()</w>
memcached:: cas
memcached:: *
memcached::* bykey()</w>
megab ytes</w>
mecanis mo</w>
me si
me kan
mekan iz
may oria</w>
maxdb_ connect_
math context</w>
maski ert</w>
mark ers</w>
mark -
mar co</w>
manipul ador</w>
man gled</w>
man ejo</w>
main _str</w>
magic_quotes_ runtime</w>
macro expand
ma yi</w>
ma r</w>
ma preduce</w>
ma -
m yp
m x
m us
m umk
m ult</w>
m on</w>
m ine</w>
m ido</w>
lus h</w>
luc ene</w>
lua_state *)</w>
lua_ tnone</w>
lower -case</w>
low estorder</w>
lorsqu' une</w>
loop ()</w>
lokal nyi</w>
logarith mus</w>
log ari
logari f
logarif m</w>
lock _get
local iz
load time</w>
load _path</w>
lo st</w>
lo k
liubo i</w>
liu by
list et</w>
list ens</w>
limiti terator</w>
limit ()</w>
lik ely</w>
lig ine</w>
lie gen
lib name</w>
li za</w>
li xo</w>
li ving</w>
li ts</w>
li fo</w>
li ees</w>
li ding</w>
lexico graphically</w>
lev en
let ras</w>
let o
ler le</w>
ler inde</w>
leng th
leg ar</w>
lea f</w>
le k
le ere</w>
le aves</w>
lay ici</w>
lay an</w>
latin -1</w>
lat ter</w>
lar indan</w>
lar dan</w>
lanz o</w>
lanz ada</w>
la yici
l'ori gine</w>
l' utiliser</w>
l' uid</w>
l' operation</w>
l' opacite</w>
l' inten
l' environnement</w>
l' enregistrement</w>
l' endroit</w>
l' ecriture</w>
l' eco
l' appelant</w>
l' annotation</w>
l' an
l' acces</w>
l y_
l un</w>
l st</w>
l len
l f</w>
l color</w>
l c_
lc_ c
lc_c type</w>
kutuphan e</w>
kumes i</w>
kum esini</w>
kum e</w>
kullan imi</w>
ku resel</w>
kotor uiu</w>
kopf zeile</w>
kop iruet</w>
kop ii</w>
kop i
konfigur atsii</w>
kon teksta</w>
kon struk
kompili ert</w>
kolon ki</w>
kodlam aya</w>
kodlam ali</w>
kodi rovok</w>
kodi ert</w>
kod unun</w>
ko du</w>
kno wn
kliuch ei</w>
klient am</w>
klasso v</w>
kim lik</w>
kill cursor</w>
kil ls</w>
kh es
kh ,</w>
key ?</w>
key '</w>
ke in</w>
kator ov</w>
karakter leri</w>
karakter ler</w>
ka ko
k yn
k vadrat
k ismini</w>
k ex
kex ts</w>
k endi
k av
kav ych
k ar
k ab
json _encode()</w>
jo int</w>
jo ins</w>
jar file</w>
j unction</w>
j mx</w>
j d</w>
j c</w>
j ap
j an</w>
iz in</w>
iterator:: next()</w>
iterator:: append()</w>
iter tools</w>
iter monthdates</w>
iter adores</w>
itel no</w>
it os</w>
ist e
issu ing</w>
iso-885 9</w>
isle ve</w>
isim li</w>
is ystem</w>
is y</w>
is sus</w>
is seur</w>
is inin</w>
is eq</w>
is chislen
irb _
ipv6 _
io #
invo que</w>
inverti das</w>
inver se
introduc ed</w>
intern et-
inter pret</w>
inter cep
inter action</w>
inte rest</w>
inte iro</w>
inte g
int ent</w>
install_ cmd</w>
inser tion</w>
inser t-
inse rer</w>
input ()</w>
initializ er</w>
initi ale</w>
inherit ed</w>
inher its</w>
ingres_ fetch_row()</w>
ingres_ fetch_array()</w>
ing ",</w>
informat siei</w>
inferi or</w>
inf late</w>
indic ando</w>
indi quee</w>
index prufung</w>
index _
index_ or_name</w>
inde m</w>
incre ase</w>
inclu ye</w>
inclu sif</w>
inclu ir</w>
inclu idos</w>
inclu ido</w>
inclu de_
include_ once</w>
in_ charset</w>
in visible</w>
in version</w>
in valide</w>
in te</w>
in sufficient</w>
in san
in qui
in fix</w>
in exact</w>
in do</w>
imz alama</w>
impor ts</w>
impor ti
impli es</w>
impl typeflag_f
imen o
imagick:: thresholdimage()</w>
imagecoloralloc ate
ima gec
imagec re
im plo
im leci</w>
im g</w>
illeg al</w>
ilisk isini</w>
ileti lerin</w>
il le</w>
il ing</w>
ih nen</w>
ig keit</w>
ifade yi</w>
identifikator u</w>
identifi er
identifi cation</w>
identifi ca</w>
ide ally</w>
ide al</w>
id3 -
id3- te
icon v_
ic amente</w>
ic a</w>
ib tool</w>
i sol
i ki
i k</w>
i is</w>
i ales</w>
i ]</w>
i ,</w>
hyper link</w>
htt pwww</w>
href httpwww</w>
href datainput</w>
hoo ks</w>
hoo k-
ho le</w>
ho ch
hiperbo lica</w>
high light</w>
hex _string</w>
hex -encoded</w>
hermit e_
hermite_ e</w>
her mitian</w>
he uristically</w>
has hes</w>
hand y</w>
hand le
han delt</w>
hal f-
half- open</w>
hab er</w>
ha rek
ha m</w>
h ue</w>
h t</w>
h s</w>
h eri
h em
hem en</w>
h ech
hech os</w>
h d
h aria</w>
h ang
h amm
hamm ing</w>
h ad</w>
gz get
gun luk</w>
gu venilir</w>
gruppen -id</w>
gregorian change</w>
gr and</w>
gosterim ini</w>
go da</w>
go als</w>
gm t)</w>
glob als</w>
gird inin</w>
gettimeof day
getimage sizefrom
get_ defin
get_defin ed_
get_defined_ vars()</w>
get instance</w>
get gregorianchange</w>
get errno</w>
get entry</w>
gest ar
gestar tet</w>
ges et
geset zte</w>
ger a
gera de</w>
geoip_ coun
geoip_coun try_
geoff nete</w>
generic declaration</w>
gener ally</w>
gen eres</w>
gen der</w>
gen au
genau igkeit</w>
gem _
geles enen</w>
gel er</w>
gel en</w>
gearmanclient::set statuscallback()</w>
gearman worker</w>
ge re
gaus s-
gath ers</w>
gar ba
garba ge-
gab ar
gabar it</w>
ga ther</w>
g zi
g ung</w>
g pc</w>
g it
fut ures</w>
funktsi iakh</w>
func tor</w>
fun dam
fundam ent
fundament al</w>
fun ciona</w>
full _name</w>
fuh ren</w>
fu eron</w>
fu er
ftp- serveru</w>
front base-
from key</w>
from _
from -
fre etype</w>
fram e's</w>
fragment os</w>
fra gen</w>
fr inge</w>
fr ase</w>
forwar d-
formate ada</w>
forma s</w>
forma l</w>
form ant</w>
foreign- data</w>
for tran</w>
for te</w>
for der
fon ovom</w>
foc us</w>
flu x
flo tante</w>
flo or</w>
fli p</w>
fix ity</w>
finish ()</w>
finis h</w>
find- file</w>
filtro s</w>
filter type</w>
filesystem iterator::
filen o</w>
file_ stat#
file- name</w>
file- like</w>
file info()</w>
fil tered</w>
fil lcolor</w>
fil des</w>
fet cher</w>
fest zustellen</w>
fest gel
fehler code</w>
fehler behandl
feat ures</w>
fc nt
fbsql_fetch_ row()</w>
far k</w>
far b
farb ver
fann_get_cascade_ output_
fan n</w>
failo vogo</w>
fail _
fail_ limit()</w>
factori elle</w>
fact orization</w>
facet.date. gap</w>
facet. date</w>
fac ette</w>
fabri que</w>
f stream</w>
f p</w>
f mt</w>
f lat
f az
extract ed</w>
extra er</w>
extern es</w>
extern al-
exten sion
expor tiert</w>
expor t
exponenti ation</w>
expi ry</w>
expi re</w>
expi ration</w>
exist entes</w>
exist en</w>
ex posed</w>
ex pos
ex pli
ex plan
ex if</w>
ex change</w>
ex ce
exce to</w>
evid le</w>
evi o</w>
eventbuffer:: read()</w>
event_ base_
ev stat</w>
ev ren
ev fork</w>
ev child</w>
et en
eten du</w>
establec e/
establece/ obtiene</w>
especifi cos</w>
espec iales</w>
esp ei
escri to</w>
escap ing</w>
es ki
es /
error- handler</w>
ergebnis se</w>
er ung
er o
er moglicht</w>
er lo</w>
er ases</w>
er ase</w>
equality- -
equ i
eq ?</w>
ephem eron</w>
envi ado</w>
envelop e</w>
enumer ated</w>
entr ante</w>
enti dades</w>
enth alt
ent werfen</w>
ent ering</w>
ent ar</w>
eno ugh</w>
enlaz ada</w>
enlaz a</w>
enhan ces</w>
engin e's</w>
eng an
end ant</w>
encryp t()</w>
enci ma</w>
enable d?</w>
enab les
en samblar</w>
en nom</w>
en in</w>
en gel
en closed</w>
en chant</w>
en b
enb sp</w>
emple ada</w>
emple a</w>
empez ando</w>
emp ties</w>
emp lo
emo go</w>
emet tre</w>
embed ding</w>
emac s-
ema ia</w>
em u
em phas
em itted</w>
ell t</w>
eli u</w>
eli gible</w>
elev el</w>
elementsby tagname</w>
element am</w>
eleman larini</w>
ele man</w>
el los</w>
el ine</w>
el er
el em</w>
eio_ poll()</w>
eing abe
ein ge
eigen vectors</w>
eigen scha
ei ght
eg al</w>
effek tive</w>
effek tiv
effectu ee</w>
effac er</w>
ef ec
edit ing</w>
edi l
ed itable</w>
ed er
ecrit es</w>
ec es
eas ily</w>
e yi</w>
e ux</w>
e res
e ps</w>
e of
e ?</w>
e #
durdur ur</w>
dur um
dur o</w>
dur ant</w>
dum my</w>
drugo go</w>
dre i</w>
dra wn</w>
dr m</w>
down loads</w>
doub le-
dosy asi</w>
don ustur
don du
domdocument type</w>
domdocument ::get
dom text</w>
dom list</w>
dom en</w>
dokument ov</w>
dokum ents</w>
dogrulam asi</w>
dogr ular</w>
does nt</w>
dob lemente</w>
do tted</w>
do t</w>
do sti
dn s-
dlin oi</w>
dizis inin</w>
dizges indeki</w>
dizges inde</w>
dizge siyle</w>
diz il
diz gel
distor sion</w>
disp laces</w>
dis posal</w>
dis p</w>
dis junction</w>
dis cre
discre tionary</w>
dis connect</w>
director ios</w>
direc to</w>
direc tiva</w>
direc te</w>
direc ciones</w>
din am
dimen sion</w>
diff ers</w>
dies en</w>
diapaz on</w>
di ren
di gi
di es</w>
dezim al
devolvi endo</w>
dev ant</w>
det al
detal les</w>
destek lenen</w>
desplaz ando</w>
deskriptor om</w>
desi ati
desiati ch
deserializ a</w>
desc rit
des sin
der leme</w>
der -encoded</w>
deprec ation</w>
dependi endo</w>
den y</w>
deman dee</w>
delimit ed</w>
delet em
delet e_
delet e
deleg ation</w>
degistir geler</w>
degisk eni</w>
degisikli k</w>
degi l</w>
deger in</w>
default_ timezone_set()</w>
defaul t-
def n</w>
decre ase</w>
decor ator</w>
decompres ses</w>
deco defloat</w>
declar ing</w>
declar ado</w>
decimal e</w>
debug-on- error</w>
dead "</w>
de v</w>
de tail</w>
de ref</w>
de connecte</w>
de compression</w>
de cal
de ca</w>
de ca
deca y</w>
de activates</w>
de a</w>
dbx_ sort()</w>
db path</w>
davran ir</w>
datetime zone</w>
datei deskriptor</w>
datei -
date_ default_timezone_set()</w>
date isystem</w>
datat ypes</w>
d- table</w>
d- properties</w>
d- name</w>
d' interpolation</w>
d' echantillonnage</w>
d' ech
d' archives</w>
d voich
d t
d sn</w>
d ruby</w>
d or
d h</w>
d f</w>
d eni
cy cles</w>
cuy o</w>
cut over</w>
curl_ multi</w>
cur lm</w>
cubrid_ get_
cubrid_ error_
cualqui era</w>
cu le</w>
cu anti
cuanti a</w>
ct x</w>
cross ref</w>
cro ak</w>
cre o</w>
cre d
cre ator</w>
cozumley icinin</w>
coun ter
cou ches</w>
correspondan ce</w>
correspon dientes</w>
correc to</w>
correc tement</w>
correc tamente</w>
correc ta</w>
cor ps</w>
conveni ent</w>
context -
conten us</w>
constru ir</w>
consist ent</w>
consi ders</w>
connection _id</w>
connec ting</w>
conn aitre</w>
concurren tskiplistmap</w>
concat ena</w>
con tour</w>
con formant</w>
con fir
comprob acion</w>
compri sed</w>
compos ite
complement ary</w>
compl eta</w>
compil ing</w>
comparison --
compar able</w>
comp one</w>
comp act</w>
communic ations</w>
comment aires</w>
command processor</w>
combin acion</w>
com plemento</w>
com object</w>
com es</w>
com e</w>
column _
color ()</w>
collec ts</w>
collec t()</w>
col liding</w>
col ap
codific aciones</w>
co zer</w>
co ut
co up
co l</w>
co k
clo sure::bindto()</w>
client _
cle ared</w>
cle ans</w>
class notfoundexception</w>
cl uck</w>
cl s</w>
cl ar
circul o</w>
circ undante</w>
cik ari
ci erre</w>
chron o
choo ses</w>
choo se</w>
chis le</w>
chi v
chi e</w>
char sequence</w>
ch mark</w>
ch ino
ch ac
cer tdata</w>
cent er</w>
cel les</w>
cel da</w>
ce ux</w>
ce iling</w>
cc c.
categ oria</w>
cas '
cas' ing</w>
caract eres
car reg
callback funktion</w>
call _
call -
calcul ados</w>
calcu l</w>
cai ro</w>
cad ores</w>
ca using</w>
ca sted</w>
c w
c ut</w>
c pus
c mp
c lock_get
c f
c entro</w>
c break</w>
c bc</w>
c ando</w>
byp as
by tes
button 's</w>
bukven nye</w>
buffer ise</w>
buffer ()</w>
buferiz atsiiu</w>
bu zones</w>
bru to</w>
brow scap.ini</w>
broad cast</w>
brea king</w>
br utes</w>
bor ro
boo st
bo ut
bo sal
bo ols</w>
bo m
bo ler</w>
bo lee</w>
bn 2</w>
bloque os</w>
bloque a</w>
block ()</w>
bloc s</w>
ble u</w>
bit _
bit_ fail_limit()</w>
bit -
bir ini</w>
bilgi sini</w>
bilgi leri</w>
bil dirir</w>
bil d</w>
biblioth equ
bi endo</w>
bezeich ner</w>
bet ra
bestimm te</w>
beschrieb en</w>
ben enn
ben chmark</w>
belleg i</w>
belir teci</w>
belge de</w>
be zeichn
be im</w>
be i
be enden</w>
bb b.
bbb. ccc.
baz o
base64 -
base- 64</w>
base- 2</w>
base- 10</w>
bas lik</w>
bas ka</w>
bas enbsp</w>
bas elevel</w>
bas ar</w>
backgro und
b en</w>
b cc</w>
b au
b arri
b arg
b are</w>
b al
b ad
az ul</w>
aw are</w>
auto- commit</w>
ausge fuhrten</w>
ausge fuhrt</w>
ausdr ucks</w>
aus ente</w>
aum ento</w>
aum entar</w>
au βer</w>
attend re</w>
att list</w>
atribut ov</w>
ato mic
at en</w>
at e-
asyn c</w>
assum e</w>
assozi iert</w>
assotsiativ nogo</w>
associ es</w>
asser tions</w>
asser t</w>
asser t()</w>
asin dan</w>
asign ada</w>
asign acion</w>
as n
as inin</w>
as in</w>
as i
arri ve</w>
arrayobject:: natsort</w>
array _
argument y</w>
arg- ks</w>
arg p</w>
arg /2</w>
arc tangent</w>
ar row
ar ranges</w>
ar r</w>
appropri ately</w>
append iterator::append()</w>
appel ees</w>
aplic ar</w>
apari ciones</w>
ap prox
ap a
any method</w>
anfitri on</w>
ando se</w>
and es</w>
and 48</w>
anch ors</w>
analy ser</w>
anadi dos</w>
an t
an sonsten</w>
an nul
an merk
an geben</w>
ameli o
alphabeti cally</w>
ali m</w>
ali gn</w>
ali ce</w>
alg un</w>
alfabeti cos</w>
aler tes</w>
al though</w>
al tet</w>
al ters</w>
al one</w>
al go</w>
al erte</w>
al ement</w>
al cance</w>
akim a</w>
ajust es</w>
aiushch ii</w>
aiocb 64</w>
ai ff</w>
aggreg ation</w>
ag rup
ag reg
affec t</w>
af ter
aem uiu</w>
aem oi</w>
adverti se</w>
adjust ing</w>
adjun tos</w>
addres s_family</w>
adap tive</w>
adap ta
ad qui
ad obe</w>
ad min
actualiz acion</w>
activ ate</w>
acti ves</w>
act or</w>
ach e</w>
accumul ated</w>
acces ses</w>
accept_list_ start_
accept_ paragraph_
acce sible</w>
ac y</w>
ac ut
ac ilmis</w>
ac cum
ac comp
ac ag
absol u</w>
abschnit t</w>
able ()</w>
abil mesini</w>
abil ecek</w>
abfrage ergebnisses</w>
abbrevi ation</w>
abbrev s</w>
abbrev -
abaj o</w>
ab s</w>
ab revi
ab n</w>
ab eces
aa a.
aaa. bbb.ccc.
a xe</w>
a way</w>
a voiding</w>
a pop</w>
a cos</w>
a cor
a chi
a ),</w>
__ set_state()</w>
_ un
_ time</w>
_ s</w>
_ row</w>
_ query</w>
_ node</w>
_ method</w>
_ error</w>
_ entry</w>
_ dosya</w>
_ data
\n )</w>
\ r\n</w>
[ $
[$ n]</w>
@ setfilename</w>
? php</w>
=?iso-8859-1? q?pr=fcfung_f=fcr?=</w>
:x pathparser</w>
:c ]</w>
:: popen
:: '</w>
: status</w>
: stat</w>
: source</w>
: parser</w>
: nodes</w>
: installer</w>
: generator</w>
: commandprocessor</w>
: -
:- ))</w>
77 7</w>
7 61</w>
64 _t</w>
64 -bit</w>
64 ()</w>
6. 4.
6.4. 4</w>
5. 4.
47 13</w>
4 4
3 9</w>
3 761</w>
3 6</w>
3 1</w>
3 0
30 2</w>
2 d</w>
2 965</w>
2 045</w>
2 )</w>
16 -bit</w>
1. 1970</w>
1. 1.1970</w>
1. 0</w>
1 d-table</w>
1 ]</w>
1 5</w>
04 7</w>
0 777</w>
0 -1
/etc/ protocols</w>
/ value</w>
/ encoding</w>
/ decoding</w>
/ cosh</w>
.sqlerr d</w>
.f l</w>
... )</w>
. tar
. mime</w>
. last</w>
. exc</w>
. cl
- valeur</w>
- tag</w>
- ptr</w>
- parameter</w>
- objekt</w>
- datei</w>
- c</w>
- based</w>
- arg/2</w>
+ @
+ 1
* x</w>
* termios-p</w>
* t</w>
* n
* envz</w>
* argz_len</w>
) 、</w>
( y</w>
( \n)</w>
( -
( ):</w>
' ::'</w>
' :
& nbsp
& amp</w>
$ _</w>
$ !</w>
# to_
# #</w>
"suspended ",</w>
"runn ing",</w>
" w
" dead"</w>
高 速</w>
高 い</w>
非 同</w>
離 し</w>
集 計</w>
長 く</w>
選 び</w>
遠 隔</w>
過 ぎ</w>
進 ん</w>
通 信</w>
透 過</w>
逆 方</w>
追 跡</w>
近 い</w>
込 ま</w>
距 離</w>
許 容</w>
記 法</w>
補 間</w>
行 分</w>
色 相</w>
色 ペア</w>
自 然</w>
自 動
続 け</w>
続 く</w>
結 果
経 過</w>
素 数</w>
符 号化</w>
空 行</w>
稼 動</w>
示 的</w>
示 さ</w>
直 後</w>
直 列</w>
疑 似</w>
画 像
生 じ</w>
理 由</w>
特 別</w>
無 限</w>
無 言</w>
無 い</w>
漸 増</w>
渡 す</w>
添 付</w>
深 度</w>
派 生</w>
汎 用</w>
比 例</w>
残 り</w>
正 常</w>
機 構</w>
権 限</w>
標 系</w>
様 々</w>
楕 円</w>
検 査</w>
枠 線</w>
来 る</w>
有 用</w>
最 適</w>
最 近</w>
最 小
最小 値</w>
書き込 ん</w>
普 通</w>
明 示的</w>
日 数</w>
擬 似</w>
捨 て</w>
捕 捉</w>
振 舞</w>
指 令</w>
指 す
持 た</w>
扱 い</w>
打 鍵</w>
待 ち
影 響</w>
引 き
座 標系</w>
幅 や
幅や 高さ</w>
差 分</w>
工 学</w>
巡 回</w>
小 さい</w>
字 揃</w>
子 要</w>
大 量</w>
多 次</w>
基 本</w>
埋 め</w>
型 宣</w>
呼び出 し
呼び出し 元</w>
呼 出</w>
周 り</w>
向 探</w>
向 け</w>
向 く
向く 形</w>
向 き</w>
名 づけ</w>
同じ 値</w>
同じ く</w>
各 要</w>
可 視</w>
可 変</w>
古 い</w>
取り 出す</w>
双 曲</w>
双 方</w>
区 切</w>
化 方</w>
化 文</w>
加 算</w>
割 子</w>
剰 余</w>
制 約</w>
別 名</w>
初 期</w>
列 版</w>
切り 離し</w>
分 離</w>
分 読</w>
分 解</w>
分 割子</w>
再 描</w>
再 定</w>
公 開</w>
兄 弟</w>
元 効</w>
修飾 子</w>
係 数</w>
使 え</w>
作 られる</w>
何 ら</w>
伸 長</w>
付 加</w>
仕 様</w>
人 間</w>
予 め</w>
不 透明</w>
不 能</w>
下 位</w>
下 ろ</w>
上 記</w>
三 次元</w>
三 次</w>
一時 ファイル</w>
一 様</w>
一 方</w>
一 つめ</w>
ー ン
ー ション</w>
ン ディング
ン コ</w>
ワイ ド</w>
ワ ーク</w>
ローカル システム</w>
ロケ ール
ロ ギ
ロギ ングシステム</w>
レー ション
レスポンス ヘッダ</w>
レス ファ
レスファ ミリ</w>
ルー プ
ルー ティ
ル ファイル</w>
ル テーブル</w>
ル クオート</w>
リング レート</w>
リモート サーバー</w>
リクエスト ヘッダ</w>
リクエスト グループ</w>
リ フ
リフ レクション</w>
ラ ブル</w>
ラ コールバック</w>
ラ イン
ユニ コード</w>
ュ ー
モ ード
メモリ バッファ</w>
メッセージ ダイジェスト</w>
メ トリ</w>
メ トリ
マッ ト
マット チャネル</w>
マ ージ
マ ー
ポ ット</w>
ペ ン</w>
ベース ライン</w>
ベ ータ</w>
ベ ク
ヘル プ
ヘッ ダ
ヘッダ フィールド</w>
プロセス グループ</w>
プログレス バー</w>
プログラ マ</w>
プロ ード</w>
プロ セ
プロセ ッ
プロセッ サ</w>
プラ グ
プラグ イン</w>
プ レー
プ レ
プ ライン</w>
ブロッキ ング</w>
ブ モード</w>
フレーム レコード</w>
フィル タ
フィ ックス</w>
ファク トリー</w>
ファイル パス</w>
ファイル サイズ</w>
ピ ア</w>
ビ デ
ヒ ープ</w>
ヒ ストリ
パ ネ
パ ッシ
パッシ ブモード</w>
パ ケ
パケ ット</w>
バイト データ</w>
バイト オー
バイトオー ダ</w>
ハード リミット</w>
ハンド ラコールバック</w>
ハ ンコ</w>
ノ イ
ノイ ジ
ノイジ ー</w>
ドキュメント コメント</w>
ト ル
ト ップ
データベース サーバー</w>
データ バッファ</w>
データ ストリーム</w>
デジタル フィルタ</w>
デ ストラクタ</w>
デ ィ</w>
テンポラリ ファイル</w>
テキスト マネージャ</w>
テキスト オブジェクト</w>
ッ プロード</w>
チェックボックス ツリー</w>
タート ル
ター ゲ
タイム ゾ
タイムゾ ーン</w>
ソケット オブジェクト</w>
ソ フ
セット アップ</w>
セ グ
セグ メント</w>
スレッド セーフ</w>
ストリーム ラッパー</w>
ストリーム オブジェクト</w>
スタック フレーム</w>
ス ポット</w>
ス キャ
ジェ ット</w>
ジ ャ
ジ オ
ジオ メトリ</w>
シンボ ルテーブル</w>
シン グ
シング ルクオート</w>
シャ ープ</w>
システム ログ</w>
システム リソース</w>
シグナ ル
シェ ル
シ ョ
シ フト</w>
サービス プロバイダ</w>
サンプ リングレート</w>
サマ リー</w>
サブ ディレクトリ</w>
サブ グループ</w>
サブ キー</w>
サ ウンド
コンフィギュ レーション</w>
コン トラ
コン テキストマネージャ</w>
コマンド ライン
コ ール
グレ ー</w>
グ ループ
ク ト
キュー マネージャ</w>
キャン セル</w>
キャ ラクタ</w>
カウ ン
カ ー</w>
エンコー ダ</w>
エン ベ
ウォッチャ ーオブジェクト</w>
ウィ ジェット</w>
インターネット ホスト</w>
インター レース</w>
イメ ージ
イテ ラブル</w>
イ ト</w>
アーカイブ ファイル</w>
アン カー</w>
アプリケーション プログラム</w>
アド レスファミリ</w>
アクセス モード</w>
ア ーク
ア ップロード</w>
ア ップ
ら ば</w>
やす い</w>
も っ</w>
も ち
もち い</w>
も う</w>
ま る</w>
ま り</w>
ま と
ほ ぼ</w>
ほ う</w>
ば か
は め</w>
は い
はい け</w>
のい ずれか</w>
の か</w>
に対応 付ける</w>
な らば</w>
な もの</w>
と る</w>
と その</w>
で 返さ</w>
つ ぶ</w>
た だけ</w>
た く</w>
そ こ</w>
そ こ
す れ</w>
か け</w>
お こ</w>
い き</w>
あら わす</w>
、 '</w>
β i
βi g</w>
zusammen han
zuruck geben</w>
zugriffs rech
zugriffsrech te</w>
zufalls zahlen
zu ordn
zu ge
zu fuhren</w>
zu fragen</w>
zo om</w>
zip-arkhi v</w>
zip with</w>
zip with
zip file</w>
zip entry</w>
zip _entry</w>
ziff er</w>
zi r
zir h
zirh li</w>
zh eniia</w>
zh an
zhan ra</w>
zh ais
zertifi kat
zertifikat s
zertifikats signi
zertifikatssigni erung
zertifikatssignierung san
zertifikatssignierungsan frage</w>
zero- terminated</w>
zen- kaku</w>
zeichensat z</w>
zei tig</w>
zaversh itsia</w>
zaversh aet</w>
zashchishch ennom</w>
zapushch ennogo</w>
zan iat
zaman_ damg
zaman_damg asi</w>
zaman ini</w>
zam ech
zamech anie</w>
zah lt</w>
zagolov kov</w>
zagolov ki</w>
zag ruz
zadan a</w>
zadach ami</w>
za pol
za k
z z
z ung</w>
z c
zc la</w>
yuk sek
yuksek ligini</w>
yp en</w>
yor um
yontem lerini</w>
yontem le</w>
yontem ini</w>
yontem i</w>
yon eti
yerlesti rerek</w>
ye rel
ye ar
yaz_ errno()</w>
yaz_ connect()</w>
yaz mak</w>
yaz il
yar_ client</w>
yar _server</w>
yap ti
yansitil an</w>
yan i</w>
yaf_view_ simple
yaf_view_simple ::
yaf_view_simple:: assign
yaf_view_simple::assign ()</w>
yaf_dispat cher
yaf_config_ simple</w>
yaf_config_ ini</w>
y- key</w>
y ot
yot y
y n</w>
y il</w>
y en
y d
yd ushch
y ay
y ar</w>
y an</w>
y 2</w>
xs lt</w>
xs l</w>
xml writer</w>
x509 sert</w>
x509 certdata</w>
x509 _
x- key</w>
x p</w>
x lock
x includes</w>
x code
xcode build</w>
x b</w>
x _get_
x_get_ record()</w>
x *x</w>
wur de
wrong- type-
wrapper _un
wrapper_un regist
wrapper_unregist er()</w>
worl ds</w>
work spaces</w>
work ers</w>
wor st</w>
wor ried</w>
wor d-
wir ft</w>
wink el</w>
window- edges</w>
win32o le</w>
win cache_
wincache_ lock()</w>
win 32</w>
wid th()</w>
wid row</w>
wid get</w>
wi eder
who is</w>
wen det</w>
wei b
weib ull</w>
war ten</w>
wal k
wah l
wa ke
w to</w>
w +</w>
w ()</w>
vyzvan o</w>
vyvo d</w>
vyrazh eniiu</w>
vyrazh enie</w>
vypoln enii</w>
vydelen nuiu</w>
vybran nogo</w>
vy stavliaet</w>
vt_ record</w>
vstro ennym</w>
vsi u</w>
vremen noi</w>
vozvrashchaem oi</w>
vozni kno
voznikno v
vozniknov eniia</w>
vozmozh nosti</w>
vozmozh nost</w>
vorkom mt</w>
vorkom men
vorkommen s</w>
vor heri
volu cion</w>
vol ver</w>
vol cado</w>
void *)</w>
vo la
vola tile</w>
vo is
vnutren niuiu</w>
vnesh nei</w>
vme sto</w>
vme ste</w>
vlozhen nosti</w>
virt uel
virtuel les</w>
vincul o</w>
vincul ado</w>
vincul ada</w>
vidi mo
vidimo sti</w>
video -
vide o</w>
vi i</w>
vi d</w>
vi atsia</w>
verzeichnis ses</w>
verzeichnis -
verwen den</w>
verti kal
verti ces</w>
verschi e
verschie bt</w>
verknup fung</w>
veritaban ini</w>
verglei ch
verbind ungen</w>
ver ur
ver sch
versch oben</w>
ver sao</w>
ver kur
verkur zt</w>
ver itable</w>
ver isinin</w>
ver isini</w>
ver iler
ver 's</w>
ven o
veno de</w>
ven ing</w>
ven ew
vec es</w>
ve is</w>
ve es</w>
ve b-
varian t_
variant_ cast
variant_cast ()</w>
variable _name</w>
variable 's</w>
vari ation</w>
var ita</w>
var _name</w>
var -
van iia</w>
validat ing</w>
vali date
validate -fn</w>
v st
v sem
vsem i</w>
v ra
v la
v khodiashch
v fs</w>
v es
v 6
v 3</w>
v 2.
v .
uzak_ dosya</w>
uz ly</w>
uyg ul
uy sa</w>
uu encoded</w>
ution time</w>
utiliz arla</w>
utf- 8
utf encoded</w>
utf 8
ut ot</w>
ut _line</w>
ustanovlen a</w>
ustanov ka</w>
ust are
user- callable</w>
user info</w>
user _
use_ trans
use_trans _
use_trans_ sid</w>
us une</w>
us pe
us lo
us e
us arlo</w>
us -
ure tilen</w>
ure til
ur o</w>
ur o
uro ven</w>
ur :</w>
ur )</w>
updat er
updater ::__construct()</w>
up rav
uprav liaiushch
up loads</w>
up load-
unix- timestamp</w>
universal -time</w>
unit test</w>
unicode block</w>
unic amente</w>
uni que
ungst ypen</w>
ungs funktion</w>
under flow</w>
un zips</w>
un subscribe</w>
un shared</w>
un set()</w>
un scaled</w>
un representable</w>
un parsed</w>
un packed</w>
un lock</w>
un load</w>
un link()</w>
un la</w>
un interned</w>
un idad</w>
un escapes</w>
un es</w>
un da
un compresses</w>
un can</w>
un biased</w>
un -
umge ke
um ul
um ud
umud ur</w>
ul er
ul e
ule bas
ulebas ed
ulebased collationkey</w>
ukazat eliu</w>
ukazan noi</w>
uint max_t</w>
uil le</w>
ug ol</w>
ufru f</w>
uel s</w>
udal enie</w>
ud re</w>
ud p</w>
ubereinsti mm
uber tra
u z</w>
u star
ustar se</w>
u face</w>
u data</w>
u d</w>
u bi
type code</w>
type /
typ ev
typev ari
typevari able</w>
typ ec
typec lass</w>
typ e_
turun deki</w>
turtles h
turtlesh ape</w>
turt les</w>
turt le
tur a/
tuple bag</w>
tsvet ov</w>
tsi ruiushch
try acquire</w>
try /
try/ catch</w>
trun ca</w>
tru th
truth y</w>
tro uvant</w>
trig ge
trigge red</w>
tri gram</w>
tre bu
tre ating</w>
traz o</w>
trassi rovku</w>
tranza ktsii</w>
tranza ktsi
tranzaktsi iu</w>
transi tion</w>
transform a</w>
trans la
transla tions</w>
trans duc
trans curri
trac es</w>
trac ed</w>
trac e-
tra f
traf fic</w>
tr ust</w>
tr a</w>
total ite</w>
tor ight</w>
tor i
topo logical</w>
topl u</w>
topl ar</w>
topl am</w>
top ic</w>
top -
ton um
token handler()</w>
tok yoty
togg les</w>
to- buffer</w>
to ler
toler ance</w>
to ffset</w>
to element</w>
to :</w>
tmpnam _s</w>
tit ulo</w>
tipo v</w>
tip ini</w>
tionn el</w>
tion ed</w>
tin ence</w>
timezon e()</w>
timestamp ()</w>
timest amps</w>
timeout ()</w>
tig ungen</w>
tific ation</w>
ti tem</w>
ti so
tiso date()</w>
ti rip</w>
ti o</w>
ti ia</w>
ti gi</w>
ti dy
ti ate</w>
throwerrnoifminus 1</w>
thread safe</w>
thread factory</w>
tho st
thing s-
there in</w>
there fore</w>
the ader</w>
thash code</w>
thandler class</w>
th ings</w>
th in
textdomain _code
textdomain_code set()</w>
test suite</w>
test -
termin fo</w>
termin ator</w>
termin ar</w>
termin ado</w>
termin a</w>
term s_
terms_ sort_
ter cer</w>
ter a</w>
tep one</w>
ten ant</w>
tempor isation</w>
template entry</w>
templat e()</w>
temp -
tem po</w>
tek ste</w>
te in</w>
te il
te gi</w>
te d_
te ar
tear down</w>
tcp /
tcp/ ip</w>
tcl t
tas ir</w>
tari h</w>
target- filename</w>
taniticisin in</w>
taniticisin dan</w>
tanitici yi</w>
taniti ci</w>
tanim lan
tan an</w>
tampon unun</w>
tamam inin</w>
taima ut</w>
tag_ rules</w>
tag ge
tablit sy
tablitsy ,</w>
tabellen namen</w>
tab- completion</w>
tab lits</w>
ta- iteratora</w>
ta ke
ta ge</w>
t_ suspend()</w>
t_ id()</w>
t[ n],</w>
t- window-
t yi</w>
t vars</w>
t our
t ku</w>
t inin</w>
t esti
t ent</w>
t ech
t ch</w>
t b
t at
t ando</w>
szh at
system exit
system -
synthe tic</w>
synchron izes</w>
sync semaphore</w>
sync point</w>
symbol )</w>
sybase_ fetch_row()</w>
sybase_ connect()</w>
switch-to- prev-
switch-to-prev- buffer</w>
sviazan nym</w>
sviazan nyi</w>
[...]
